#include "model.h"
const unsigned char model_tflite[] = {
  0x1C, 0x00, 0x00, 0x00, 0x54, 0x46, 0x4C, 0x33, 0x14, 0x00,
  0x20, 0x00, 0x1C, 0x00, 0x18, 0x00, 0x14, 0x00, 0x10, 0x00,
  0x0C, 0x00, 0x00, 0x00, 0x08, 0x00, 0x04, 0x00, 0x14, 0x00,
  0x00, 0x00, 0x1C, 0x00, 0x00, 0x00, 0x88, 0x00, 0x00, 0x00,
  0xE0, 0x00, 0x00, 0x00, 0xA4, 0x0F, 0x00, 0x00, 0xB4, 0x0F,
  0x00, 0x00, 0xF4, 0x21, 0x00, 0x00, 0x03, 0x00, 0x00, 0x00,
  0x01, 0x00, 0x00, 0x00, 0x04, 0x00, 0x00, 0x00, 0x3A, 0xEE,
  0xFF, 0xFF, 0x0C, 0x00, 0x00, 0x00, 0x1C, 0x00, 0x00, 0x00,
  0x38, 0x00, 0x00, 0x00, 0x0F, 0x00, 0x00, 0x00, 0x73, 0x65,
  0x72, 0x76, 0x69, 0x6E, 0x67, 0x5F, 0x64, 0x65, 0x66, 0x61,
  0x75, 0x6C, 0x74, 0x00, 0x01, 0x00, 0x00, 0x00, 0x04, 0x00,
  0x00, 0x00, 0x94, 0xFF, 0xFF, 0xFF, 0x16, 0x00, 0x00, 0x00,
  0x04, 0x00, 0x00, 0x00, 0x05, 0x00, 0x00, 0x00, 0x64, 0x65,
  0x6E, 0x73, 0x65, 0x00, 0x00, 0x00, 0x01, 0x00, 0x00, 0x00,
  0x04, 0x00, 0x00, 0x00, 0x3E, 0xEE, 0xFF, 0xFF, 0x04, 0x00,
  0x00, 0x00, 0x0D, 0x00, 0x00, 0x00, 0x72, 0x65, 0x73, 0x68,
  0x61, 0x70, 0x65, 0x5F, 0x69, 0x6E, 0x70, 0x75, 0x74, 0x00,
  0x00, 0x00, 0x02, 0x00, 0x00, 0x00, 0x34, 0x00, 0x00, 0x00,
  0x04, 0x00, 0x00, 0x00, 0xDC, 0xFF, 0xFF, 0xFF, 0x19, 0x00,
  0x00, 0x00, 0x04, 0x00, 0x00, 0x00, 0x13, 0x00, 0x00, 0x00,
  0x43, 0x4F, 0x4E, 0x56, 0x45, 0x52, 0x53, 0x49, 0x4F, 0x4E,
  0x5F, 0x4D, 0x45, 0x54, 0x41, 0x44, 0x41, 0x54, 0x41, 0x00,
  0x08, 0x00, 0x0C, 0x00, 0x08, 0x00, 0x04, 0x00, 0x08, 0x00,
  0x00, 0x00, 0x18, 0x00, 0x00, 0x00, 0x04, 0x00, 0x00, 0x00,
  0x13, 0x00, 0x00, 0x00, 0x6D, 0x69, 0x6E, 0x5F, 0x72, 0x75,
  0x6E, 0x74, 0x69, 0x6D, 0x65, 0x5F, 0x76, 0x65, 0x72, 0x73,
  0x69, 0x6F, 0x6E, 0x00, 0x1A, 0x00, 0x00, 0x00, 0xC0, 0x0E,
  0x00, 0x00, 0xB8, 0x0E, 0x00, 0x00, 0xA4, 0x0E, 0x00, 0x00,
  0x90, 0x0E, 0x00, 0x00, 0x7C, 0x0E, 0x00, 0x00, 0x74, 0x0E,
  0x00, 0x00, 0x5C, 0x0E, 0x00, 0x00, 0x44, 0x0E, 0x00, 0x00,
  0x34, 0x06, 0x00, 0x00, 0xE4, 0x05, 0x00, 0x00, 0xD4, 0x01,
  0x00, 0x00, 0x84, 0x01, 0x00, 0x00, 0xE4, 0x00, 0x00, 0x00,
  0xDC, 0x00, 0x00, 0x00, 0xD4, 0x00, 0x00, 0x00, 0xCC, 0x00,
  0x00, 0x00, 0xC4, 0x00, 0x00, 0x00, 0xBC, 0x00, 0x00, 0x00,
  0xB4, 0x00, 0x00, 0x00, 0xAC, 0x00, 0x00, 0x00, 0xA4, 0x00,
  0x00, 0x00, 0x9C, 0x00, 0x00, 0x00, 0x94, 0x00, 0x00, 0x00,
  0x8C, 0x00, 0x00, 0x00, 0x6C, 0x00, 0x00, 0x00, 0x04, 0x00,
  0x00, 0x00, 0x22, 0xEF, 0xFF, 0xFF, 0x04, 0x00, 0x00, 0x00,
  0x58, 0x00, 0x00, 0x00, 0x0C, 0x00, 0x00, 0x00, 0x08, 0x00,
  0x0E, 0x00, 0x08, 0x00, 0x04, 0x00, 0x08, 0x00, 0x00, 0x00,
  0x10, 0x00, 0x00, 0x00, 0x28, 0x00, 0x00, 0x00, 0x00, 0x00,
  0x06, 0x00, 0x08, 0x00, 0x04, 0x00, 0x06, 0x00, 0x00, 0x00,
  0x04, 0x00, 0x00, 0x00, 0x01, 0x00, 0x00, 0x00, 0xEB, 0x03,
  0x00, 0x00, 0x00, 0x00, 0x0A, 0x00, 0x10, 0x00, 0x0C, 0x00,
  0x08, 0x00, 0x04, 0x00, 0x0A, 0x00, 0x00, 0x00, 0x01, 0x00,
  0x00, 0x00, 0x02, 0x00, 0x00, 0x00, 0x04, 0x00, 0x00, 0x00,
  0x06, 0x00, 0x00, 0x00, 0x32, 0x2E, 0x31, 0x32, 0x2E, 0x30,
  0x00, 0x00, 0x86, 0xEF, 0xFF, 0xFF, 0x04, 0x00, 0x00, 0x00,
  0x10, 0x00, 0x00, 0x00, 0x31, 0x2E, 0x31, 0x34, 0x2E, 0x30,
  0x00, 0x00, 0x00, 0x00, 0x00, 0x00, 0x00, 0x00, 0x00, 0x00,
  0xB4, 0xE0, 0xFF, 0xFF, 0xB8, 0xE0, 0xFF, 0xFF, 0xBC, 0xE0,
  0xFF, 0xFF, 0xC0, 0xE0, 0xFF, 0xFF, 0xC4, 0xE0, 0xFF, 0xFF,
  0xC8, 0xE0, 0xFF, 0xFF, 0xCC, 0xE0, 0xFF, 0xFF, 0xD0, 0xE0,
  0xFF, 0xFF, 0xD4, 0xE0, 0xFF, 0xFF, 0xD8, 0xE0, 0xFF, 0xFF,
  0xDC, 0xE0, 0xFF, 0xFF, 0xCE, 0xEF, 0xFF, 0xFF, 0x04, 0x00,
  0x00, 0x00, 0x90, 0x00, 0x00, 0x00, 0x7F, 0xC0, 0x7B, 0x78,
  0x46, 0x7D, 0x9B, 0xCD, 0x52, 0x54, 0xA1, 0x81, 0x6C, 0x20,
  0xC3, 0x54, 0xEF, 0xEA, 0x7F, 0x10, 0xA7, 0x3E, 0x30, 0xCD,
  0xE7, 0x2A, 0x72, 0x40, 0xE8, 0x88, 0x84, 0xCB, 0x7F, 0x16,
  0x4D, 0xE9, 0x78, 0x61, 0x11, 0xA9, 0x81, 0x64, 0xD7, 0x6D,
  0x65, 0x74, 0x25, 0x53, 0x7F, 0x09, 0xF2, 0x42, 0x70, 0x0B,
  0xF1, 0x28, 0x7F, 0x38, 0xCC, 0x3D, 0xC8, 0x98, 0x9A, 0xD0,
  0xB1, 0x7F, 0x39, 0xE8, 0xD6, 0xCA, 0x62, 0xBF, 0x8D, 0x25,
  0xCF, 0xAC, 0xBF, 0x45, 0xB8, 0x81, 0xD7, 0x3B, 0xA8, 0x81,
  0x40, 0x3F, 0xF1, 0x5F, 0xFF, 0x25, 0x45, 0x39, 0x28, 0x6D,
  0x78, 0x4A, 0xFB, 0x67, 0x7F, 0xD9, 0xDE, 0xE8, 0x81, 0x43,
  0xBE, 0xA2, 0xEB, 0xBE, 0xD7, 0x09, 0x4F, 0x38, 0x46, 0x8E,
  0x2D, 0x15, 0x81, 0xAB, 0x72, 0x44, 0xBB, 0x73, 0x33, 0xC2,
  0x81, 0x9B, 0x5D, 0x07, 0x2C, 0xE1, 0x62, 0x32, 0xDA, 0x7F,
  0x37, 0x51, 0x42, 0x3A, 0xB5, 0x44, 0x8C, 0xE2, 0x81, 0x26,
  0x6A, 0xF0, 0xFF, 0xFF, 0x04, 0x00, 0x00, 0x00, 0x40, 0x00,
  0x00, 0x00, 0xFC, 0xFF, 0xFF, 0xFF, 0x4B, 0x0E, 0x00, 0x00,
  0xB2, 0xF7, 0xFF, 0xFF, 0x81, 0xF9, 0xFF, 0xFF, 0xDD, 0x12,
  0x00, 0x00, 0x9D, 0xB7, 0xFF, 0xFF, 0xFA, 0x19, 0x00, 0x00,
  0xEF, 0x01, 0x00, 0x00, 0x27, 0x4D, 0x00, 0x00, 0x9E, 0xF1,
  0xFF, 0xFF, 0xB8, 0xDC, 0xFF, 0xFF, 0x71, 0xF8, 0xFF, 0xFF,
  0x9E, 0x00, 0x00, 0x00, 0x4D, 0x0A, 0x00, 0x00, 0xF0, 0xF0,
  0xFF, 0xFF, 0x1D, 0x17, 0x00, 0x00, 0xB6, 0xF0, 0xFF, 0xFF,
  0x04, 0x00, 0x00, 0x00, 0x00, 0x04, 0x00, 0x00, 0xA7, 0x10,
  0xD3, 0xA9, 0xE9, 0x20, 0x6B, 0x04, 0x66, 0x1E, 0x37, 0x1E,
  0xE6, 0x03, 0x66, 0x44, 0x41, 0xD5, 0xD5, 0x2C, 0x25, 0x77,
  0x5D, 0x13, 0x7F, 0xEC, 0x04, 0x23, 0x3C, 0x33, 0x45, 0x7F,
  0xFF, 0x12, 0xCB, 0xFE, 0xB4, 0x56, 0x53, 0x15, 0x20, 0x45,
  0x14, 0x9E, 0x5B, 0x34, 0x3B, 0x49, 0xF4, 0x4E, 0x3C, 0x10,
  0x1F, 0xCB, 0x35, 0x2B, 0x6F, 0x2C, 0x3C, 0x6E, 0x4E, 0xF4,
  0x81, 0x39, 0x94, 0x38, 0xE3, 0x9E, 0x90, 0x28, 0x36, 0xC7,
  0x71, 0x1A, 0x3B, 0x9F, 0x57, 0xF7, 0x8A, 0x30, 0x1C, 0x37,
  0xB9, 0xEB, 0x01, 0xB0, 0x28, 0x03, 0x71, 0xEA, 0xE5, 0x60,
  0xE2, 0x28, 0x72, 0x27, 0xE0, 0xF4, 0xEC, 0xF3, 0xA5, 0x88,
  0x49, 0x0A, 0x4E, 0xE3, 0x9B, 0x39, 0xEC, 0xF8, 0xF1, 0x59,
  0xE4, 0x37, 0x96, 0x38, 0x94, 0xDA, 0x5A, 0x0A, 0x34, 0x54,
  0x84, 0xF2, 0x3B, 0x4B, 0x13, 0x57, 0xBD, 0x17, 0x8B, 0x1C,
  0xD8, 0x33, 0x71, 0x04, 0x49, 0xB0, 0xE3, 0x43, 0x4B, 0x3B,
  0x01, 0x0E, 0x36, 0xF8, 0x56, 0xC8, 0xB6, 0x11, 0x4B, 0xD1,
  0x57, 0xD2, 0x4E, 0xDC, 0x41, 0x0E, 0x62, 0xF1, 0x0C, 0xFC,
  0xCA, 0x20, 0x85, 0x6F, 0x7F, 0x1E, 0x4D, 0x55, 0xD4, 0x81,
  0xF9, 0xF9, 0xC7, 0x2A, 0x44, 0x1F, 0xE6, 0x19, 0x4C, 0xDE,
  0x7D, 0x1D, 0x5A, 0x39, 0x45, 0x0F, 0xED, 0x46, 0x86, 0xFF,
  0x0F, 0x38, 0xEE, 0xE5, 0xB2, 0xCD, 0x77, 0x11, 0x6B, 0xC7,
  0x12, 0x46, 0x10, 0xF9, 0x1A, 0x43, 0xD4, 0x28, 0x53, 0x32,
  0x4A, 0x22, 0x52, 0x7F, 0x67, 0x0E, 0xBD, 0x78, 0x1E, 0x06,
  0xD8, 0xF4, 0x60, 0x1C, 0x04, 0x05, 0xB4, 0xA8, 0x77, 0x0D,
  0x67, 0x20, 0x98, 0xCE, 0x24, 0xF5, 0xD1, 0x30, 0xBD, 0xD3,
  0xEF, 0x9A, 0xCD, 0x3C, 0x30, 0x01, 0x59, 0x7F, 0xA2, 0x19,
  0xC0, 0x1A, 0x59, 0x46, 0x36, 0x11, 0xF1, 0xD6, 0xC6, 0x08,
  0x69, 0xF0, 0x50, 0xCA, 0x41, 0x0C, 0x56, 0x44, 0x28, 0x10,
  0xB0, 0x3E, 0x13, 0x8E, 0xB0, 0x4F, 0x65, 0x12, 0x44, 0x0F,
  0x02, 0x48, 0x5F, 0x7F, 0x10, 0x24, 0xD4, 0xF4, 0x77, 0x68,
  0xDA, 0xCA, 0x46, 0xDE, 0x37, 0xFB, 0x48, 0xA3, 0xDE, 0x3F,
  0xCC, 0x53, 0x33, 0xE7, 0x64, 0x81, 0x17, 0xE6, 0x64, 0x0C,
  0x72, 0xD9, 0x18, 0x33, 0x35, 0x58, 0xA3, 0xF5, 0xA6, 0xF8,
  0xD4, 0x8F, 0xEE, 0x27, 0x49, 0x1B, 0x2A, 0x4B, 0x3A, 0x20,
  0x4F, 0x75, 0x21, 0x3A, 0x00, 0x0F, 0xAA, 0x4D, 0x3C, 0x65,
  0x4F, 0xE2, 0x47, 0x1F, 0x21, 0xFC, 0x3C, 0x40, 0xDC, 0x1C,
  0x50, 0xEC, 0x5A, 0x24, 0xEB, 0xA7, 0x18, 0x30, 0x44, 0x1A,
  0x81, 0x15, 0xF5, 0x10, 0x50, 0x24, 0x2A, 0x12, 0x0E, 0x41,
  0xE0, 0xB4, 0x1A, 0x1A, 0x44, 0x67, 0x9C, 0x90, 0x25, 0x11,
  0x4A, 0x30, 0xCB, 0x33, 0x2A, 0x3D, 0x48, 0xFB, 0x23, 0x3B,
  0x5C, 0xEE, 0x5A, 0xBB, 0x7F, 0x20, 0x40, 0x6F, 0xC7, 0x76,
  0x29, 0x6E, 0x2B, 0x74, 0x2A, 0x28, 0x5D, 0xD4, 0x14, 0xF0,
  0x01, 0x16, 0x0E, 0x55, 0x63, 0x4C, 0x63, 0xEA, 0x01, 0xFA,
  0xFE, 0xE7, 0x1D, 0xE9, 0x3B, 0x77, 0x14, 0x1C, 0xC2, 0x27,
  0x08, 0x08, 0x7B, 0xBE, 0xED, 0x42, 0x06, 0xD1, 0x7F, 0x7B,
  0x3C, 0xDC, 0xD6, 0xFE, 0x2B, 0x2A, 0xDD, 0x02, 0xCD, 0x1C,
  0x45, 0x2F, 0x0E, 0x55, 0x40, 0x19, 0xE0, 0xFC, 0xFC, 0x08,
  0xA2, 0xE8, 0xB3, 0x42, 0x12, 0xA9, 0x19, 0x7C, 0x0B, 0x16,
  0x40, 0xFD, 0x0B, 0x9C, 0xEA, 0x51, 0x36, 0x08, 0xBF, 0x25,
  0xD8, 0x94, 0x4C, 0xC4, 0xFA, 0x01, 0x53, 0xFA, 0x9D, 0x90,
  0xFE, 0x1C, 0xFA, 0x37, 0xD4, 0x20, 0x40, 0xB6, 0xE2, 0x86,
  0xE6, 0xF2, 0x58, 0x3A, 0xA3, 0x9A, 0x1F, 0x29, 0xE9, 0x62,
  0x4B, 0x21, 0x44, 0x20, 0xAF, 0x4C, 0xFB, 0xCD, 0x4D, 0xED,
  0x10, 0xEB, 0x6D, 0xD6, 0xFB, 0x20, 0xB4, 0x44, 0x4C, 0x2E,
  0x95, 0x7F, 0x17, 0xF6, 0x46, 0xE5, 0xF1, 0x04, 0xEE, 0x3D,
  0x51, 0xEF, 0x27, 0xF7, 0x7F, 0xEF, 0x25, 0x5D, 0xED, 0x0D,
  0x26, 0xE4, 0x43, 0xA0, 0x43, 0x06, 0x85, 0x02, 0xA6, 0x39,
  0x36, 0x2E, 0xA2, 0x9E, 0x3C, 0xE7, 0x43, 0xF3, 0x10, 0xC5,
  0xE8, 0x02, 0xF0, 0xEA, 0xFB, 0x05, 0xCD, 0x8D, 0x5F, 0x19,
  0x03, 0x4E, 0x23, 0x61, 0xDA, 0xF9, 0x31, 0x2F, 0xA0, 0x2E,
  0xC0, 0x0A, 0x6D, 0x90, 0x8E, 0x49, 0x38, 0x78, 0x29, 0xF1,
  0xF7, 0xF0, 0x13, 0xF9, 0xF2, 0x2E, 0x0B, 0xB6, 0xFC, 0x55,
  0xD2, 0x06, 0x2B, 0x46, 0x2B, 0x0D, 0xD0, 0x04, 0x30, 0x22,
  0xF6, 0x3D, 0xBF, 0xCD, 0x76, 0xC0, 0x60, 0x8F, 0x21, 0xE5,
  0x12, 0xE4, 0xA5, 0xCF, 0x42, 0x2A, 0x2A, 0x3F, 0x14, 0x28,
  0x4F, 0x22, 0xFC, 0x74, 0xC2, 0xCE, 0x26, 0xB5, 0x66, 0x8F,
  0x20, 0x34, 0x2E, 0x40, 0xE8, 0x12, 0xC8, 0x94, 0xBD, 0x6D,
  0xC4, 0xE2, 0x49, 0xBE, 0x42, 0x4F, 0x54, 0xFF, 0xA4, 0x38,
  0xAB, 0x3F, 0xEF, 0x39, 0xA2, 0x8C, 0xE0, 0x42, 0x24, 0xEF,
  0xFA, 0x77, 0x04, 0xF1, 0xDD, 0x05, 0xAF, 0x49, 0x3A, 0xB5,
  0xB5, 0xD8, 0xE9, 0x40, 0x35, 0xC2, 0xF0, 0xC9, 0xFA, 0xF0,
  0x0C, 0x56, 0x5B, 0xDF, 0xDA, 0x1D, 0xE4, 0x96, 0xEC, 0x75,
  0x42, 0x5E, 0xDF, 0xE8, 0xD1, 0x59, 0xE4, 0x3A, 0xFB, 0xD6,
  0x3E, 0x60, 0xFE, 0xE0, 0xFF, 0x7A, 0x2D, 0x05, 0xD1, 0x87,
  0xD1, 0x3D, 0xD2, 0xE5, 0xDB, 0xAE, 0x22, 0xCD, 0xAE, 0x6F,
  0x1F, 0xFF, 0x27, 0x18, 0xE6, 0x0C, 0xFE, 0x32, 0x08, 0x00,
  0xB2, 0xAE, 0x11, 0xFF, 0x5C, 0x37, 0x2A, 0xEA, 0x20, 0xCA,
  0x9A, 0x6F, 0xED, 0x23, 0x49, 0x01, 0xE0, 0x70, 0xCE, 0xA8,
  0xBD, 0x62, 0xFA, 0xDB, 0x30, 0x00, 0xFF, 0x21, 0xF8, 0x3C,
  0xD9, 0x51, 0x99, 0xD7, 0xFA, 0xB2, 0x45, 0xBE, 0xFC, 0x34,
  0x2A, 0xA4, 0xFF, 0x26, 0xE5, 0x49, 0x62, 0x36, 0x63, 0x38,
  0x48, 0x29, 0xBD, 0x82, 0x1A, 0xFD, 0x12, 0x2A, 0x54, 0x4C,
  0x2E, 0x1E, 0xB8, 0x65, 0xD7, 0x7F, 0xAC, 0x2E, 0x48, 0xE3,
  0x0F, 0xCC, 0x40, 0xE4, 0xFC, 0x0D, 0x29, 0x0E, 0x5A, 0x79,
  0x52, 0xC6, 0xE3, 0xEE, 0x53, 0xA0, 0xE9, 0x15, 0x5F, 0x45,
  0xFD, 0x60, 0xD6, 0xEC, 0xBA, 0x51, 0xD8, 0xF7, 0xC6, 0x96,
  0xE8, 0xDD, 0xF7, 0x57, 0x21, 0x5F, 0xF2, 0x25, 0x5F, 0x02,
  0x9B, 0x5C, 0xAF, 0xF2, 0x48, 0x23, 0xD6, 0xCD, 0xE7, 0x3B,
  0x2B, 0x1B, 0xF9, 0x6E, 0xF5, 0xFD, 0x04, 0x22, 0xAB, 0xFF,
  0xFF, 0xB9, 0x13, 0xE0, 0xF1, 0x17, 0x26, 0x1A, 0x93, 0xC1,
  0x3D, 0x13, 0x67, 0x39, 0xF0, 0x62, 0xC3, 0x3D, 0xAE, 0xE4,
  0x20, 0x2E, 0x47, 0x2F, 0x3C, 0xC1, 0x4E, 0x30, 0x60, 0x34,
  0x81, 0x03, 0xCD, 0x10, 0x81, 0x31, 0xE1, 0xFE, 0x43, 0xC3,
  0x51, 0xE7, 0x1B, 0x50, 0x16, 0x40, 0xCE, 0xE2, 0xD0, 0x24,
  0x4C, 0x0C, 0xE4, 0x41, 0x1B, 0x0A, 0x27, 0x07, 0xE7, 0xFB,
  0x17, 0x11, 0xFE, 0x53, 0x18, 0x20, 0x42, 0xF3, 0xF5, 0x19,
  0x47, 0x0D, 0x48, 0xA1, 0xD3, 0x25, 0xBA, 0x0E, 0xBB, 0xC0,
  0xB1, 0xE0, 0xCE, 0x13, 0xD9, 0x4D, 0x16, 0xE0, 0x1A, 0x29,
  0xD9, 0x0D, 0x2C, 0x3A, 0x50, 0xC2, 0x1D, 0xA4, 0xB6, 0x74,
  0xCA, 0xFB, 0x1B, 0x4C, 0xA8, 0x5D, 0x50, 0x01, 0xF9, 0x32,
  0x64, 0xA6, 0x54, 0x06, 0xA9, 0x4E, 0xD9, 0x57, 0x20, 0x53,
  0xE5, 0x0B, 0xEF, 0xD5, 0xB9, 0x04, 0xD3, 0xC5, 0x26, 0xEF,
  0x9D, 0x66, 0xAA, 0x3F, 0x0D, 0xCF, 0x88, 0xC2, 0xC8, 0xEE,
  0x08, 0x0B, 0xC2, 0xF4, 0xFF, 0xFF, 0x04, 0x00, 0x00, 0x00,
  0x40, 0x00, 0x00, 0x00, 0xE8, 0xF3, 0xFF, 0xFF, 0xB1, 0x02,
  0x00, 0x00, 0xE8, 0xFA, 0xFF, 0xFF, 0x16, 0xF7, 0xFF, 0xFF,
  0x81, 0xF2, 0xFF, 0xFF, 0x3C, 0xF9, 0xFF, 0xFF, 0x8D, 0xFF,
  0xFF, 0xFF, 0x84, 0xFE, 0xFF, 0xFF, 0x8E, 0x01, 0x00, 0x00,
  0xEF, 0x05, 0x00, 0x00, 0xD1, 0x08, 0x00, 0x00, 0x5C, 0xFA,
  0xFF, 0xFF, 0xF9, 0xFA, 0xFF, 0xFF, 0x7F, 0xF4, 0xFF, 0xFF,
  0x0B, 0xFB, 0xFF, 0xFF, 0x68, 0xFF, 0xFF, 0xFF, 0x0E, 0xF5,
  0xFF, 0xFF, 0x04, 0x00, 0x00, 0x00, 0x00, 0x08, 0x00, 0x00,
  0x13, 0x02, 0x0B, 0x10, 0xED, 0x05, 0x9C, 0xAD, 0x26, 0x01,
  0x14, 0xFD, 0xFA, 0xEC, 0x08, 0xCC, 0x16, 0xE1, 0xF6, 0x04,
  0xE8, 0x0B, 0xC8, 0xE0, 0x21, 0xFF, 0x13, 0xF7, 0xFB, 0xDA,
  0xE4, 0xDC, 0xF5, 0xD6, 0x0E, 0x0D, 0x05, 0x14, 0xC4, 0x09,
  0x47, 0xEB, 0xE8, 0x00, 0xF3, 0xF8, 0x1C, 0xEC, 0x08, 0xD4,
  0xE9, 0xF6, 0x03, 0x03, 0xE0, 0xCA, 0x33, 0x16, 0xE1, 0xE4,
  0xB5, 0xFF, 0xFC, 0xE0, 0xF5, 0xF9, 0x0D, 0x17, 0xE9, 0xF8,
  0xE7, 0xF3, 0x50, 0xF1, 0x33, 0xFA, 0xE7, 0xCD, 0x0D, 0xD7,
  0xE7, 0x07, 0x06, 0xF0, 0xF5, 0x1B, 0xE6, 0x04, 0x3C, 0x0C,
  0x11, 0xE5, 0xFF, 0xEF, 0xF6, 0xD9, 0xFA, 0x03, 0xDD, 0x19,
  0xF8, 0x17, 0xD2, 0x04, 0x14, 0x23, 0x39, 0x1B, 0xCD, 0xCA,
  0xED, 0xDF, 0x0F, 0xFC, 0xE3, 0x10, 0x09, 0x12, 0x14, 0x14,
  0x1B, 0x3F, 0x04, 0xE7, 0xF6, 0x0A, 0xEB, 0xEA, 0xE6, 0x2B,
  0x1B, 0xE0, 0xEE, 0x09, 0xF7, 0xC4, 0x19, 0x15, 0x09, 0x13,
  0x1A, 0x0A, 0xEE, 0xE6, 0xFE, 0xFA, 0x2B, 0x14, 0x1B, 0x1D,
  0x26, 0x44, 0x10, 0xFA, 0x05, 0xE1, 0x01, 0x1F, 0xF4, 0x0A,
  0xEE, 0x08, 0x1C, 0xF0, 0x04, 0x0C, 0x09, 0xBA, 0xFA, 0xFE,
  0xE5, 0xEF, 0xF4, 0x05, 0x0A, 0x1A, 0x03, 0xCA, 0xEF, 0x18,
  0xFE, 0xE7, 0xD3, 0xDC, 0x1E, 0xE0, 0xED, 0x02, 0x03, 0x0C,
  0x04, 0xE6, 0xFE, 0xBD, 0xE8, 0x00, 0x09, 0xFE, 0xC3, 0xA1,
  0xF4, 0xDD, 0x16, 0x15, 0xC1, 0xD6, 0xEA, 0xEA, 0x12, 0xE4,
  0x01, 0xDD, 0x1E, 0xFF, 0x1A, 0xCB, 0x03, 0xEF, 0x3F, 0x0F,
  0xF8, 0xE3, 0x08, 0xE9, 0xF4, 0xF3, 0x0C, 0x14, 0xEF, 0xF6,
  0x13, 0x86, 0x22, 0x2C, 0xEB, 0x1C, 0xF7, 0xCF, 0x0D, 0xE9,
  0x0C, 0x37, 0xED, 0x16, 0xFD, 0x18, 0x29, 0xD8, 0x28, 0x2C,
  0xF9, 0xEE, 0xFD, 0x0E, 0xE7, 0xF8, 0x18, 0x10, 0xEF, 0xFE,
  0x02, 0x27, 0xF6, 0x08, 0x25, 0x37, 0xC4, 0xF1, 0x28, 0xF7,
  0x13, 0x31, 0x0C, 0x2A, 0x03, 0xEF, 0x1A, 0x1C, 0x12, 0xF8,
  0x03, 0xFA, 0x07, 0xE7, 0x10, 0xFA, 0x1A, 0x18, 0xE6, 0xFC,
  0xE7, 0x03, 0xFA, 0x0E, 0x07, 0x10, 0xC8, 0xFE, 0xF3, 0xFD,
  0x0D, 0xFA, 0x15, 0xF6, 0x23, 0xE4, 0xE9, 0x10, 0x11, 0xEB,
  0x07, 0xFE, 0xBE, 0xDE, 0xAB, 0x0F, 0xD8, 0xF2, 0x0B, 0xFB,
  0xEE, 0xCB, 0xEE, 0xF3, 0x1A, 0xF4, 0x07, 0xE5, 0xCC, 0xC7,
  0xCE, 0x00, 0xFC, 0xF8, 0x0D, 0x06, 0x00, 0xA6, 0xED, 0x0E,
  0xEE, 0xCF, 0xF7, 0x00, 0xCB, 0xFC, 0xDE, 0x13, 0xD5, 0x01,
  0xEE, 0x08, 0xF2, 0xB7, 0xEB, 0xEF, 0xF0, 0x0C, 0xB5, 0x1B,
  0xDF, 0xDA, 0xD7, 0x18, 0xED, 0x14, 0xF2, 0x1A, 0x00, 0xF9,
  0xF2, 0xD0, 0xE7, 0xF0, 0xE3, 0x0A, 0x1E, 0x0D, 0xF1, 0x04,
  0xEB, 0xEE, 0x1B, 0x19, 0xEA, 0x47, 0x06, 0x05, 0xE1, 0x16,
  0xF6, 0x21, 0x25, 0x2E, 0xA1, 0x1B, 0x00, 0x0E, 0x15, 0x07,
  0xE8, 0x25, 0x13, 0xE8, 0x1D, 0x27, 0xF2, 0xF3, 0xE0, 0x10,
  0xD0, 0x1E, 0x17, 0xF6, 0x06, 0x06, 0x05, 0xC6, 0x17, 0x00,
  0x04, 0xF0, 0x17, 0xCE, 0xC2, 0xDB, 0xED, 0xEF, 0x19, 0xF1,
  0x17, 0xE0, 0x01, 0xF3, 0x1D, 0xF0, 0x19, 0x20, 0x09, 0x34,
  0xF2, 0xEE, 0xD0, 0xFC, 0xFC, 0x04, 0xEB, 0x06, 0xF8, 0x1B,
  0xD8, 0x06, 0x06, 0x05, 0x23, 0xEA, 0xCF, 0xD9, 0xD1, 0x01,
  0x2D, 0x1A, 0xF5, 0xE0, 0xEB, 0xE1, 0xDB, 0xEB, 0x12, 0xF9,
  0x21, 0xC1, 0xF6, 0xDA, 0xF6, 0xE3, 0xF5, 0x11, 0x02, 0x24,
  0xEE, 0xD7, 0xE2, 0xF9, 0xF3, 0xF1, 0x1D, 0xDA, 0xD2, 0x0E,
  0xFF, 0x06, 0xE8, 0xF1, 0x0E, 0xF6, 0x17, 0xEE, 0x0E, 0xEC,
  0x04, 0xF2, 0xF7, 0xD1, 0x0D, 0x12, 0xED, 0x06, 0x0F, 0x31,
  0xF8, 0x2E, 0xF9, 0x03, 0x02, 0xFC, 0xF8, 0xF9, 0x3E, 0xF2,
  0x5E, 0xF0, 0xD1, 0x0E, 0x00, 0x1B, 0xF0, 0x2C, 0x07, 0xEA,
  0x1D, 0x03, 0x06, 0xFE, 0x01, 0xCC, 0xFC, 0xE2, 0xBC, 0xFA,
  0xFC, 0x3B, 0x09, 0x19, 0x12, 0xD1, 0xEF, 0xEE, 0x07, 0xFD,
  0x03, 0xDE, 0xCF, 0x0E, 0x98, 0xFA, 0x04, 0x04, 0x0B, 0x2E,
  0x12, 0xD9, 0x01, 0x2F, 0xFC, 0xFB, 0x08, 0xFB, 0x23, 0xC0,
  0x01, 0xDF, 0x10, 0x0F, 0x03, 0x17, 0x16, 0xCC, 0xE5, 0x12,
  0xDC, 0xDF, 0x1E, 0x3A, 0xEB, 0x03, 0xC2, 0x0E, 0xD8, 0x27,
  0x18, 0x0F, 0x00, 0xF7, 0xDA, 0xFC, 0x1D, 0xEA, 0x4C, 0x32,
  0xD2, 0xD3, 0xDD, 0x0D, 0x00, 0x14, 0x04, 0x25, 0x0C, 0xD7,
  0x13, 0xE6, 0xEC, 0x15, 0x1B, 0x31, 0x01, 0x02, 0xC0, 0x18,
  0x12, 0x32, 0x0D, 0x0D, 0x06, 0x35, 0x28, 0x16, 0xF9, 0x27,
  0x23, 0x10, 0x23, 0xF6, 0x00, 0xFD, 0x08, 0x3F, 0x0C, 0x1F,
  0xFC, 0x2E, 0xFC, 0xF3, 0x0A, 0xE6, 0x47, 0x0C, 0x48, 0x1F,
  0xBA, 0x1B, 0x1E, 0x11, 0xEA, 0x34, 0xFE, 0xEF, 0x14, 0x09,
  0x19, 0x1B, 0x32, 0xD2, 0x35, 0xD1, 0xB9, 0xEF, 0xEE, 0x0A,
  0xDC, 0x17, 0xFB, 0x15, 0xF8, 0xFA, 0xF9, 0xCF, 0x13, 0xB0,
  0xFC, 0xFD, 0xB7, 0xE8, 0x05, 0x23, 0x00, 0xFA, 0xFE, 0xF2,
  0x17, 0x18, 0xFD, 0xF3, 0x19, 0xCE, 0xFB, 0x1A, 0xC8, 0xE5,
  0x22, 0x15, 0xED, 0x10, 0x09, 0xEB, 0x16, 0xF2, 0xF7, 0xF3,
  0x17, 0xAE, 0xF5, 0xEF, 0xCF, 0xDE, 0xFA, 0xFD, 0x15, 0xF7,
  0x11, 0xDF, 0xFD, 0x12, 0x07, 0xF4, 0x03, 0x24, 0xED, 0x05,
  0xE8, 0xE5, 0xD8, 0x3A, 0xEA, 0x17, 0x0E, 0x20, 0x17, 0xFC,
  0xF7, 0xE1, 0x23, 0x0E, 0x0F, 0xEF, 0xF2, 0x05, 0x18, 0x24,
  0x0B, 0x38, 0xE5, 0x43, 0xE9, 0x0A, 0xEA, 0xFF, 0x22, 0x5B,
  0x29, 0xE0, 0xEF, 0xE3, 0xF1, 0x0D, 0x06, 0x49, 0xF0, 0x16,
  0xE8, 0xFA, 0x07, 0xDD, 0x1E, 0x0F, 0x35, 0xFD, 0xEC, 0xFA,
  0x0D, 0xFE, 0xF0, 0xE4, 0x11, 0xDF, 0x0C, 0x05, 0xE2, 0xE0,
  0x26, 0xC3, 0x09, 0x0B, 0xC7, 0xF2, 0x08, 0x05, 0xE7, 0xD2,
  0xE8, 0xD7, 0xE9, 0x08, 0x1B, 0xDF, 0x23, 0x11, 0x0C, 0xF5,
  0xCC, 0x0F, 0x16, 0xF1, 0xE8, 0xEA, 0xE1, 0x08, 0x17, 0xF4,
  0xEF, 0x05, 0x09, 0xED, 0xF5, 0xD7, 0xB3, 0x0D, 0xD5, 0x1B,
  0xF3, 0xE6, 0x0A, 0x31, 0xEB, 0xEC, 0x05, 0xEB, 0x33, 0xFD,
  0x0C, 0xEB, 0xD9, 0xEC, 0x3A, 0x33, 0xE3, 0x1D, 0x04, 0xFF,
  0x20, 0xE7, 0x0B, 0xD2, 0x45, 0xE7, 0xEF, 0xF4, 0x13, 0x15,
  0x0D, 0xFA, 0x15, 0x0F, 0xF8, 0x00, 0xF8, 0xE4, 0x02, 0x28,
  0xF2, 0x05, 0x4C, 0xEF, 0xF5, 0x02, 0xEC, 0xF7, 0xF3, 0xF9,
  0xE2, 0x06, 0xE6, 0xF6, 0xE8, 0x07, 0x09, 0x11, 0x7F, 0xED,
  0x13, 0xE2, 0x0E, 0x0A, 0x09, 0x10, 0x1A, 0xEC, 0x00, 0xEB,
  0x0B, 0xFB, 0xDC, 0x17, 0x36, 0x13, 0xF3, 0x18, 0x01, 0xFA,
  0xDE, 0xF5, 0xFA, 0x15, 0xDE, 0xE6, 0x08, 0x16, 0xFC, 0xE2,
  0x05, 0x45, 0xB7, 0x18, 0x01, 0xD8, 0xDE, 0xE0, 0x19, 0xF2,
  0x0C, 0x1A, 0xE3, 0xFE, 0x0D, 0xFA, 0xDD, 0x02, 0x02, 0x1E,
  0x1C, 0xFE, 0xF7, 0xC7, 0xF9, 0x19, 0xE2, 0x14, 0xF8, 0x04,
  0x13, 0xD4, 0x21, 0xFD, 0xB2, 0xF7, 0xEF, 0xE1, 0x08, 0xF2,
  0x18, 0xF1, 0x03, 0xFE, 0xF0, 0xE2, 0xDC, 0x15, 0x17, 0x07,
  0xF7, 0xFE, 0xE6, 0x1B, 0xF2, 0x03, 0x05, 0xDF, 0xE5, 0x19,
  0x1A, 0xFD, 0xF2, 0xFE, 0x25, 0xD6, 0x11, 0xF0, 0xE3, 0xF4,
  0x02, 0xE8, 0x05, 0xE7, 0x0E, 0xDD, 0xF2, 0xE8, 0xEE, 0xEF,
  0x2C, 0xFC, 0xED, 0x1D, 0x19, 0x15, 0xFD, 0xDD, 0x10, 0xF1,
  0x23, 0x15, 0xFF, 0x00, 0x16, 0xDE, 0x3C, 0xF6, 0x1C, 0xDD,
  0xEB, 0xF1, 0xEB, 0xF0, 0x1C, 0x31, 0x1F, 0x04, 0x0A, 0x1A,
  0x47, 0x46, 0xD9, 0xCC, 0xD8, 0xF0, 0x23, 0x2C, 0xE1, 0x33,
  0xFF, 0x06, 0x1A, 0x16, 0xFA, 0xF0, 0x59, 0x12, 0xC6, 0xD4,
  0xE1, 0xE9, 0x26, 0x0F, 0x1D, 0x0D, 0x14, 0x1B, 0x01, 0xEB,
  0x04, 0xD9, 0x16, 0xC9, 0xD4, 0xE2, 0x13, 0xE7, 0x0D, 0x06,
  0x20, 0x0D, 0xF0, 0x1E, 0x24, 0x10, 0x17, 0x26, 0x45, 0x3E,
  0xD1, 0xE3, 0xEE, 0xEB, 0x2C, 0x16, 0xEF, 0x39, 0x0A, 0x0D,
  0x1D, 0xF9, 0x20, 0xF8, 0x36, 0x05, 0xDD, 0xE7, 0x0B, 0xF8,
  0x34, 0x23, 0xEE, 0x44, 0x0D, 0x10, 0x1A, 0x07, 0xEE, 0xF3,
  0x29, 0x06, 0xB1, 0xD0, 0xD4, 0x04, 0x13, 0x25, 0x00, 0x1C,
  0x04, 0xFD, 0x23, 0x08, 0xF2, 0x07, 0x06, 0xEB, 0xF8, 0xDC,
  0xD2, 0x05, 0x37, 0x03, 0x04, 0xEB, 0x14, 0xFB, 0x10, 0x19,
  0xEC, 0x10, 0x02, 0xED, 0xD0, 0xBD, 0x02, 0x00, 0xF9, 0x13,
  0xEB, 0xEE, 0xE3, 0xE2, 0x01, 0xE9, 0xE8, 0xCB, 0x28, 0x35,
  0xE7, 0x08, 0xFC, 0x13, 0x11, 0x12, 0x18, 0x07, 0x04, 0xFD,
  0xDC, 0x15, 0x13, 0x05, 0xD4, 0xB5, 0xEF, 0x1E, 0xE2, 0x0B,
  0xF7, 0xDE, 0xEE, 0x19, 0xF5, 0xEC, 0x09, 0x19, 0x11, 0xF2,
  0x20, 0x40, 0xFA, 0x0D, 0xFE, 0x1E, 0xF6, 0xFF, 0x0C, 0xEF,
  0xFB, 0x1B, 0xEB, 0xEC, 0xE2, 0xDC, 0x05, 0x14, 0xFA, 0x32,
  0x09, 0x1D, 0x0A, 0x1B, 0x06, 0x2B, 0x14, 0x35, 0xF1, 0xFB,
  0xE1, 0x1C, 0x15, 0x27, 0xE6, 0x1A, 0xD8, 0xFD, 0x14, 0x25,
  0x0F, 0x30, 0xF9, 0x17, 0xEE, 0xFC, 0x1F, 0x0B, 0x1B, 0x25,
  0x05, 0xD8, 0xD8, 0xE6, 0x0C, 0x18, 0x1E, 0x17, 0xEA, 0x03,
  0xF1, 0x03, 0xEB, 0x0F, 0xFE, 0x67, 0x03, 0xEF, 0x18, 0xE2,
  0x1D, 0x13, 0x0F, 0x30, 0xE4, 0xBB, 0xE6, 0xE4, 0xEA, 0xE9,
  0x09, 0x3F, 0xEE, 0xDB, 0xF8, 0xFE, 0xFF, 0x19, 0xE9, 0xF7,
  0x1E, 0xE1, 0xF8, 0x06, 0x18, 0xD6, 0x15, 0xD0, 0xF0, 0xDC,
  0x44, 0x12, 0xFF, 0xF6, 0xE9, 0xCE, 0xE8, 0x08, 0xE2, 0x08,
  0x0C, 0xE6, 0x20, 0xD6, 0xF7, 0xDA, 0xCB, 0xE1, 0x2C, 0xF3,
  0xEF, 0xE7, 0xF5, 0x03, 0xE5, 0x13, 0x19, 0x05, 0x05, 0x26,
  0x35, 0x0A, 0x0B, 0x1E, 0x0C, 0x07, 0x1E, 0x0A, 0xF9, 0x38,
  0x1C, 0x07, 0xE2, 0x08, 0x25, 0x1B, 0x44, 0x1F, 0x61, 0x0A,
  0x17, 0x09, 0xE7, 0x00, 0xE5, 0x34, 0x11, 0xED, 0xFC, 0x20,
  0x2B, 0x02, 0x08, 0x33, 0x29, 0xFF, 0x1C, 0x00, 0x1C, 0x15,
  0x04, 0x54, 0xF3, 0x13, 0xEB, 0x10, 0x20, 0x01, 0x11, 0x14,
  0x52, 0xFB, 0x1D, 0xF4, 0xFA, 0xF3, 0xFC, 0x2D, 0x1A, 0x0E,
  0xE9, 0x03, 0x0C, 0xE8, 0x27, 0x0A, 0x16, 0x02, 0x04, 0xF3,
  0xF2, 0xF0, 0x11, 0xFE, 0xE3, 0x19, 0x01, 0xEF, 0x1E, 0xD0,
  0x00, 0xCE, 0xF5, 0x20, 0x1E, 0x10, 0xF5, 0x06, 0xFF, 0xB1,
  0xEA, 0xEC, 0xE5, 0xEF, 0xF5, 0xDB, 0xF0, 0xF6, 0x46, 0x01,
  0x12, 0xEA, 0xE4, 0xCA, 0x0C, 0xE1, 0xE1, 0xEE, 0x03, 0xFD,
  0x0C, 0xDE, 0x23, 0xED, 0x0B, 0xEF, 0x0F, 0xE3, 0x10, 0xF6,
  0xFE, 0x2E, 0xE7, 0xE9, 0x1A, 0xE0, 0x09, 0x0E, 0x3C, 0xEA,
  0xFD, 0xF2, 0xF3, 0x09, 0x06, 0x09, 0x06, 0x07, 0x1C, 0x16,
  0xF1, 0xDF, 0xF7, 0xF3, 0x35, 0x12, 0x0C, 0x1F, 0x1F, 0xEF,
  0x05, 0xE3, 0x00, 0xF3, 0x10, 0x0F, 0xFE, 0x12, 0x00, 0xF8,
  0x08, 0x22, 0x52, 0x1A, 0xCC, 0x0D, 0x07, 0xE9, 0xE1, 0x57,
  0x17, 0xE9, 0x12, 0xFC, 0xEB, 0x26, 0x3E, 0x02, 0x24, 0xEB,
  0x1B, 0x19, 0x03, 0xE3, 0xF6, 0x31, 0x10, 0xEC, 0x0E, 0xE8,
  0xFA, 0x05, 0x2C, 0x26, 0x18, 0x1E, 0x01, 0xE2, 0xF5, 0xFD,
  0x0C, 0x13, 0x0E, 0xFC, 0x05, 0x0A, 0xE1, 0x36, 0xD4, 0xF9,
  0x22, 0x1A, 0xEE, 0xD8, 0x10, 0xED, 0x0A, 0xD0, 0xE9, 0x20,
  0xE4, 0x01, 0xC2, 0x09, 0xC1, 0x09, 0x1B, 0x1C, 0x19, 0xF7,
  0xEF, 0x01, 0xFD, 0x1C, 0x1C, 0xE7, 0xE8, 0xE3, 0xD1, 0x02,
  0xE6, 0xE9, 0x33, 0xE7, 0x08, 0xC4, 0x0C, 0xD0, 0xE6, 0x0B,
  0xEE, 0x0E, 0xE3, 0x08, 0xF7, 0x03, 0x2C, 0x02, 0x60, 0x18,
  0xF1, 0xFE, 0x04, 0xCD, 0x06, 0xF7, 0xE1, 0xFD, 0xE4, 0x05,
  0xC1, 0x12, 0x0D, 0x2D, 0xFE, 0x05, 0xDB, 0xD3, 0xEB, 0xE3,
  0xE6, 0x40, 0xED, 0x11, 0xFA, 0xFC, 0xD7, 0xFD, 0x41, 0x19,
  0x33, 0x06, 0x34, 0xD6, 0xF5, 0xEA, 0x03, 0x41, 0x25, 0x0E,
  0x02, 0xFC, 0xD7, 0xDE, 0x25, 0x3B, 0x4A, 0xFE, 0x0B, 0x18,
  0x01, 0x00, 0xEB, 0x32, 0x0D, 0xEA, 0x1A, 0x1F, 0xD3, 0xEB,
  0x12, 0x04, 0x5A, 0x0C, 0x0C, 0xF0, 0x12, 0xC8, 0x14, 0xD2,
  0xF3, 0xF8, 0x0B, 0xF4, 0xBD, 0xCC, 0xEE, 0x1C, 0x1D, 0x0F,
  0xFC, 0xF0, 0x19, 0xB5, 0x02, 0xDE, 0x06, 0x11, 0xF3, 0x25,
  0xB0, 0xE2, 0x9C, 0xF7, 0x1D, 0x0E, 0xE8, 0x02, 0xF0, 0xF8,
  0xF0, 0x07, 0xE1, 0xFA, 0xEE, 0xF2, 0xD0, 0x0D, 0xF2, 0x04,
  0x46, 0xF0, 0xF8, 0xEE, 0x1E, 0xFB, 0x09, 0xF1, 0xDD, 0xEC,
  0xE6, 0x09, 0xFC, 0x42, 0xF1, 0xDB, 0x37, 0x1D, 0xF7, 0x06,
  0x1B, 0xCB, 0x16, 0xEC, 0xD2, 0x07, 0x0C, 0xFA, 0xF2, 0x0C,
  0xF2, 0x09, 0x41, 0xE5, 0xF2, 0xF1, 0x0A, 0xE5, 0x1E, 0xEB,
  0x01, 0x0E, 0xE3, 0xF5, 0xF3, 0x5B, 0x1D, 0x10, 0x1E, 0x21,
  0x13, 0xE2, 0xE5, 0xEC, 0xF3, 0x3F, 0x00, 0x00, 0x07, 0xE2,
  0xF6, 0xC2, 0x1A, 0xF6, 0x09, 0xFF, 0xFC, 0xCC, 0x04, 0x05,
  0x1B, 0xF3, 0x01, 0x1A, 0x13, 0xFA, 0xD6, 0xD7, 0x01, 0x18,
  0x33, 0xED, 0xE8, 0xD3, 0xFC, 0xCC, 0x17, 0xD5, 0xE8, 0xE8,
  0xE4, 0x11, 0xC8, 0x97, 0xA9, 0x1D, 0x10, 0xF1, 0xDD, 0xEF,
  0x16, 0xA6, 0x18, 0xF1, 0x04, 0xFE, 0x0B, 0xF7, 0xD0, 0x23,
  0xDE, 0xEC, 0xEF, 0xE8, 0x14, 0xFC, 0x15, 0x06, 0x0F, 0x01,
  0x07, 0xFD, 0xFC, 0xE4, 0xCB, 0x28, 0x0C, 0xC2, 0x20, 0x0B,
  0x0A, 0x17, 0x11, 0x2C, 0x1B, 0x20, 0x10, 0xE7, 0x20, 0x00,
  0xD7, 0xCE, 0x10, 0x03, 0x1D, 0xE5, 0x13, 0x21, 0x1A, 0x19,
  0x18, 0xE7, 0xF4, 0xEB, 0x20, 0x25, 0xFB, 0x1B, 0xFE, 0x0E,
  0x2E, 0x1D, 0xF3, 0xDD, 0xE7, 0x00, 0x19, 0xFA, 0xFD, 0xF3,
  0x13, 0xF3, 0xFD, 0x15, 0x2A, 0xEB, 0xF7, 0xE5, 0xDC, 0xCE,
  0xEC, 0xFB, 0x08, 0x23, 0x01, 0xF3, 0xFB, 0x25, 0xEE, 0x18,
  0x03, 0xDC, 0x18, 0x16, 0xF0, 0xDE, 0x1C, 0xDD, 0xF2, 0xE3,
  0x01, 0x01, 0x14, 0xEB, 0x0D, 0x17, 0xE1, 0xF5, 0x02, 0xF5,
  0xFB, 0x0E, 0x01, 0x11, 0xEA, 0xFF, 0x0E, 0x1C, 0xF5, 0xF1,
  0xD9, 0x09, 0x8F, 0x13, 0xFE, 0xF7, 0x00, 0xDB, 0x2C, 0xE0,
  0x21, 0xFC, 0x07, 0x0B, 0xF2, 0xE8, 0x06, 0x06, 0xE8, 0x1F,
  0xF5, 0x06, 0x2C, 0x02, 0x1A, 0x14, 0x08, 0x0D, 0x0D, 0x1B,
  0x16, 0x04, 0x0A, 0x3B, 0xF2, 0xE8, 0x4D, 0xF2, 0xF4, 0x1E,
  0x1D, 0x13, 0x02, 0x21, 0x0D, 0xEF, 0xFD, 0xE4, 0x2A, 0x1B,
  0x12, 0xED, 0x10, 0x1A, 0x0C, 0x04, 0x13, 0x1B, 0xF8, 0xD8,
  0xFB, 0xF2, 0xE8, 0xDB, 0xF4, 0x19, 0x15, 0x01, 0x43, 0x0A,
  0xE7, 0x13, 0x00, 0x3B, 0xF7, 0x04, 0x12, 0xD8, 0xEA, 0xEA,
  0x1D, 0xF6, 0xF8, 0xE7, 0x01, 0x10, 0xFE, 0x00, 0x24, 0x12,
  0xE6, 0x05, 0xF6, 0x17, 0x19, 0x19, 0x1B, 0xDD, 0xC6, 0x1A,
  0x04, 0xEC, 0x15, 0xEC, 0xEE, 0x08, 0xF6, 0x0B, 0x01, 0x20,
  0xE0, 0x1F, 0xF9, 0x0F, 0xD3, 0x2C, 0x45, 0x12, 0x14, 0x23,
  0x17, 0x1E, 0x24, 0xF3, 0x14, 0x02, 0xFD, 0xE2, 0xF8, 0x1A,
  0xFF, 0x10, 0x08, 0xEF, 0xF4, 0xEB, 0x04, 0x1C, 0x1A, 0xFD,
  0xFF, 0xFF, 0x04, 0x00, 0x00, 0x00, 0x08, 0x00, 0x00, 0x00,
  0x5B, 0xFE, 0xFF, 0xFF, 0xA5, 0x01, 0x00, 0x00, 0x2E, 0xFD,
  0xFF, 0xFF, 0x04, 0x00, 0x00, 0x00, 0x08, 0x00, 0x00, 0x00,
  0xFF, 0xFF, 0xFF, 0xFF, 0x00, 0x04, 0x00, 0x00, 0x54, 0xEE,
  0xFF, 0xFF, 0x46, 0xFD, 0xFF, 0xFF, 0x04, 0x00, 0x00, 0x00,
  0x04, 0x00, 0x00, 0x00, 0x60, 0x00, 0x00, 0x00, 0x56, 0xFD,
  0xFF, 0xFF, 0x04, 0x00, 0x00, 0x00, 0x04, 0x00, 0x00, 0x00,
  0x01, 0x00, 0x00, 0x00, 0x66, 0xFD, 0xFF, 0xFF, 0x04, 0x00,
  0x00, 0x00, 0x04, 0x00, 0x00, 0x00, 0x00, 0x00, 0x00, 0x00,
  0x88, 0xEE, 0xFF, 0xFF, 0x8C, 0xEE, 0xFF, 0xFF, 0x0F, 0x00,
  0x00, 0x00, 0x4D, 0x4C, 0x49, 0x52, 0x20, 0x43, 0x6F, 0x6E,
  0x76, 0x65, 0x72, 0x74, 0x65, 0x64, 0x2E, 0x00, 0x01, 0x00,
  0x00, 0x00, 0x14, 0x00, 0x00, 0x00, 0x00, 0x00, 0x0E, 0x00,
  0x18, 0x00, 0x14, 0x00, 0x10, 0x00, 0x0C, 0x00, 0x08, 0x00,
  0x04, 0x00, 0x0E, 0x00, 0x00, 0x00, 0x14, 0x00, 0x00, 0x00,
  0x1C, 0x00, 0x00, 0x00, 0x14, 0x03, 0x00, 0x00, 0x18, 0x03,
  0x00, 0x00, 0x1C, 0x03, 0x00, 0x00, 0x04, 0x00, 0x00, 0x00,
  0x6D, 0x61, 0x69, 0x6E, 0x00, 0x00, 0x00, 0x00, 0x0B, 0x00,
  0x00, 0x00, 0xC4, 0x02, 0x00, 0x00, 0x64, 0x02, 0x00, 0x00,
  0x0C, 0x02, 0x00, 0x00, 0xE4, 0x01, 0x00, 0x00, 0x88, 0x01,
  0x00, 0x00, 0x34, 0x01, 0x00, 0x00, 0xDC, 0x00, 0x00, 0x00,
  0x98, 0x00, 0x00, 0x00, 0x70, 0x00, 0x00, 0x00, 0x38, 0x00,
  0x00, 0x00, 0x04, 0x00, 0x00, 0x00, 0xD2, 0xFD, 0xFF, 0xFF,
  0x14, 0x00, 0x00, 0x00, 0x00, 0x00, 0x00, 0x09, 0x14, 0x00,
  0x00, 0x00, 0x18, 0x00, 0x00, 0x00, 0x08, 0x00, 0x00, 0x00,
  0x16, 0xFE, 0xFF, 0xFF, 0x00, 0x00, 0x80, 0x3F, 0x01, 0x00,
  0x00, 0x00, 0x16, 0x00, 0x00, 0x00, 0x01, 0x00, 0x00, 0x00,
  0x15, 0x00, 0x00, 0x00, 0x02, 0xFE, 0xFF, 0xFF, 0x14, 0x00,
  0x00, 0x00, 0x00, 0x00, 0x00, 0x08, 0x10, 0x00, 0x00, 0x00,
  0x14, 0x00, 0x00, 0x00, 0x07, 0x00, 0x00, 0x00, 0x58, 0xEF,
  0xFF, 0xFF, 0x01, 0x00, 0x00, 0x00, 0x15, 0x00, 0x00, 0x00,
  0x03, 0x00, 0x00, 0x00, 0x14, 0x00, 0x00, 0x00, 0x07, 0x00,
  0x00, 0x00, 0x06, 0x00, 0x00, 0x00, 0xAA, 0xFE, 0xFF, 0xFF,
  0x0C, 0x00, 0x00, 0x00, 0x10, 0x00, 0x00, 0x00, 0x03, 0x00,
  0x00, 0x00, 0x01, 0x00, 0x00, 0x00, 0x14, 0x00, 0x00, 0x00,
  0x02, 0x00, 0x00, 0x00, 0x13, 0x00, 0x00, 0x00, 0x05, 0x00,
  0x00, 0x00, 0x5A, 0xFE, 0xFF, 0xFF, 0x14, 0x00, 0x00, 0x00,
  0x00, 0x00, 0x00, 0x05, 0x24, 0x00, 0x00, 0x00, 0x28, 0x00,
  0x00, 0x00, 0x05, 0x00, 0x00, 0x00, 0x6A, 0xFF, 0xFF, 0xFF,
  0x02, 0x00, 0x00, 0x00, 0x02, 0x00, 0x00, 0x00, 0x02, 0x00,
  0x00, 0x00, 0x02, 0x00, 0x00, 0x00, 0x00, 0x00, 0x00, 0x01,
  0x01, 0x00, 0x00, 0x00, 0x13, 0x00, 0x00, 0x00, 0x01, 0x00,
  0x00, 0x00, 0x12, 0x00, 0x00, 0x00, 0x9A, 0xFE, 0xFF, 0xFF,
  0x24, 0x00, 0x00, 0x00, 0x00, 0x00, 0x00, 0x02, 0x30, 0x00,
  0x00, 0x00, 0x34, 0x00, 0x00, 0x00, 0x06, 0x00, 0x00, 0x00,
  0x00, 0x00, 0x0E, 0x00, 0x14, 0x00, 0x00, 0x00, 0x10, 0x00,
  0x0C, 0x00, 0x08, 0x00, 0x07, 0x00, 0x0E, 0x00, 0x00, 0x00,
  0x00, 0x00, 0x00, 0x01, 0x01, 0x00, 0x00, 0x00, 0x03, 0x00,
  0x00, 0x00, 0x03, 0x00, 0x00, 0x00, 0x01, 0x00, 0x00, 0x00,
  0x12, 0x00, 0x00, 0x00, 0x03, 0x00, 0x00, 0x00, 0x11, 0x00,
  0x00, 0x00, 0x09, 0x00, 0x00, 0x00, 0x08, 0x00, 0x00, 0x00,
  0xEE, 0xFE, 0xFF, 0xFF, 0x24, 0x00, 0x00, 0x00, 0x00, 0x00,
  0x00, 0x05, 0x34, 0x00, 0x00, 0x00, 0x38, 0x00, 0x00, 0x00,
  0x05, 0x00, 0x00, 0x00, 0x00, 0x00, 0x0E, 0x00, 0x18, 0x00,
  0x17, 0x00, 0x10, 0x00, 0x0C, 0x00, 0x08, 0x00, 0x04, 0x00,
  0x0E, 0x00, 0x00, 0x00, 0x02, 0x00, 0x00, 0x00, 0x02, 0x00,
  0x00, 0x00, 0x02, 0x00, 0x00, 0x00, 0x02, 0x00, 0x00, 0x00,
  0x00, 0x00, 0x00, 0x01, 0x01, 0x00, 0x00, 0x00, 0x11, 0x00,
  0x00, 0x00, 0x01, 0x00, 0x00, 0x00, 0x10, 0x00, 0x00, 0x00,
  0x3E, 0xFF, 0xFF, 0xFF, 0x20, 0x00, 0x00, 0x00, 0x00, 0x00,
  0x00, 0x01, 0x28, 0x00, 0x00, 0x00, 0x2C, 0x00, 0x00, 0x00,
  0x04, 0x00, 0x00, 0x00, 0x0C, 0x00, 0x10, 0x00, 0x00, 0x00,
  0x0C, 0x00, 0x08, 0x00, 0x07, 0x00, 0x0C, 0x00, 0x00, 0x00,
  0x00, 0x00, 0x00, 0x01, 0x01, 0x00, 0x00, 0x00, 0x01, 0x00,
  0x00, 0x00, 0x01, 0x00, 0x00, 0x00, 0x10, 0x00, 0x00, 0x00,
  0x03, 0x00, 0x00, 0x00, 0x0F, 0x00, 0x00, 0x00, 0x0B, 0x00,
  0x00, 0x00, 0x0A, 0x00, 0x00, 0x00, 0x00, 0x00, 0x0A, 0x00,
  0x10, 0x00, 0x0C, 0x00, 0x08, 0x00, 0x04, 0x00, 0x0A, 0x00,
  0x00, 0x00, 0x0C, 0x00, 0x00, 0x00, 0x10, 0x00, 0x00, 0x00,
  0x03, 0x00, 0x00, 0x00, 0x01, 0x00, 0x00, 0x00, 0x0F, 0x00,
  0x00, 0x00, 0x02, 0x00, 0x00, 0x00, 0x00, 0x00, 0x00, 0x00,
  0x0E, 0x00, 0x00, 0x00, 0xBA, 0xFF, 0xFF, 0xFF, 0x1C, 0x00,
  0x00, 0x00, 0x00, 0x00, 0x00, 0x3B, 0x1C, 0x00, 0x00, 0x00,
  0x20, 0x00, 0x00, 0x00, 0x02, 0x00, 0x00, 0x00, 0x00, 0x00,
  0x06, 0x00, 0x08, 0x00, 0x04, 0x00, 0x06, 0x00, 0x00, 0x00,
  0x04, 0x00, 0x00, 0x00, 0x01, 0x00, 0x00, 0x00, 0x0E, 0x00,
  0x00, 0x00, 0x04, 0x00, 0x00, 0x00, 0x0D, 0x00, 0x00, 0x00,
  0x03, 0x00, 0x00, 0x00, 0x03, 0x00, 0x00, 0x00, 0x04, 0x00,
  0x00, 0x00, 0x00, 0x00, 0x0E, 0x00, 0x1A, 0x00, 0x14, 0x00,
  0x10, 0x00, 0x0C, 0x00, 0x0B, 0x00, 0x04, 0x00, 0x0E, 0x00,
  0x00, 0x00, 0x24, 0x00, 0x00, 0x00, 0x00, 0x00, 0x00, 0x20,
  0x24, 0x00, 0x00, 0x00, 0x28, 0x00, 0x00, 0x00, 0x01, 0x00,
  0x00, 0x00, 0x00, 0x00, 0x0E, 0x00, 0x08, 0x00, 0x00, 0x00,
  0x00, 0x00, 0x00, 0x00, 0x00, 0x00, 0x04, 0x00, 0x0E, 0x00,
  0x00, 0x00, 0x01, 0x00, 0x00, 0x00, 0x01, 0x00, 0x00, 0x00,
  0x0D, 0x00, 0x00, 0x00, 0x04, 0x00, 0x00, 0x00, 0x0C, 0x00,
  0x00, 0x00, 0x01, 0x00, 0x00, 0x00, 0x02, 0x00, 0x00, 0x00,
  0x02, 0x00, 0x00, 0x00, 0x00, 0x00, 0x0E, 0x00, 0x16, 0x00,
  0x00, 0x00, 0x10, 0x00, 0x0C, 0x00, 0x0B, 0x00, 0x04, 0x00,
  0x0E, 0x00, 0x00, 0x00, 0x18, 0x00, 0x00, 0x00, 0x00, 0x00,
  0x00, 0x37, 0x18, 0x00, 0x00, 0x00, 0x1C, 0x00, 0x00, 0x00,
  0x00, 0x00, 0x06, 0x00, 0x08, 0x00, 0x07, 0x00, 0x06, 0x00,
  0x00, 0x00, 0x00, 0x00, 0x00, 0x02, 0x01, 0x00, 0x00, 0x00,
  0x0C, 0x00, 0x00, 0x00, 0x01, 0x00, 0x00, 0x00, 0x00, 0x00,
  0x00, 0x00, 0x01, 0x00, 0x00, 0x00, 0x16, 0x00, 0x00, 0x00,
  0x01, 0x00, 0x00, 0x00, 0x00, 0x00, 0x00, 0x00, 0x17, 0x00,
  0x00, 0x00, 0x64, 0x0E, 0x00, 0x00, 0xF0, 0x0D, 0x00, 0x00,
  0x7C, 0x0D, 0x00, 0x00, 0x2C, 0x0D, 0x00, 0x00, 0xDC, 0x0C,
  0x00, 0x00, 0x90, 0x0C, 0x00, 0x00, 0x1C, 0x0C, 0x00, 0x00,
  0xB0, 0x0B, 0x00, 0x00, 0x7C, 0x0A, 0x00, 0x00, 0x30, 0x09,
  0x00, 0x00, 0x04, 0x08, 0x00, 0x00, 0x58, 0x06, 0x00, 0x00,
  0x0C, 0x06, 0x00, 0x00, 0xBC, 0x05, 0x00, 0x00, 0x68, 0x05,
  0x00, 0x00, 0xD8, 0x04, 0x00, 0x00, 0xCC, 0x03, 0x00, 0x00,
  0x38, 0x03, 0x00, 0x00, 0x24, 0x02, 0x00, 0x00, 0x90, 0x01,
  0x00, 0x00, 0x14, 0x01, 0x00, 0x00, 0x80, 0x00, 0x00, 0x00,
  0x04, 0x00, 0x00, 0x00, 0x0E, 0xF2, 0xFF, 0xFF, 0x00, 0x00,
  0x00, 0x01, 0x18, 0x00, 0x00, 0x00, 0x20, 0x00, 0x00, 0x00,
  0x3C, 0x00, 0x00, 0x00, 0x17, 0x00, 0x00, 0x00, 0x00, 0x00,
  0x00, 0x09, 0x50, 0x00, 0x00, 0x00, 0x02, 0x00, 0x00, 0x00,
  0xFF, 0xFF, 0xFF, 0xFF, 0x02, 0x00, 0x00, 0x00, 0xF4, 0xF1,
  0xFF, 0xFF, 0x08, 0x00, 0x00, 0x00, 0x10, 0x00, 0x00, 0x00,
  0x01, 0x00, 0x00, 0x00, 0x80, 0xFF, 0xFF, 0xFF, 0xFF, 0xFF,
  0xFF, 0xFF, 0x01, 0x00, 0x00, 0x00, 0x00, 0x00, 0x80, 0x3B,
  0x19, 0x00, 0x00, 0x00, 0x53, 0x74, 0x61, 0x74, 0x65, 0x66,
  0x75, 0x6C, 0x50, 0x61, 0x72, 0x74, 0x69, 0x74, 0x69, 0x6F,
  0x6E, 0x65, 0x64, 0x43, 0x61, 0x6C, 0x6C, 0x3A, 0x30, 0x00,
  0x00, 0x00, 0x02, 0x00, 0x00, 0x00, 0x01, 0x00, 0x00, 0x00,
  0x02, 0x00, 0x00, 0x00, 0x86, 0xF2, 0xFF, 0xFF, 0x00, 0x00,
  0x00, 0x01, 0x18, 0x00, 0x00, 0x00, 0x20, 0x00, 0x00, 0x00,
  0x3C, 0x00, 0x00, 0x00, 0x16, 0x00, 0x00, 0x00, 0x00, 0x00,
  0x00, 0x09, 0x68, 0x00, 0x00, 0x00, 0x02, 0x00, 0x00, 0x00,
  0xFF, 0xFF, 0xFF, 0xFF, 0x02, 0x00, 0x00, 0x00, 0x6C, 0xF2,
  0xFF, 0xFF, 0x08, 0x00, 0x00, 0x00, 0x10, 0x00, 0x00, 0x00,
  0x01, 0x00, 0x00, 0x00, 0xDD, 0xFF, 0xFF, 0xFF, 0xFF, 0xFF,
  0xFF, 0xFF, 0x01, 0x00, 0x00, 0x00, 0x48, 0x5D, 0x97, 0x3C,
  0x30, 0x00, 0x00, 0x00, 0x73, 0x65, 0x71, 0x75, 0x65, 0x6E,
  0x74, 0x69, 0x61, 0x6C, 0x2F, 0x64, 0x65, 0x6E, 0x73, 0x65,
  0x2F, 0x4D, 0x61, 0x74, 0x4D, 0x75, 0x6C, 0x3B, 0x73, 0x65,
  0x71, 0x75, 0x65, 0x6E, 0x74, 0x69, 0x61, 0x6C, 0x2F, 0x64,
  0x65, 0x6E, 0x73, 0x65, 0x2F, 0x42, 0x69, 0x61, 0x73, 0x41,
  0x64, 0x64, 0x00, 0x00, 0x00, 0x00, 0x02, 0x00, 0x00, 0x00,
  0x01, 0x00, 0x00, 0x00, 0x02, 0x00, 0x00, 0x00, 0x16, 0xF3,
  0xFF, 0xFF, 0x00, 0x00, 0x00, 0x01, 0x18, 0x00, 0x00, 0x00,
  0x20, 0x00, 0x00, 0x00, 0x3C, 0x00, 0x00, 0x00, 0x15, 0x00,
  0x00, 0x00, 0x00, 0x00, 0x00, 0x09, 0x50, 0x00, 0x00, 0x00,
  0x02, 0x00, 0x00, 0x00, 0xFF, 0xFF, 0xFF, 0xFF, 0x00, 0x04,
  0x00, 0x00, 0xFC, 0xF2, 0xFF, 0xFF, 0x08, 0x00, 0x00, 0x00,
  0x10, 0x00, 0x00, 0x00, 0x01, 0x00, 0x00, 0x00, 0x80, 0xFF,
  0xFF, 0xFF, 0xFF, 0xFF, 0xFF, 0xFF, 0x01, 0x00, 0x00, 0x00,
  0x18, 0x2F, 0x26, 0x3C, 0x1A, 0x00, 0x00, 0x00, 0x73, 0x65,
  0x71, 0x75, 0x65, 0x6E, 0x74, 0x69, 0x61, 0x6C, 0x2F, 0x66,
  0x6C, 0x61, 0x74, 0x74, 0x65, 0x6E, 0x2F, 0x52, 0x65, 0x73,
  0x68, 0x61, 0x70, 0x65, 0x00, 0x00, 0x02, 0x00, 0x00, 0x00,
  0x01, 0x00, 0x00, 0x00, 0x00, 0x04, 0x00, 0x00, 0x8E, 0xF3,
  0xFF, 0xFF, 0x00, 0x00, 0x00, 0x01, 0x18, 0x00, 0x00, 0x00,
  0x28, 0x00, 0x00, 0x00, 0x44, 0x00, 0x00, 0x00, 0x14, 0x00,
  0x00, 0x00, 0x00, 0x00, 0x00, 0x09, 0x60, 0x00, 0x00, 0x00,
  0x04, 0x00, 0x00, 0x00, 0xFF, 0xFF, 0xFF, 0xFF, 0x08, 0x00,
  0x00, 0x00, 0x08, 0x00, 0x00, 0x00, 0x10, 0x00, 0x00, 0x00,
  0x7C, 0xF3, 0xFF, 0xFF, 0x08, 0x00, 0x00, 0x00, 0x10, 0x00,
  0x00, 0x00, 0x01, 0x00, 0x00, 0x00, 0x80, 0xFF, 0xFF, 0xFF,
  0xFF, 0xFF, 0xFF, 0xFF, 0x01, 0x00, 0x00, 0x00, 0x18, 0x2F,
  0x26, 0x3C, 0x22, 0x00, 0x00, 0x00, 0x73, 0x65, 0x71, 0x75,
  0x65, 0x6E, 0x74, 0x69, 0x61, 0x6C, 0x2F, 0x6D, 0x61, 0x78,
  0x5F, 0x70, 0x6F, 0x6F, 0x6C, 0x69, 0x6E, 0x67, 0x32, 0x64,
  0x5F, 0x31, 0x2F, 0x4D, 0x61, 0x78, 0x50, 0x6F, 0x6F, 0x6C,
  0x00, 0x00, 0x04, 0x00, 0x00, 0x00, 0x01, 0x00, 0x00, 0x00,
  0x08, 0x00, 0x00, 0x00, 0x08, 0x00, 0x00, 0x00, 0x10, 0x00,
  0x00, 0x00, 0x1E, 0xF4, 0xFF, 0xFF, 0x00, 0x00, 0x00, 0x01,
  0x18, 0x00, 0x00, 0x00, 0x28, 0x00, 0x00, 0x00, 0x48, 0x00,
  0x00, 0x00, 0x13, 0x00, 0x00, 0x00, 0x00, 0x00, 0x00, 0x09,
  0xE0, 0x00, 0x00, 0x00, 0x04, 0x00, 0x00, 0x00, 0xFF, 0xFF,
  0xFF, 0xFF, 0x10, 0x00, 0x00, 0x00, 0x10, 0x00, 0x00, 0x00,
  0x10, 0x00, 0x00, 0x00, 0x0C, 0xF4, 0xFF, 0xFF, 0x08, 0x00,
  0x00, 0x00, 0x14, 0x00, 0x00, 0x00, 0x01, 0x00, 0x00, 0x00,
  0x80, 0xFF, 0xFF, 0xFF, 0xFF, 0xFF, 0xFF, 0xFF, 0x00, 0x00,
  0x00, 0x00, 0x01, 0x00, 0x00, 0x00, 0x18, 0x2F, 0x26, 0x3C,
  0x9D, 0x00, 0x00, 0x00, 0x73, 0x65, 0x71, 0x75, 0x65, 0x6E,
  0x74, 0x69, 0x61, 0x6C, 0x2F, 0x64, 0x65, 0x70, 0x74, 0x68,
  0x77, 0x69, 0x73, 0x65, 0x5F, 0x63, 0x6F, 0x6E, 0x76, 0x32,
  0x64, 0x2F, 0x52, 0x65, 0x6C, 0x75, 0x3B, 0x73, 0x65, 0x71,
  0x75, 0x65, 0x6E, 0x74, 0x69, 0x61, 0x6C, 0x2F, 0x64, 0x65,
  0x70, 0x74, 0x68, 0x77, 0x69, 0x73, 0x65, 0x5F, 0x63, 0x6F,
  0x6E, 0x76, 0x32, 0x64, 0x2F, 0x42, 0x69, 0x61, 0x73, 0x41,
  0x64, 0x64, 0x3B, 0x73, 0x65, 0x71, 0x75, 0x65, 0x6E, 0x74,
  0x69, 0x61, 0x6C, 0x2F, 0x64, 0x65, 0x70, 0x74, 0x68, 0x77,
  0x69, 0x73, 0x65, 0x5F, 0x63, 0x6F, 0x6E, 0x76, 0x32, 0x64,
  0x2F, 0x64, 0x65, 0x70, 0x74, 0x68, 0x77, 0x69, 0x73, 0x65,
  0x3B, 0x73, 0x65, 0x71, 0x75, 0x65, 0x6E, 0x74, 0x69, 0x61,
  0x6C, 0x2F, 0x64, 0x65, 0x70, 0x74, 0x68, 0x77, 0x69, 0x73,
  0x65, 0x5F, 0x63, 0x6F, 0x6E, 0x76, 0x32, 0x64, 0x2F, 0x42,
  0x69, 0x61, 0x73, 0x41, 0x64, 0x64, 0x2F, 0x52, 0x65, 0x61,
  0x64, 0x56, 0x61, 0x72, 0x69, 0x61, 0x62, 0x6C, 0x65, 0x4F,
  0x70, 0x00, 0x00, 0x00, 0x04, 0x00, 0x00, 0x00, 0x01, 0x00,
  0x00, 0x00, 0x10, 0x00, 0x00, 0x00, 0x10, 0x00, 0x00, 0x00,
  0x10, 0x00, 0x00, 0x00, 0x2E, 0xF5, 0xFF, 0xFF, 0x00, 0x00,
  0x00, 0x01, 0x18, 0x00, 0x00, 0x00, 0x28, 0x00, 0x00, 0x00,
  0x44, 0x00, 0x00, 0x00, 0x12, 0x00, 0x00, 0x00, 0x00, 0x00,
  0x00, 0x09, 0x60, 0x00, 0x00, 0x00, 0x04, 0x00, 0x00, 0x00,
  0xFF, 0xFF, 0xFF, 0xFF, 0x30, 0x00, 0x00, 0x00, 0x30, 0x00,
  0x00, 0x00, 0x10, 0x00, 0x00, 0x00, 0x1C, 0xF5, 0xFF, 0xFF,
  0x08, 0x00, 0x00, 0x00, 0x10, 0x00, 0x00, 0x00, 0x01, 0x00,
  0x00, 0x00, 0x80, 0xFF, 0xFF, 0xFF, 0xFF, 0xFF, 0xFF, 0xFF,
  0x01, 0x00, 0x00, 0x00, 0x57, 0xA5, 0xE2, 0x3B, 0x20, 0x00,
  0x00, 0x00, 0x73, 0x65, 0x71, 0x75, 0x65, 0x6E, 0x74, 0x69,
  0x61, 0x6C, 0x2F, 0x6D, 0x61, 0x78, 0x5F, 0x70, 0x6F, 0x6F,
  0x6C, 0x69, 0x6E, 0x67, 0x32, 0x64, 0x2F, 0x4D, 0x61, 0x78,
  0x50, 0x6F, 0x6F, 0x6C, 0x00, 0x00, 0x00, 0x00, 0x04, 0x00,
  0x00, 0x00, 0x01, 0x00, 0x00, 0x00, 0x30, 0x00, 0x00, 0x00,
  0x30, 0x00, 0x00, 0x00, 0x10, 0x00, 0x00, 0x00, 0xBE, 0xF5,
  0xFF, 0xFF, 0x00, 0x00, 0x00, 0x01, 0x18, 0x00, 0x00, 0x00,
  0x28, 0x00, 0x00, 0x00, 0x44, 0x00, 0x00, 0x00, 0x11, 0x00,
  0x00, 0x00, 0x00, 0x00, 0x00, 0x09, 0xD8, 0x00, 0x00, 0x00,
  0x04, 0x00, 0x00, 0x00, 0xFF, 0xFF, 0xFF, 0xFF, 0x60, 0x00,
  0x00, 0x00, 0x60, 0x00, 0x00, 0x00, 0x10, 0x00, 0x00, 0x00,
  0xAC, 0xF5, 0xFF, 0xFF, 0x08, 0x00, 0x00, 0x00, 0x10, 0x00,
  0x00, 0x00, 0x01, 0x00, 0x00, 0x00, 0x80, 0xFF, 0xFF, 0xFF,
  0xFF, 0xFF, 0xFF, 0xFF, 0x01, 0x00, 0x00, 0x00, 0x57, 0xA5,
  0xE2, 0x3B, 0x99, 0x00, 0x00, 0x00, 0x73, 0x65, 0x71, 0x75,
  0x65, 0x6E, 0x74, 0x69, 0x61, 0x6C, 0x2F, 0x63, 0x6F, 0x6E,
  0x76, 0x32, 0x64, 0x2F, 0x52, 0x65, 0x6C, 0x75, 0x3B, 0x73,
  0x65, 0x71, 0x75, 0x65, 0x6E, 0x74, 0x69, 0x61, 0x6C, 0x2F,
  0x63, 0x6F, 0x6E, 0x76, 0x32, 0x64, 0x2F, 0x42, 0x69, 0x61,
  0x73, 0x41, 0x64, 0x64, 0x3B, 0x73, 0x65, 0x71, 0x75, 0x65,
  0x6E, 0x74, 0x69, 0x61, 0x6C, 0x2F, 0x64, 0x65, 0x70, 0x74,
  0x68, 0x77, 0x69, 0x73, 0x65, 0x5F, 0x63, 0x6F, 0x6E, 0x76,
  0x32, 0x64, 0x2F, 0x64, 0x65, 0x70, 0x74, 0x68, 0x77, 0x69,
  0x73, 0x65, 0x3B, 0x73, 0x65, 0x71, 0x75, 0x65, 0x6E, 0x74,
  0x69, 0x61, 0x6C, 0x2F, 0x63, 0x6F, 0x6E, 0x76, 0x32, 0x64,
  0x2F, 0x43, 0x6F, 0x6E, 0x76, 0x32, 0x44, 0x3B, 0x73, 0x65,
  0x71, 0x75, 0x65, 0x6E, 0x74, 0x69, 0x61, 0x6C, 0x2F, 0x63,
  0x6F, 0x6E, 0x76, 0x32, 0x64, 0x2F, 0x42, 0x69, 0x61, 0x73,
  0x41, 0x64, 0x64, 0x2F, 0x52, 0x65, 0x61, 0x64, 0x56, 0x61,
  0x72, 0x69, 0x61, 0x62, 0x6C, 0x65, 0x4F, 0x70, 0x31, 0x00,
  0x00, 0x00, 0x04, 0x00, 0x00, 0x00, 0x01, 0x00, 0x00, 0x00,
  0x60, 0x00, 0x00, 0x00, 0x60, 0x00, 0x00, 0x00, 0x10, 0x00,
  0x00, 0x00, 0xC6, 0xF6, 0xFF, 0xFF, 0x00, 0x00, 0x00, 0x01,
  0x18, 0x00, 0x00, 0x00, 0x28, 0x00, 0x00, 0x00, 0x48, 0x00,
  0x00, 0x00, 0x10, 0x00, 0x00, 0x00, 0x00, 0x00, 0x00, 0x09,
  0x5C, 0x00, 0x00, 0x00, 0x04, 0x00, 0x00, 0x00, 0xFF, 0xFF,
  0xFF, 0xFF, 0x60, 0x00, 0x00, 0x00, 0x60, 0x00, 0x00, 0x00,
  0x01, 0x00, 0x00, 0x00, 0xB4, 0xF6, 0xFF, 0xFF, 0x08, 0x00,
  0x00, 0x00, 0x14, 0x00, 0x00, 0x00, 0x01, 0x00, 0x00, 0x00,
  0x80, 0xFF, 0xFF, 0xFF, 0xFF, 0xFF, 0xFF, 0xFF, 0x00, 0x00,
  0x00, 0x00, 0x01, 0x00, 0x00, 0x00, 0x00, 0x00, 0x80, 0x3F,
  0x1A, 0x00, 0x00, 0x00, 0x73, 0x65, 0x71, 0x75, 0x65, 0x6E,
  0x74, 0x69, 0x61, 0x6C, 0x2F, 0x72, 0x65, 0x73, 0x68, 0x61,
  0x70, 0x65, 0x2F, 0x52, 0x65, 0x73, 0x68, 0x61, 0x70, 0x65,
  0x00, 0x00, 0x04, 0x00, 0x00, 0x00, 0x01, 0x00, 0x00, 0x00,
  0x60, 0x00, 0x00, 0x00, 0x60, 0x00, 0x00, 0x00, 0x01, 0x00,
  0x00, 0x00, 0xC2, 0xF7, 0xFF, 0xFF, 0x00, 0x00, 0x00, 0x01,
  0x14, 0x00, 0x00, 0x00, 0x14, 0x00, 0x00, 0x00, 0x0F, 0x00,
  0x00, 0x00, 0x00, 0x00, 0x00, 0x02, 0x30, 0x00, 0x00, 0x00,
  0xAC, 0xF7, 0xFF, 0xFF, 0x20, 0x00, 0x00, 0x00, 0x73, 0x65,
  0x71, 0x75, 0x65, 0x6E, 0x74, 0x69, 0x61, 0x6C, 0x2F, 0x72,
  0x65, 0x73, 0x68, 0x61, 0x70, 0x65, 0x2F, 0x52, 0x65, 0x73,
  0x68, 0x61, 0x70, 0x65, 0x2F, 0x73, 0x68, 0x61, 0x70, 0x65,
  0x00, 0x00, 0x00, 0x00, 0x01, 0x00, 0x00, 0x00, 0x04, 0x00,
  0x00, 0x00, 0x12, 0xF8, 0xFF, 0xFF, 0x00, 0x00, 0x00, 0x01,
  0x14, 0x00, 0x00, 0x00, 0x14, 0x00, 0x00, 0x00, 0x0E, 0x00,
  0x00, 0x00, 0x00, 0x00, 0x00, 0x02, 0x30, 0x00, 0x00, 0x00,
  0xFC, 0xF7, 0xFF, 0xFF, 0x20, 0x00, 0x00, 0x00, 0x73, 0x65,
  0x71, 0x75, 0x65, 0x6E, 0x74, 0x69, 0x61, 0x6C, 0x2F, 0x72,
  0x65, 0x73, 0x68, 0x61, 0x70, 0x65, 0x2F, 0x73, 0x74, 0x72,
  0x69, 0x64, 0x65, 0x64, 0x5F, 0x73, 0x6C, 0x69, 0x63, 0x65,
  0x00, 0x00, 0x00, 0x00, 0x00, 0x00, 0x00, 0x00, 0x5E, 0xF8,
  0xFF, 0xFF, 0x00, 0x00, 0x00, 0x01, 0x14, 0x00, 0x00, 0x00,
  0x14, 0x00, 0x00, 0x00, 0x0D, 0x00, 0x00, 0x00, 0x00, 0x00,
  0x00, 0x02, 0x28, 0x00, 0x00, 0x00, 0x48, 0xF8, 0xFF, 0xFF,
  0x18, 0x00, 0x00, 0x00, 0x73, 0x65, 0x71, 0x75, 0x65, 0x6E,
  0x74, 0x69, 0x61, 0x6C, 0x2F, 0x72, 0x65, 0x73, 0x68, 0x61,
  0x70, 0x65, 0x2F, 0x53, 0x68, 0x61, 0x70, 0x65, 0x00, 0x00,
  0x00, 0x00, 0x01, 0x00, 0x00, 0x00, 0x03, 0x00, 0x00, 0x00,
  0xA6, 0xF8, 0xFF, 0xFF, 0x00, 0x00, 0x00, 0x01, 0x14, 0x00,
  0x00, 0x00, 0xE8, 0x00, 0x00, 0x00, 0x0C, 0x00, 0x00, 0x00,
  0x00, 0x00, 0x00, 0x09, 0x7C, 0x01, 0x00, 0x00, 0x0C, 0xF8,
  0xFF, 0xFF, 0x08, 0x00, 0x00, 0x00, 0x8C, 0x00, 0x00, 0x00,
  0x10, 0x00, 0x00, 0x00, 0x00, 0x00, 0x00, 0x00, 0x00, 0x00,
  0x00, 0x00, 0x00, 0x00, 0x00, 0x00, 0x00, 0x00, 0x00, 0x00,
  0x00, 0x00, 0x00, 0x00, 0x00, 0x00, 0x00, 0x00, 0x00, 0x00,
  0x00, 0x00, 0x00, 0x00, 0x00, 0x00, 0x00, 0x00, 0x00, 0x00,
  0x00, 0x00, 0x00, 0x00, 0x00, 0x00, 0x00, 0x00, 0x00, 0x00,
  0x00, 0x00, 0x00, 0x00, 0x00, 0x00, 0x00, 0x00, 0x00, 0x00,
  0x00, 0x00, 0x00, 0x00, 0x00, 0x00, 0x00, 0x00, 0x00, 0x00,
  0x00, 0x00, 0x00, 0x00, 0x00, 0x00, 0x00, 0x00, 0x00, 0x00,
  0x00, 0x00, 0x00, 0x00, 0x00, 0x00, 0x00, 0x00, 0x00, 0x00,
  0x00, 0x00, 0x00, 0x00, 0x00, 0x00, 0x00, 0x00, 0x00, 0x00,
  0x00, 0x00, 0x00, 0x00, 0x00, 0x00, 0x00, 0x00, 0x00, 0x00,
  0x00, 0x00, 0x00, 0x00, 0x00, 0x00, 0x00, 0x00, 0x00, 0x00,
  0x00, 0x00, 0x00, 0x00, 0x00, 0x00, 0x00, 0x00, 0x00, 0x00,
  0x00, 0x00, 0x00, 0x00, 0x00, 0x00, 0x10, 0x00, 0x00, 0x00,
  0x66, 0xAA, 0xA7, 0x36, 0x7F, 0xC4, 0xBB, 0x36, 0x7C, 0x89,
  0xD1, 0x36, 0xEF, 0xA0, 0xBD, 0x36, 0x39, 0x49, 0xB9, 0x36,
  0x66, 0x72, 0xE6, 0x36, 0xF7, 0x93, 0x07, 0x37, 0x99, 0x6D,
  0xF4, 0x36, 0x0B, 0xC6, 0xEE, 0x36, 0xC5, 0x77, 0x17, 0x37,
  0xEC, 0x19, 0x30, 0x37, 0x63, 0x29, 0xBD, 0x36, 0xB9, 0x2F,
  0x08, 0x37, 0x9B, 0x07, 0xB6, 0x36, 0x6A, 0x69, 0xC9, 0x36,
  0x8C, 0x7E, 0xCF, 0x36, 0x98, 0x00, 0x00, 0x00, 0x73, 0x65,
  0x71, 0x75, 0x65, 0x6E, 0x74, 0x69, 0x61, 0x6C, 0x2F, 0x63,
  0x6F, 0x6E, 0x76, 0x32, 0x64, 0x2F, 0x52, 0x65, 0x6C, 0x75,
  0x3B, 0x73, 0x65, 0x71, 0x75, 0x65, 0x6E, 0x74, 0x69, 0x61,
  0x6C, 0x2F, 0x63, 0x6F, 0x6E, 0x76, 0x32, 0x64, 0x2F, 0x42,
  0x69, 0x61, 0x73, 0x41, 0x64, 0x64, 0x3B, 0x73, 0x65, 0x71,
  0x75, 0x65, 0x6E, 0x74, 0x69, 0x61, 0x6C, 0x2F, 0x64, 0x65,
  0x70, 0x74, 0x68, 0x77, 0x69, 0x73, 0x65, 0x5F, 0x63, 0x6F,
  0x6E, 0x76, 0x32, 0x64, 0x2F, 0x64, 0x65, 0x70, 0x74, 0x68,
  0x77, 0x69, 0x73, 0x65, 0x3B, 0x73, 0x65, 0x71, 0x75, 0x65,
  0x6E, 0x74, 0x69, 0x61, 0x6C, 0x2F, 0x63, 0x6F, 0x6E, 0x76,
  0x32, 0x64, 0x2F, 0x43, 0x6F, 0x6E, 0x76, 0x32, 0x44, 0x3B,
  0x73, 0x65, 0x71, 0x75, 0x65, 0x6E, 0x74, 0x69, 0x61, 0x6C,
  0x2F, 0x63, 0x6F, 0x6E, 0x76, 0x32, 0x64, 0x2F, 0x42, 0x69,
  0x61, 0x73, 0x41, 0x64, 0x64, 0x2F, 0x52, 0x65, 0x61, 0x64,
  0x56, 0x61, 0x72, 0x69, 0x61, 0x62, 0x6C, 0x65, 0x4F, 0x70,
  0x00, 0x00, 0x00, 0x00, 0x04, 0x00, 0x00, 0x00, 0x10, 0x00,
  0x00, 0x00, 0x03, 0x00, 0x00, 0x00, 0x03, 0x00, 0x00, 0x00,
  0x01, 0x00, 0x00, 0x00, 0x4E, 0xFA, 0xFF, 0xFF, 0x00, 0x00,
  0x00, 0x01, 0x14, 0x00, 0x00, 0x00, 0xE4, 0x00, 0x00, 0x00,
  0x0B, 0x00, 0x00, 0x00, 0x00, 0x00, 0x00, 0x02, 0x08, 0x01,
  0x00, 0x00, 0xB4, 0xF9, 0xFF, 0xFF, 0x08, 0x00, 0x00, 0x00,
  0x88, 0x00, 0x00, 0x00, 0x10, 0x00, 0x00, 0x00, 0x00, 0x00,
  0x00, 0x00, 0x00, 0x00, 0x00, 0x00, 0x00, 0x00, 0x00, 0x00,
  0x00, 0x00, 0x00, 0x00, 0x00, 0x00, 0x00, 0x00, 0x00, 0x00,
  0x00, 0x00, 0x00, 0x00, 0x00, 0x00, 0x00, 0x00, 0x00, 0x00,
  0x00, 0x00, 0x00, 0x00, 0x00, 0x00, 0x00, 0x00, 0x00, 0x00,
  0x00, 0x00, 0x00, 0x00, 0x00, 0x00, 0x00, 0x00, 0x00, 0x00,
  0x00, 0x00, 0x00, 0x00, 0x00, 0x00, 0x00, 0x00, 0x00, 0x00,
  0x00, 0x00, 0x00, 0x00, 0x00, 0x00, 0x00, 0x00, 0x00, 0x00,
  0x00, 0x00, 0x00, 0x00, 0x00, 0x00, 0x00, 0x00, 0x00, 0x00,
  0x00, 0x00, 0x00, 0x00, 0x00, 0x00, 0x00, 0x00, 0x00, 0x00,
  0x00, 0x00, 0x00, 0x00, 0x00, 0x00, 0x00, 0x00, 0x00, 0x00,
  0x00, 0x00, 0x00, 0x00, 0x00, 0x00, 0x00, 0x00, 0x00, 0x00,
  0x00, 0x00, 0x00, 0x00, 0x00, 0x00, 0x00, 0x00, 0x00, 0x00,
  0x00, 0x00, 0x00, 0x00, 0x00, 0x00, 0x10, 0x00, 0x00, 0x00,
  0x66, 0xAA, 0xA7, 0x36, 0x7F, 0xC4, 0xBB, 0x36, 0x7C, 0x89,
  0xD1, 0x36, 0xEF, 0xA0, 0xBD, 0x36, 0x39, 0x49, 0xB9, 0x36,
  0x66, 0x72, 0xE6, 0x36, 0xF7, 0x93, 0x07, 0x37, 0x99, 0x6D,
  0xF4, 0x36, 0x0B, 0xC6, 0xEE, 0x36, 0xC5, 0x77, 0x17, 0x37,
  0xEC, 0x19, 0x30, 0x37, 0x63, 0x29, 0xBD, 0x36, 0xB9, 0x2F,
  0x08, 0x37, 0x9B, 0x07, 0xB6, 0x36, 0x6A, 0x69, 0xC9, 0x36,
  0x8C, 0x7E, 0xCF, 0x36, 0x28, 0x00, 0x00, 0x00, 0x73, 0x65,
  0x71, 0x75, 0x65, 0x6E, 0x74, 0x69, 0x61, 0x6C, 0x2F, 0x63,
  0x6F, 0x6E, 0x76, 0x32, 0x64, 0x2F, 0x42, 0x69, 0x61, 0x73,
  0x41, 0x64, 0x64, 0x2F, 0x52, 0x65, 0x61, 0x64, 0x56, 0x61,
  0x72, 0x69, 0x61, 0x62, 0x6C, 0x65, 0x4F, 0x70, 0x00, 0x00,
  0x00, 0x00, 0x01, 0x00, 0x00, 0x00, 0x10, 0x00, 0x00, 0x00,
  0x76, 0xFB, 0xFF, 0xFF, 0x00, 0x00, 0x00, 0x01, 0x28, 0x00,
  0x00, 0x00, 0xFC, 0x00, 0x00, 0x00, 0x0A, 0x00, 0x00, 0x00,
  0x00, 0x00, 0x00, 0x09, 0x1C, 0x01, 0x00, 0x00, 0x00, 0x00,
  0x12, 0x00, 0x10, 0x00, 0x00, 0x00, 0x00, 0x00, 0x0C, 0x00,
  0x08, 0x00, 0x00, 0x00, 0x00, 0x00, 0x04, 0x00, 0x12, 0x00,
  0x00, 0x00, 0x03, 0x00, 0x00, 0x00, 0x08, 0x00, 0x00, 0x00,
  0x88, 0x00, 0x00, 0x00, 0x10, 0x00, 0x00, 0x00, 0x00, 0x00,
  0x00, 0x00, 0x00, 0x00, 0x00, 0x00, 0x00, 0x00, 0x00, 0x00,
  0x00, 0x00, 0x00, 0x00, 0x00, 0x00, 0x00, 0x00, 0x00, 0x00,
  0x00, 0x00, 0x00, 0x00, 0x00, 0x00, 0x00, 0x00, 0x00, 0x00,
  0x00, 0x00, 0x00, 0x00, 0x00, 0x00, 0x00, 0x00, 0x00, 0x00,
  0x00, 0x00, 0x00, 0x00, 0x00, 0x00, 0x00, 0x00, 0x00, 0x00,
  0x00, 0x00, 0x00, 0x00, 0x00, 0x00, 0x00, 0x00, 0x00, 0x00,
  0x00, 0x00, 0x00, 0x00, 0x00, 0x00, 0x00, 0x00, 0x00, 0x00,
  0x00, 0x00, 0x00, 0x00, 0x00, 0x00, 0x00, 0x00, 0x00, 0x00,
  0x00, 0x00, 0x00, 0x00, 0x00, 0x00, 0x00, 0x00, 0x00, 0x00,
  0x00, 0x00, 0x00, 0x00, 0x00, 0x00, 0x00, 0x00, 0x00, 0x00,
  0x00, 0x00, 0x00, 0x00, 0x00, 0x00, 0x00, 0x00, 0x00, 0x00,
  0x00, 0x00, 0x00, 0x00, 0x00, 0x00, 0x00, 0x00, 0x00, 0x00,
  0x00, 0x00, 0x00, 0x00, 0x00, 0x00, 0x10, 0x00, 0x00, 0x00,
  0xB9, 0xD8, 0x21, 0x3A, 0x68, 0xC9, 0xEF, 0x3A, 0x7A, 0x86,
  0x48, 0x3A, 0xB7, 0xCB, 0x32, 0x3A, 0x5E, 0xB2, 0x2F, 0x3A,
  0xE0, 0x24, 0x3A, 0x3A, 0xD6, 0xE3, 0x2E, 0x3B, 0x9E, 0x95,
  0x18, 0x3B, 0x61, 0x21, 0x47, 0x3B, 0x13, 0x34, 0x99, 0x3A,
  0xA0, 0xE8, 0x9C, 0x3A, 0xDD, 0xC1, 0x21, 0x3A, 0xF8, 0xD9,
  0xA4, 0x3A, 0xBC, 0xAC, 0x04, 0x3B, 0x51, 0x47, 0x35, 0x3A,
  0xE4, 0x39, 0x10, 0x3B, 0x25, 0x00, 0x00, 0x00, 0x73, 0x65,
  0x71, 0x75, 0x65, 0x6E, 0x74, 0x69, 0x61, 0x6C, 0x2F, 0x64,
  0x65, 0x70, 0x74, 0x68, 0x77, 0x69, 0x73, 0x65, 0x5F, 0x63,
  0x6F, 0x6E, 0x76, 0x32, 0x64, 0x2F, 0x64, 0x65, 0x70, 0x74,
  0x68, 0x77, 0x69, 0x73, 0x65, 0x00, 0x00, 0x00, 0x04, 0x00,
  0x00, 0x00, 0x01, 0x00, 0x00, 0x00, 0x08, 0x00, 0x00, 0x00,
  0x08, 0x00, 0x00, 0x00, 0x10, 0x00, 0x00, 0x00, 0xBE, 0xFC,
  0xFF, 0xFF, 0x00, 0x00, 0x00, 0x01, 0x14, 0x00, 0x00, 0x00,
  0xE4, 0x00, 0x00, 0x00, 0x09, 0x00, 0x00, 0x00, 0x00, 0x00,
  0x00, 0x02, 0x10, 0x01, 0x00, 0x00, 0x24, 0xFC, 0xFF, 0xFF,
  0x08, 0x00, 0x00, 0x00, 0x88, 0x00, 0x00, 0x00, 0x10, 0x00,
  0x00, 0x00, 0x00, 0x00, 0x00, 0x00, 0x00, 0x00, 0x00, 0x00,
  0x00, 0x00, 0x00, 0x00, 0x00, 0x00, 0x00, 0x00, 0x00, 0x00,
  0x00, 0x00, 0x00, 0x00, 0x00, 0x00, 0x00, 0x00, 0x00, 0x00,
  0x00, 0x00, 0x00, 0x00, 0x00, 0x00, 0x00, 0x00, 0x00, 0x00,
  0x00, 0x00, 0x00, 0x00, 0x00, 0x00, 0x00, 0x00, 0x00, 0x00,
  0x00, 0x00, 0x00, 0x00, 0x00, 0x00, 0x00, 0x00, 0x00, 0x00,
  0x00, 0x00, 0x00, 0x00, 0x00, 0x00, 0x00, 0x00, 0x00, 0x00,
  0x00, 0x00, 0x00, 0x00, 0x00, 0x00, 0x00, 0x00, 0x00, 0x00,
  0x00, 0x00, 0x00, 0x00, 0x00, 0x00, 0x00, 0x00, 0x00, 0x00,
  0x00, 0x00, 0x00, 0x00, 0x00, 0x00, 0x00, 0x00, 0x00, 0x00,
  0x00, 0x00, 0x00, 0x00, 0x00, 0x00, 0x00, 0x00, 0x00, 0x00,
  0x00, 0x00, 0x00, 0x00, 0x00, 0x00, 0x00, 0x00, 0x00, 0x00,
  0x00, 0x00, 0x00, 0x00, 0x00, 0x00, 0x00, 0x00, 0x00, 0x00,
  0x10, 0x00, 0x00, 0x00, 0xDB, 0x49, 0x8F, 0x36, 0xAC, 0x4A,
  0x54, 0x37, 0x3B, 0x88, 0xB1, 0x36, 0x52, 0x4B, 0x9E, 0x36,
  0xF1, 0x8C, 0x9B, 0x36, 0xC7, 0xCC, 0xA4, 0x36, 0x17, 0xD6,
  0x9A, 0x37, 0xA2, 0x16, 0x87, 0x37, 0x14, 0x4C, 0xB0, 0x37,
  0xEB, 0xA2, 0x07, 0x37, 0xB5, 0xEA, 0x0A, 0x37, 0x9E, 0x35,
  0x8F, 0x36, 0xE5, 0xF2, 0x11, 0x37, 0x5D, 0xEC, 0x6A, 0x37,
  0x0A, 0x7E, 0xA0, 0x36, 0x83, 0x60, 0x7F, 0x37, 0x32, 0x00,
  0x00, 0x00, 0x73, 0x65, 0x71, 0x75, 0x65, 0x6E, 0x74, 0x69,
  0x61, 0x6C, 0x2F, 0x64, 0x65, 0x70, 0x74, 0x68, 0x77, 0x69,
  0x73, 0x65, 0x5F, 0x63, 0x6F, 0x6E, 0x76, 0x32, 0x64, 0x2F,
  0x42, 0x69, 0x61, 0x73, 0x41, 0x64, 0x64, 0x2F, 0x52, 0x65,
  0x61, 0x64, 0x56, 0x61, 0x72, 0x69, 0x61, 0x62, 0x6C, 0x65,
  0x4F, 0x70, 0x00, 0x00, 0x01, 0x00, 0x00, 0x00, 0x10, 0x00,
  0x00, 0x00, 0xEE, 0xFD, 0xFF, 0xFF, 0x00, 0x00, 0x00, 0x01,
  0x14, 0x00, 0x00, 0x00, 0x34, 0x00, 0x00, 0x00, 0x08, 0x00,
  0x00, 0x00, 0x00, 0x00, 0x00, 0x09, 0x44, 0x00, 0x00, 0x00,
  0x54, 0xFD, 0xFF, 0xFF, 0x08, 0x00, 0x00, 0x00, 0x14, 0x00,
  0x00, 0x00, 0x01, 0x00, 0x00, 0x00, 0x00, 0x00, 0x00, 0x00,
  0x00, 0x00, 0x00, 0x00, 0x00, 0x00, 0x00, 0x00, 0x01, 0x00,
  0x00, 0x00, 0x7E, 0xCA, 0x1B, 0x3B, 0x17, 0x00, 0x00, 0x00,
  0x73, 0x65, 0x71, 0x75, 0x65, 0x6E, 0x74, 0x69, 0x61, 0x6C,
  0x2F, 0x64, 0x65, 0x6E, 0x73, 0x65, 0x2F, 0x4D, 0x61, 0x74,
  0x4D, 0x75, 0x6C, 0x00, 0x02, 0x00, 0x00, 0x00, 0x02, 0x00,
  0x00, 0x00, 0x00, 0x04, 0x00, 0x00, 0x56, 0xFE, 0xFF, 0xFF,
  0x00, 0x00, 0x00, 0x01, 0x14, 0x00, 0x00, 0x00, 0x30, 0x00,
  0x00, 0x00, 0x07, 0x00, 0x00, 0x00, 0x00, 0x00, 0x00, 0x02,
  0x50, 0x00, 0x00, 0x00, 0xBC, 0xFD, 0xFF, 0xFF, 0x08, 0x00,
  0x00, 0x00, 0x10, 0x00, 0x00, 0x00, 0x01, 0x00, 0x00, 0x00,
  0x00, 0x00, 0x00, 0x00, 0x00, 0x00, 0x00, 0x00, 0x01, 0x00,
  0x00, 0x00, 0xED, 0x43, 0xCA, 0x37, 0x27, 0x00, 0x00, 0x00,
  0x73, 0x65, 0x71, 0x75, 0x65, 0x6E, 0x74, 0x69, 0x61, 0x6C,
  0x2F, 0x64, 0x65, 0x6E, 0x73, 0x65, 0x2F, 0x42, 0x69, 0x61,
  0x73, 0x41, 0x64, 0x64, 0x2F, 0x52, 0x65, 0x61, 0x64, 0x56,
  0x61, 0x72, 0x69, 0x61, 0x62, 0x6C, 0x65, 0x4F, 0x70, 0x00,
  0x01, 0x00, 0x00, 0x00, 0x02, 0x00, 0x00, 0x00, 0xC6, 0xFE,
  0xFF, 0xFF, 0x00, 0x00, 0x00, 0x01, 0x14, 0x00, 0x00, 0x00,
  0x14, 0x00, 0x00, 0x00, 0x06, 0x00, 0x00, 0x00, 0x00, 0x00,
  0x00, 0x02, 0x28, 0x00, 0x00, 0x00, 0xB0, 0xFE, 0xFF, 0xFF,
  0x18, 0x00, 0x00, 0x00, 0x73, 0x65, 0x71, 0x75, 0x65, 0x6E,
  0x74, 0x69, 0x61, 0x6C, 0x2F, 0x66, 0x6C, 0x61, 0x74, 0x74,
  0x65, 0x6E, 0x2F, 0x43, 0x6F, 0x6E, 0x73, 0x74, 0x00, 0x00,
  0x00, 0x00, 0x01, 0x00, 0x00, 0x00, 0x02, 0x00, 0x00, 0x00,
  0x0E, 0xFF, 0xFF, 0xFF, 0x00, 0x00, 0x00, 0x01, 0x14, 0x00,
  0x00, 0x00, 0x14, 0x00, 0x00, 0x00, 0x03, 0x00, 0x00, 0x00,
  0x00, 0x00, 0x00, 0x02, 0x30, 0x00, 0x00, 0x00, 0xF8, 0xFE,
  0xFF, 0xFF, 0x22, 0x00, 0x00, 0x00, 0x73, 0x65, 0x71, 0x75,
  0x65, 0x6E, 0x74, 0x69, 0x61, 0x6C, 0x2F, 0x72, 0x65, 0x73,
  0x68, 0x61, 0x70, 0x65, 0x2F, 0x52, 0x65, 0x73, 0x68, 0x61,
  0x70, 0x65, 0x2F, 0x73, 0x68, 0x61, 0x70, 0x65, 0x2F, 0x33,
  0x00, 0x00, 0x00, 0x00, 0x00, 0x00, 0x5A, 0xFF, 0xFF, 0xFF,
  0x00, 0x00, 0x00, 0x01, 0x14, 0x00, 0x00, 0x00, 0x14, 0x00,
  0x00, 0x00, 0x04, 0x00, 0x00, 0x00, 0x00, 0x00, 0x00, 0x02,
  0x30, 0x00, 0x00, 0x00, 0x44, 0xFF, 0xFF, 0xFF, 0x22, 0x00,
  0x00, 0x00, 0x73, 0x65, 0x71, 0x75, 0x65, 0x6E, 0x74, 0x69,
  0x61, 0x6C, 0x2F, 0x72, 0x65, 0x73, 0x68, 0x61, 0x70, 0x65,
  0x2F, 0x52, 0x65, 0x73, 0x68, 0x61, 0x70, 0x65, 0x2F, 0x73,
  0x68, 0x61, 0x70, 0x65, 0x2F, 0x31, 0x00, 0x00, 0x00, 0x00,
  0x00, 0x00, 0xA6, 0xFF, 0xFF, 0xFF, 0x00, 0x00, 0x00, 0x01,
  0x14, 0x00, 0x00, 0x00, 0x14, 0x00, 0x00, 0x00, 0x03, 0x00,
  0x00, 0x00, 0x00, 0x00, 0x00, 0x02, 0x38, 0x00, 0x00, 0x00,
  0x90, 0xFF, 0xFF, 0xFF, 0x28, 0x00, 0x00, 0x00, 0x73, 0x65,
  0x71, 0x75, 0x65, 0x6E, 0x74, 0x69, 0x61, 0x6C, 0x2F, 0x72,
  0x65, 0x73, 0x68, 0x61, 0x70, 0x65, 0x2F, 0x73, 0x74, 0x72,
  0x69, 0x64, 0x65, 0x64, 0x5F, 0x73, 0x6C, 0x69, 0x63, 0x65,
  0x2F, 0x73, 0x74, 0x61, 0x63, 0x6B, 0x5F, 0x31, 0x00, 0x00,
  0x00, 0x00, 0x01, 0x00, 0x00, 0x00, 0x01, 0x00, 0x00, 0x00,
  0x00, 0x00, 0x16, 0x00, 0x1C, 0x00, 0x18, 0x00, 0x17, 0x00,
  0x10, 0x00, 0x0C, 0x00, 0x08, 0x00, 0x00, 0x00, 0x00, 0x00,
  0x00, 0x00, 0x07, 0x00, 0x16, 0x00, 0x00, 0x00, 0x00, 0x00,
  0x00, 0x01, 0x18, 0x00, 0x00, 0x00, 0x18, 0x00, 0x00, 0x00,
  0x02, 0x00, 0x00, 0x00, 0x00, 0x00, 0x00, 0x02, 0x38, 0x00,
  0x00, 0x00, 0x04, 0x00, 0x04, 0x00, 0x04, 0x00, 0x00, 0x00,
  0x26, 0x00, 0x00, 0x00, 0x73, 0x65, 0x71, 0x75, 0x65, 0x6E,
  0x74, 0x69, 0x61, 0x6C, 0x2F, 0x72, 0x65, 0x73, 0x68, 0x61,
  0x70, 0x65, 0x2F, 0x73, 0x74, 0x72, 0x69, 0x64, 0x65, 0x64,
  0x5F, 0x73, 0x6C, 0x69, 0x63, 0x65, 0x2F, 0x73, 0x74, 0x61,
  0x63, 0x6B, 0x00, 0x00, 0x01, 0x00, 0x00, 0x00, 0x01, 0x00,
  0x00, 0x00, 0x00, 0x00, 0x16, 0x00, 0x20, 0x00, 0x1C, 0x00,
  0x1B, 0x00, 0x14, 0x00, 0x10, 0x00, 0x0C, 0x00, 0x00, 0x00,
  0x00, 0x00, 0x08, 0x00, 0x07, 0x00, 0x16, 0x00, 0x00, 0x00,
  0x00, 0x00, 0x00, 0x01, 0x18, 0x00, 0x00, 0x00, 0x30, 0x00,
  0x00, 0x00, 0x50, 0x00, 0x00, 0x00, 0x01, 0x00, 0x00, 0x00,
  0x00, 0x00, 0x00, 0x09, 0x68, 0x00, 0x00, 0x00, 0x03, 0x00,
  0x00, 0x00, 0xFF, 0xFF, 0xFF, 0xFF, 0x60, 0x00, 0x00, 0x00,
  0x60, 0x00, 0x00, 0x00, 0x0C, 0x00, 0x0C, 0x00, 0x00, 0x00,
  0x00, 0x00, 0x08, 0x00, 0x04, 0x00, 0x0C, 0x00, 0x00, 0x00,
  0x08, 0x00, 0x00, 0x00, 0x14, 0x00, 0x00, 0x00, 0x01, 0x00,
  0x00, 0x00, 0x80, 0xFF, 0xFF, 0xFF, 0xFF, 0xFF, 0xFF, 0xFF,
  0x00, 0x00, 0x00, 0x00, 0x01, 0x00, 0x00, 0x00, 0x00, 0x00,
  0x80, 0x3F, 0x1F, 0x00, 0x00, 0x00, 0x73, 0x65, 0x72, 0x76,
  0x69, 0x6E, 0x67, 0x5F, 0x64, 0x65, 0x66, 0x61, 0x75, 0x6C,
  0x74, 0x5F, 0x72, 0x65, 0x73, 0x68, 0x61, 0x70, 0x65, 0x5F,
  0x69, 0x6E, 0x70, 0x75, 0x74, 0x3A, 0x30, 0x00, 0x03, 0x00,
  0x00, 0x00, 0x01, 0x00, 0x00, 0x00, 0x60, 0x00, 0x00, 0x00,
  0x60, 0x00, 0x00, 0x00, 0x09, 0x00, 0x00, 0x00, 0xB0, 0x00,
  0x00, 0x00, 0x94, 0x00, 0x00, 0x00, 0x84, 0x00, 0x00, 0x00,
  0x74, 0x00, 0x00, 0x00, 0x60, 0x00, 0x00, 0x00, 0x40, 0x00,
  0x00, 0x00, 0x2C, 0x00, 0x00, 0x00, 0x18, 0x00, 0x00, 0x00,
  0x04, 0x00, 0x00, 0x00, 0xC0, 0xFF, 0xFF, 0xFF, 0x19, 0x00,
  0x00, 0x00, 0x02, 0x00, 0x00, 0x00, 0x00, 0x00, 0x00, 0x19,
  0xD0, 0xFF, 0xFF, 0xFF, 0x09, 0x00, 0x00, 0x00, 0x04, 0x00,
  0x00, 0x00, 0x00, 0x00, 0x00, 0x09, 0xE0, 0xFF, 0xFF, 0xFF,
  0x04, 0x00, 0x00, 0x00, 0x03, 0x00, 0x00, 0x00, 0x00, 0x00,
  0x00, 0x04, 0xF0, 0xFF, 0xFF, 0xFF, 0x11, 0x00, 0x00, 0x00,
  0x02, 0x00, 0x00, 0x00, 0x00, 0x00, 0x00, 0x11, 0x0C, 0x00,
  0x10, 0x00, 0x0F, 0x00, 0x00, 0x00, 0x08, 0x00, 0x04, 0x00,
  0x0C, 0x00, 0x00, 0x00, 0x03, 0x00, 0x00, 0x00, 0x03, 0x00,
  0x00, 0x00, 0x00, 0x00, 0x00, 0x03, 0xDC, 0xFF, 0xFF, 0xFF,
  0x16, 0x00, 0x00, 0x00, 0x00, 0x00, 0x00, 0x16, 0xE8, 0xFF,
  0xFF, 0xFF, 0x53, 0x00, 0x00, 0x00, 0x00, 0x00, 0x00, 0x53,
  0xF4, 0xFF, 0xFF, 0xFF, 0x2D, 0x00, 0x00, 0x00, 0x00, 0x00,
  0x00, 0x2D, 0x0C, 0x00, 0x0C, 0x00, 0x0B, 0x00, 0x00, 0x00,
  0x00, 0x00, 0x04, 0x00, 0x0C, 0x00, 0x00, 0x00, 0x4D, 0x00,
  0x00, 0x00, 0x00, 0x00, 0x00, 0x4D
};
const unsigned int model_tflite_len = 8936;