#include "model.h"
const unsigned char model_tflite[] = {
  0x1C, 0x00, 0x00, 0x00, 0x54, 0x46, 0x4C, 0x33, 0x14, 0x00,
  0x20, 0x00, 0x1C, 0x00, 0x18, 0x00, 0x14, 0x00, 0x10, 0x00,
  0x0C, 0x00, 0x00, 0x00, 0x08, 0x00, 0x04, 0x00, 0x14, 0x00,
  0x00, 0x00, 0x1C, 0x00, 0x00, 0x00, 0x88, 0x00, 0x00, 0x00,
  0xE0, 0x00, 0x00, 0x00, 0xA4, 0x0F, 0x00, 0x00, 0xB4, 0x0F,
  0x00, 0x00, 0xF4, 0x21, 0x00, 0x00, 0x03, 0x00, 0x00, 0x00,
  0x01, 0x00, 0x00, 0x00, 0x04, 0x00, 0x00, 0x00, 0x3A, 0xEE,
  0xFF, 0xFF, 0x0C, 0x00, 0x00, 0x00, 0x1C, 0x00, 0x00, 0x00,
  0x38, 0x00, 0x00, 0x00, 0x0F, 0x00, 0x00, 0x00, 0x73, 0x65,
  0x72, 0x76, 0x69, 0x6E, 0x67, 0x5F, 0x64, 0x65, 0x66, 0x61,
  0x75, 0x6C, 0x74, 0x00, 0x01, 0x00, 0x00, 0x00, 0x04, 0x00,
  0x00, 0x00, 0x94, 0xFF, 0xFF, 0xFF, 0x16, 0x00, 0x00, 0x00,
  0x04, 0x00, 0x00, 0x00, 0x05, 0x00, 0x00, 0x00, 0x64, 0x65,
  0x6E, 0x73, 0x65, 0x00, 0x00, 0x00, 0x01, 0x00, 0x00, 0x00,
  0x04, 0x00, 0x00, 0x00, 0x3E, 0xEE, 0xFF, 0xFF, 0x04, 0x00,
  0x00, 0x00, 0x0D, 0x00, 0x00, 0x00, 0x72, 0x65, 0x73, 0x68,
  0x61, 0x70, 0x65, 0x5F, 0x69, 0x6E, 0x70, 0x75, 0x74, 0x00,
  0x00, 0x00, 0x02, 0x00, 0x00, 0x00, 0x34, 0x00, 0x00, 0x00,
  0x04, 0x00, 0x00, 0x00, 0xDC, 0xFF, 0xFF, 0xFF, 0x19, 0x00,
  0x00, 0x00, 0x04, 0x00, 0x00, 0x00, 0x13, 0x00, 0x00, 0x00,
  0x43, 0x4F, 0x4E, 0x56, 0x45, 0x52, 0x53, 0x49, 0x4F, 0x4E,
  0x5F, 0x4D, 0x45, 0x54, 0x41, 0x44, 0x41, 0x54, 0x41, 0x00,
  0x08, 0x00, 0x0C, 0x00, 0x08, 0x00, 0x04, 0x00, 0x08, 0x00,
  0x00, 0x00, 0x18, 0x00, 0x00, 0x00, 0x04, 0x00, 0x00, 0x00,
  0x13, 0x00, 0x00, 0x00, 0x6D, 0x69, 0x6E, 0x5F, 0x72, 0x75,
  0x6E, 0x74, 0x69, 0x6D, 0x65, 0x5F, 0x76, 0x65, 0x72, 0x73,
  0x69, 0x6F, 0x6E, 0x00, 0x1A, 0x00, 0x00, 0x00, 0xC0, 0x0E,
  0x00, 0x00, 0xB8, 0x0E, 0x00, 0x00, 0xA4, 0x0E, 0x00, 0x00,
  0x90, 0x0E, 0x00, 0x00, 0x7C, 0x0E, 0x00, 0x00, 0x74, 0x0E,
  0x00, 0x00, 0x5C, 0x0E, 0x00, 0x00, 0x44, 0x0E, 0x00, 0x00,
  0x34, 0x06, 0x00, 0x00, 0xE4, 0x05, 0x00, 0x00, 0xD4, 0x01,
  0x00, 0x00, 0x84, 0x01, 0x00, 0x00, 0xE4, 0x00, 0x00, 0x00,
  0xDC, 0x00, 0x00, 0x00, 0xD4, 0x00, 0x00, 0x00, 0xCC, 0x00,
  0x00, 0x00, 0xC4, 0x00, 0x00, 0x00, 0xBC, 0x00, 0x00, 0x00,
  0xB4, 0x00, 0x00, 0x00, 0xAC, 0x00, 0x00, 0x00, 0xA4, 0x00,
  0x00, 0x00, 0x9C, 0x00, 0x00, 0x00, 0x94, 0x00, 0x00, 0x00,
  0x8C, 0x00, 0x00, 0x00, 0x6C, 0x00, 0x00, 0x00, 0x04, 0x00,
  0x00, 0x00, 0x22, 0xEF, 0xFF, 0xFF, 0x04, 0x00, 0x00, 0x00,
  0x58, 0x00, 0x00, 0x00, 0x0C, 0x00, 0x00, 0x00, 0x08, 0x00,
  0x0E, 0x00, 0x08, 0x00, 0x04, 0x00, 0x08, 0x00, 0x00, 0x00,
  0x10, 0x00, 0x00, 0x00, 0x28, 0x00, 0x00, 0x00, 0x00, 0x00,
  0x06, 0x00, 0x08, 0x00, 0x04, 0x00, 0x06, 0x00, 0x00, 0x00,
  0x04, 0x00, 0x00, 0x00, 0x01, 0x00, 0x00, 0x00, 0xEB, 0x03,
  0x00, 0x00, 0x00, 0x00, 0x0A, 0x00, 0x10, 0x00, 0x0C, 0x00,
  0x08, 0x00, 0x04, 0x00, 0x0A, 0x00, 0x00, 0x00, 0x01, 0x00,
  0x00, 0x00, 0x02, 0x00, 0x00, 0x00, 0x04, 0x00, 0x00, 0x00,
  0x06, 0x00, 0x00, 0x00, 0x32, 0x2E, 0x31, 0x31, 0x2E, 0x31,
  0x00, 0x00, 0x86, 0xEF, 0xFF, 0xFF, 0x04, 0x00, 0x00, 0x00,
  0x10, 0x00, 0x00, 0x00, 0x31, 0x2E, 0x31, 0x34, 0x2E, 0x30,
  0x00, 0x00, 0x00, 0x00, 0x00, 0x00, 0x00, 0x00, 0x00, 0x00,
  0xB4, 0xE0, 0xFF, 0xFF, 0xB8, 0xE0, 0xFF, 0xFF, 0xBC, 0xE0,
  0xFF, 0xFF, 0xC0, 0xE0, 0xFF, 0xFF, 0xC4, 0xE0, 0xFF, 0xFF,
  0xC8, 0xE0, 0xFF, 0xFF, 0xCC, 0xE0, 0xFF, 0xFF, 0xD0, 0xE0,
  0xFF, 0xFF, 0xD4, 0xE0, 0xFF, 0xFF, 0xD8, 0xE0, 0xFF, 0xFF,
  0xDC, 0xE0, 0xFF, 0xFF, 0xCE, 0xEF, 0xFF, 0xFF, 0x04, 0x00,
  0x00, 0x00, 0x90, 0x00, 0x00, 0x00, 0xAC, 0x7F, 0x69, 0x0A,
  0xDD, 0x1B, 0xE3, 0x74, 0x1F, 0xC2, 0xC1, 0x7F, 0x3E, 0x74,
  0xA9, 0xC0, 0xFB, 0xF4, 0x3D, 0x7F, 0x1F, 0x55, 0x25, 0x4E,
  0x7A, 0x60, 0x5D, 0x19, 0x98, 0x48, 0xE8, 0xA9, 0x7F, 0x62,
  0x8A, 0x03, 0x81, 0x0C, 0x44, 0x9F, 0xBD, 0x61, 0xA5, 0x51,
  0x6F, 0x7F, 0x14, 0x2D, 0x20, 0x70, 0x08, 0xAD, 0xC8, 0xB5,
  0x28, 0x42, 0x25, 0xF1, 0x4D, 0x1E, 0xC9, 0xB2, 0x81, 0xA2,
  0x90, 0xAA, 0x40, 0x50, 0x3D, 0xB7, 0x19, 0x7F, 0x95, 0x7F,
  0xA5, 0x8B, 0x43, 0x6F, 0x93, 0xDD, 0x6C, 0xF4, 0x0E, 0x10,
  0x54, 0x37, 0xBF, 0xE9, 0xA5, 0x7F, 0x2A, 0x50, 0x7A, 0x7F,
  0x09, 0x0E, 0x44, 0x6C, 0x53, 0xB5, 0x1F, 0x7F, 0x03, 0x17,
  0x7E, 0xB3, 0x96, 0x84, 0x87, 0x21, 0x17, 0xAF, 0xEA, 0x3B,
  0x88, 0x01, 0x7F, 0x5E, 0x17, 0x67, 0xC2, 0xAD, 0xFD, 0x56,
  0x6D, 0x7F, 0x0C, 0x7F, 0x37, 0x39, 0x92, 0x7C, 0xD8, 0xD7,
  0xC8, 0xA0, 0xD0, 0xB9, 0x81, 0xF5, 0xBC, 0x75, 0x7A, 0xFF,
  0x6A, 0xF0, 0xFF, 0xFF, 0x04, 0x00, 0x00, 0x00, 0x40, 0x00,
  0x00, 0x00, 0xA7, 0xEC, 0xFF, 0xFF, 0x2D, 0x00, 0x00, 0x00,
  0xB9, 0xDF, 0xFF, 0xFF, 0x99, 0x06, 0x00, 0x00, 0xB4, 0xFD,
  0xFF, 0xFF, 0xD6, 0xF2, 0xFF, 0xFF, 0x1C, 0x05, 0x00, 0x00,
  0x67, 0x0A, 0x00, 0x00, 0x59, 0x0F, 0x00, 0x00, 0x50, 0xF5,
  0xFF, 0xFF, 0xD2, 0xDC, 0xFF, 0xFF, 0xFA, 0x2A, 0x00, 0x00,
  0x13, 0x1B, 0x00, 0x00, 0x8B, 0xF6, 0xFF, 0xFF, 0x4B, 0xFB,
  0xFF, 0xFF, 0xBC, 0x1E, 0x00, 0x00, 0xB6, 0xF0, 0xFF, 0xFF,
  0x04, 0x00, 0x00, 0x00, 0x00, 0x04, 0x00, 0x00, 0xBB, 0x29,
  0x35, 0x4B, 0xF6, 0xD3, 0x55, 0xF9, 0x16, 0x3F, 0x19, 0x5A,
  0x07, 0xB3, 0xC4, 0x10, 0xA6, 0xEE, 0xED, 0xD5, 0x59, 0x2A,
  0x2D, 0xFB, 0x0F, 0xFB, 0x38, 0x38, 0xE2, 0x13, 0xDA, 0x35,
  0xF4, 0x12, 0x5B, 0x06, 0x23, 0xC3, 0x23, 0xD9, 0x32, 0x16,
  0x2A, 0xF3, 0x18, 0x38, 0xAE, 0x4F, 0xDE, 0xA4, 0x0A, 0x1E,
  0x1F, 0x16, 0x4D, 0x2B, 0x09, 0x60, 0xFC, 0x21, 0x65, 0xC8,
  0x2B, 0x34, 0xFF, 0xC7, 0xB3, 0xDB, 0x52, 0x01, 0x34, 0x11,
  0x74, 0xD2, 0x2B, 0x0C, 0x7A, 0x44, 0xED, 0x58, 0x65, 0xF2,
  0x1F, 0x58, 0x2C, 0xC2, 0x3A, 0xDC, 0x53, 0x53, 0xE6, 0x0C,
  0xE9, 0xD5, 0x44, 0x49, 0x6C, 0x03, 0x0E, 0x1A, 0x2B, 0xBD,
  0x32, 0xDA, 0x45, 0x3A, 0xC8, 0x28, 0xD2, 0xE9, 0xB3, 0x2D,
  0x7F, 0x6F, 0xBB, 0xF0, 0x19, 0xFD, 0x30, 0xE9, 0x67, 0x60,
  0xEB, 0xF1, 0x38, 0x13, 0xA4, 0x2F, 0xA2, 0xE6, 0x2E, 0x17,
  0xF8, 0x6A, 0x75, 0x3B, 0x49, 0x23, 0x17, 0x7F, 0xF9, 0x1E,
  0xBE, 0x6B, 0x02, 0x01, 0x18, 0xB9, 0x4F, 0x61, 0x73, 0x2D,
  0xF9, 0x5D, 0x04, 0x76, 0x14, 0x96, 0xF7, 0x16, 0xD2, 0xCC,
  0x1A, 0x3C, 0x0F, 0x1A, 0x4F, 0xE1, 0x19, 0x3E, 0x0B, 0x64,
  0x3C, 0xCD, 0xAA, 0x40, 0x0B, 0xCF, 0x55, 0x2F, 0x41, 0xEC,
  0x7F, 0x20, 0x60, 0x56, 0xF5, 0x70, 0x69, 0x31, 0x2A, 0x37,
  0xB6, 0x0A, 0xCF, 0xEF, 0x5A, 0x29, 0x5D, 0x1F, 0x46, 0x10,
  0x27, 0x68, 0x7F, 0x60, 0xF3, 0x24, 0xAC, 0x1F, 0xA3, 0x5D,
  0x29, 0x1B, 0x2E, 0x31, 0x35, 0xCB, 0xEE, 0x21, 0x08, 0xF6,
  0x54, 0x56, 0x62, 0x7F, 0x81, 0x51, 0xE5, 0xF3, 0x2D, 0x53,
  0x65, 0x2F, 0xB2, 0x4F, 0xFC, 0x38, 0x93, 0x43, 0x15, 0x18,
  0xDA, 0x0B, 0x02, 0x1A, 0x1F, 0x58, 0x5B, 0xD4, 0xCB, 0x16,
  0x27, 0x08, 0xD0, 0x29, 0xEF, 0xC6, 0x25, 0x6C, 0x20, 0x14,
  0x47, 0x38, 0xD9, 0xD2, 0x13, 0x51, 0x12, 0xC9, 0x3E, 0x47,
  0x08, 0xC6, 0x35, 0xEA, 0xE9, 0x75, 0x68, 0xF7, 0xFE, 0x51,
  0x5B, 0x4F, 0x38, 0xC8, 0x1C, 0x3C, 0x59, 0x0F, 0x3D, 0x07,
  0x1B, 0x7F, 0x55, 0x2B, 0xF1, 0xC9, 0x16, 0xCD, 0xF4, 0x5C,
  0x25, 0x47, 0x06, 0x14, 0xF0, 0x45, 0x5E, 0x36, 0x5C, 0x32,
  0x41, 0xA4, 0x2B, 0x0E, 0x7C, 0x2F, 0xA7, 0x6B, 0x0D, 0xEA,
  0xBE, 0x1D, 0x3B, 0x37, 0x5C, 0x4D, 0x41, 0x33, 0x3A, 0x73,
  0x66, 0x1F, 0x2A, 0x3C, 0xA1, 0x19, 0xC7, 0x4F, 0x35, 0x0F,
  0x44, 0x49, 0xE2, 0x56, 0xAF, 0x23, 0x15, 0xFA, 0x07, 0x02,
  0x5C, 0x63, 0xC9, 0x5F, 0xDA, 0x14, 0x2D, 0x19, 0x5D, 0xC2,
  0xD0, 0x24, 0xF3, 0x3F, 0x04, 0x3E, 0x0E, 0x0B, 0xA5, 0x0A,
  0x0A, 0xB7, 0x0C, 0x4F, 0x5D, 0x52, 0x81, 0x27, 0x35, 0x46,
  0xAF, 0x1D, 0xC4, 0xD1, 0x4C, 0x56, 0x13, 0xFB, 0x0B, 0x03,
  0xCC, 0x9A, 0x21, 0x19, 0x1A, 0x04, 0xCF, 0x55, 0x47, 0x22,
  0x48, 0xDF, 0xF8, 0x1B, 0x06, 0x23, 0x43, 0x02, 0x25, 0x2B,
  0x37, 0xBE, 0xE6, 0x70, 0x07, 0xE0, 0x16, 0x56, 0x4C, 0x09,
  0x15, 0x7F, 0xCB, 0xD6, 0x0C, 0x21, 0xEE, 0x55, 0xBE, 0x3C,
  0xC7, 0x1A, 0xAE, 0xF3, 0x41, 0x9E, 0x0B, 0x47, 0x22, 0x53,
  0x56, 0xC6, 0x6F, 0x25, 0x7F, 0x44, 0xC6, 0x5D, 0xAB, 0x5A,
  0x4E, 0xAF, 0x03, 0x51, 0x58, 0xB6, 0x08, 0x2A, 0x50, 0x49,
  0x30, 0x29, 0xE5, 0x02, 0xA8, 0x3D, 0x10, 0xD5, 0x21, 0x17,
  0x2D, 0x63, 0x09, 0x11, 0x09, 0x41, 0x5B, 0x73, 0x45, 0x07,
  0xD4, 0x7F, 0x26, 0x5C, 0xFD, 0xB3, 0x7F, 0x6D, 0x83, 0x13,
  0x06, 0xD2, 0x0C, 0x46, 0x1E, 0x39, 0x1D, 0xDE, 0xEA, 0x0C,
  0x15, 0xBC, 0x64, 0xD1, 0x92, 0x05, 0x47, 0x4A, 0x55, 0x67,
  0x01, 0xFB, 0x20, 0x03, 0xFA, 0xCC, 0x22, 0xEF, 0x28, 0xD9,
  0x54, 0x02, 0x14, 0xCE, 0xAD, 0x2B, 0xE2, 0xFA, 0x4E, 0xDE,
  0x18, 0xD6, 0x11, 0x0F, 0xF2, 0x32, 0x2B, 0x05, 0x44, 0x8E,
  0x69, 0x52, 0x53, 0x57, 0xD9, 0x24, 0x13, 0x1C, 0x17, 0x01,
  0xD7, 0x2B, 0xFE, 0x19, 0xF7, 0x58, 0xDB, 0x70, 0xF9, 0xED,
  0xE6, 0x4D, 0x72, 0xAA, 0xFE, 0x04, 0x53, 0x3E, 0x52, 0xF6,
  0x6F, 0x7F, 0xD0, 0x7F, 0x9D, 0x4C, 0x93, 0x63, 0x43, 0xDF,
  0x0F, 0xED, 0x65, 0xE7, 0xD5, 0x09, 0x60, 0x67, 0x51, 0x59,
  0xEA, 0x1A, 0xC9, 0x2E, 0x0F, 0x6F, 0x36, 0x70, 0x0D, 0x01,
  0x0D, 0xF6, 0x20, 0x17, 0xFF, 0x65, 0xE3, 0x2B, 0xA9, 0x4A,
  0x10, 0xB0, 0x2A, 0x53, 0x31, 0x07, 0xC3, 0x11, 0x2A, 0xFA,
  0x5B, 0x45, 0xC7, 0xFA, 0x3D, 0x1B, 0xD7, 0x7C, 0xF9, 0xFD,
  0x37, 0x10, 0xAB, 0xF5, 0x4D, 0x2A, 0x6E, 0x46, 0x10, 0x00,
  0x68, 0x48, 0x15, 0xE5, 0x14, 0x03, 0x31, 0xA4, 0x4A, 0xC8,
  0x3F, 0x88, 0x15, 0x5D, 0x39, 0x40, 0x2F, 0x12, 0x0D, 0xD3,
  0x38, 0x37, 0x0B, 0xC4, 0x26, 0x11, 0x43, 0xC4, 0x6A, 0x49,
  0x28, 0xCD, 0x1D, 0xF9, 0x3C, 0xFB, 0x45, 0x13, 0x2A, 0x06,
  0x07, 0xCF, 0xFB, 0xD3, 0x68, 0x12, 0xCC, 0xF2, 0x12, 0x5C,
  0x3A, 0x15, 0x47, 0xD6, 0x2B, 0x15, 0xD7, 0xF0, 0x1E, 0xEC,
  0x0C, 0x51, 0x16, 0x1F, 0xDB, 0x1C, 0xEF, 0xFC, 0x3A, 0xC0,
  0x2B, 0xF1, 0xCB, 0xE5, 0x5F, 0x13, 0x2F, 0x39, 0xEB, 0x4E,
  0x8E, 0xFC, 0xCE, 0xC7, 0x3A, 0x2F, 0x17, 0xA6, 0xD5, 0x08,
  0x48, 0x3D, 0x37, 0x4A, 0xE3, 0x60, 0xED, 0x10, 0x03, 0x49,
  0x51, 0xF9, 0x45, 0x4E, 0xDF, 0xC9, 0x50, 0x3D, 0x20, 0x37,
  0xDD, 0xFC, 0x36, 0x44, 0x2C, 0xBB, 0x35, 0x32, 0x39, 0x35,
  0xE6, 0x2C, 0x36, 0x2F, 0xF8, 0x23, 0x7A, 0x13, 0x45, 0x31,
  0x3E, 0x0E, 0x01, 0xEE, 0x03, 0xF7, 0x0D, 0xC3, 0x30, 0xF8,
  0x5C, 0x39, 0x44, 0xFC, 0x5A, 0x11, 0x2F, 0x4D, 0xF9, 0x11,
  0x0F, 0x81, 0x44, 0x16, 0x17, 0x0F, 0xE4, 0x2D, 0x14, 0x11,
  0x4E, 0x5B, 0x3E, 0x02, 0x1D, 0x1E, 0x00, 0xFA, 0xF3, 0x14,
  0x1B, 0x04, 0x3A, 0x3B, 0xB4, 0x14, 0xC0, 0x28, 0x55, 0xB8,
  0xF9, 0x51, 0x28, 0x1F, 0x23, 0xD1, 0x27, 0xCA, 0xA8, 0x2A,
  0x60, 0xDD, 0x8F, 0x31, 0xF1, 0x10, 0xF2, 0x56, 0x2B, 0x1A,
  0x20, 0x28, 0x57, 0x29, 0x34, 0x17, 0x23, 0x33, 0xAE, 0x43,
  0x04, 0x21, 0x13, 0x7B, 0x01, 0x51, 0xC9, 0xF8, 0x2F, 0xDB,
  0x5F, 0x37, 0xE8, 0x21, 0xB3, 0x16, 0xD9, 0x3B, 0x3E, 0xFD,
  0x26, 0xE5, 0xAE, 0xE5, 0x5A, 0xF0, 0xAD, 0x33, 0xEC, 0x26,
  0x32, 0x1D, 0x3A, 0x7C, 0x22, 0x23, 0x45, 0x3B, 0xC8, 0x0A,
  0x34, 0x34, 0xC2, 0x47, 0xEA, 0xC0, 0x6E, 0x28, 0xFB, 0x50,
  0x3B, 0xDD, 0x14, 0x1F, 0x3B, 0xE3, 0x0F, 0x0E, 0xA8, 0x59,
  0x5A, 0xE7, 0x36, 0x1A, 0x7F, 0x0F, 0x2A, 0x11, 0x20, 0x91,
  0x2D, 0xE0, 0xE3, 0xDF, 0x16, 0x47, 0x4E, 0x24, 0xE7, 0x32,
  0x08, 0xA5, 0xF8, 0xEC, 0x1F, 0xBF, 0x07, 0x16, 0x17, 0x9D,
  0xE3, 0x3C, 0xFF, 0xE1, 0x0F, 0x49, 0x11, 0x24, 0xFC, 0xCE,
  0x38, 0x35, 0xD2, 0x07, 0x28, 0x9E, 0xAA, 0x42, 0xE6, 0xE3,
  0x0C, 0xD8, 0x12, 0x0A, 0x1A, 0xB7, 0x3B, 0x6B, 0xDD, 0x27,
  0x73, 0x9D, 0xF2, 0x2F, 0x54, 0xD1, 0xBF, 0x0C, 0xD8, 0x63,
  0xFB, 0xBF, 0x46, 0xF0, 0x2A, 0x06, 0x53, 0xFF, 0x61, 0x2B,
  0xDE, 0x33, 0xF4, 0x4C, 0xF3, 0x32, 0x27, 0xDC, 0x65, 0x49,
  0xF7, 0xEB, 0x4B, 0xB8, 0x88, 0x2A, 0xD0, 0x1E, 0x0F, 0x2F,
  0x59, 0x68, 0x1F, 0x01, 0x09, 0xBF, 0x91, 0xE9, 0x0E, 0xD8,
  0x0D, 0x31, 0xC2, 0xF4, 0xFF, 0xFF, 0x04, 0x00, 0x00, 0x00,
  0x40, 0x00, 0x00, 0x00, 0xE1, 0x04, 0x00, 0x00, 0x0F, 0xFB,
  0xFF, 0xFF, 0x26, 0x0E, 0x00, 0x00, 0xC7, 0xFC, 0xFF, 0xFF,
  0x96, 0xFE, 0xFF, 0xFF, 0x16, 0xF3, 0xFF, 0xFF, 0x9F, 0xFB,
  0xFF, 0xFF, 0x3A, 0xF9, 0xFF, 0xFF, 0x07, 0xFD, 0xFF, 0xFF,
  0x83, 0xFC, 0xFF, 0xFF, 0xFA, 0x04, 0x00, 0x00, 0x57, 0xFC,
  0xFF, 0xFF, 0xED, 0xFF, 0xFF, 0xFF, 0xC3, 0x01, 0x00, 0x00,
  0x29, 0xFE, 0xFF, 0xFF, 0xF1, 0xFB, 0xFF, 0xFF, 0x0E, 0xF5,
  0xFF, 0xFF, 0x04, 0x00, 0x00, 0x00, 0x00, 0x08, 0x00, 0x00,
  0xF7, 0x1C, 0x1D, 0xDB, 0x15, 0x13, 0xB4, 0xF3, 0xDA, 0xD7,
  0x29, 0xD3, 0xE8, 0x07, 0xDF, 0x1A, 0xE6, 0x03, 0x16, 0xED,
  0xF2, 0x07, 0xD1, 0xEE, 0x18, 0x0C, 0x28, 0xF8, 0xEC, 0xE3,
  0xEF, 0xFB, 0xDD, 0xFF, 0x41, 0xDC, 0xEB, 0xF5, 0xC1, 0xF6,
  0x0A, 0x03, 0x0B, 0xD1, 0x1D, 0xDD, 0xD8, 0xF9, 0xFC, 0xCF,
  0x28, 0xC2, 0xDE, 0xEE, 0xB2, 0xFB, 0xCD, 0xD6, 0x0D, 0xCB,
  0x0E, 0x0F, 0xDA, 0xF4, 0xE3, 0xC9, 0x32, 0xBD, 0xC4, 0x10,
  0xEB, 0x07, 0xF0, 0xF0, 0x3A, 0xDF, 0x04, 0x14, 0xDA, 0x36,
  0x32, 0xF7, 0x0B, 0xBA, 0xF2, 0x1C, 0x1B, 0x14, 0xD1, 0x18,
  0x44, 0x01, 0x2E, 0xF8, 0xEB, 0xF4, 0x30, 0xEC, 0x07, 0xF7,
  0x0B, 0xEA, 0xDC, 0xEF, 0x0B, 0xDC, 0x4C, 0xDF, 0xEA, 0x21,
  0x16, 0x06, 0xEB, 0xEE, 0x0D, 0xFF, 0x00, 0xF7, 0xE2, 0x1E,
  0xFF, 0xDC, 0x03, 0x05, 0x40, 0xF3, 0x12, 0x0A, 0xF0, 0x2F,
  0x10, 0x0C, 0x0C, 0x21, 0xE1, 0xF3, 0xE9, 0xFF, 0x33, 0xF4,
  0xE1, 0x03, 0xEF, 0xFA, 0x0F, 0x4D, 0xE6, 0xFA, 0xF5, 0x0F,
  0x19, 0xEE, 0xED, 0xF4, 0x16, 0xE4, 0x0B, 0xFE, 0x11, 0x0B,
  0xF0, 0xFD, 0x1E, 0x17, 0x14, 0x08, 0x28, 0x00, 0xF8, 0x0D,
  0xC3, 0x05, 0x10, 0xEA, 0x1B, 0x07, 0xF1, 0xEF, 0xFD, 0xC5,
  0xE7, 0xFD, 0xE3, 0x13, 0xE2, 0x1A, 0x08, 0x1A, 0x2E, 0xF7,
  0x10, 0x1C, 0xEC, 0xC5, 0x44, 0xE0, 0xF8, 0xF2, 0x13, 0xD5,
  0xC3, 0x07, 0x0B, 0x0E, 0x0A, 0x02, 0x1A, 0x07, 0x01, 0x0D,
  0x0D, 0xF5, 0x01, 0xDD, 0xF8, 0xDC, 0xD6, 0x02, 0x20, 0xEC,
  0xF4, 0x1C, 0x12, 0xFE, 0x10, 0x15, 0xD4, 0xE5, 0xD9, 0xF3,
  0x1C, 0xE9, 0xF7, 0xE0, 0xEE, 0xE4, 0xF4, 0xE7, 0xF6, 0x06,
  0x28, 0x18, 0xF7, 0xFB, 0x12, 0xEA, 0x13, 0x29, 0x27, 0x17,
  0x09, 0x00, 0x03, 0xDA, 0x0B, 0xFE, 0x0E, 0x2F, 0xE2, 0x0A,
  0x1E, 0xFC, 0x25, 0xEE, 0xF0, 0x1B, 0xE9, 0x05, 0xFF, 0x1E,
  0xF4, 0x0E, 0x24, 0x11, 0xF1, 0x37, 0xF9, 0xF7, 0xEA, 0x19,
  0xFA, 0xFD, 0x1E, 0x10, 0x11, 0xDC, 0x1E, 0x46, 0xEF, 0x17,
  0xE2, 0xD4, 0xEF, 0x00, 0x19, 0x37, 0x0D, 0xFD, 0xF9, 0x1A,
  0x07, 0xEF, 0x14, 0x28, 0xE6, 0xBC, 0x06, 0xC9, 0xB9, 0xEE,
  0xF3, 0x21, 0xF5, 0xDB, 0xA9, 0xF2, 0xD9, 0x1F, 0xF4, 0xFE,
  0xFA, 0x00, 0xBF, 0xDD, 0x0C, 0x0E, 0xDC, 0x0B, 0xFB, 0xF6,
  0xDD, 0xD5, 0xDB, 0x0B, 0xFE, 0x0F, 0xE9, 0x28, 0x9D, 0xBB,
  0xC5, 0x1E, 0x1B, 0x25, 0xC5, 0xDE, 0xDC, 0x02, 0xD6, 0xF8,
  0xEC, 0x30, 0x13, 0xE7, 0x1E, 0x11, 0xFB, 0x20, 0xD5, 0xD3,
  0xF9, 0x13, 0x0A, 0xCA, 0xBE, 0x25, 0xF4, 0xFD, 0x1A, 0x1C,
  0x0A, 0x13, 0xED, 0x01, 0xF8, 0xEB, 0x1C, 0xDB, 0x28, 0xE0,
  0x17, 0xE6, 0x18, 0x25, 0x26, 0x3D, 0xA3, 0x06, 0xEB, 0xF1,
  0x0B, 0xE5, 0x0B, 0x15, 0x81, 0xEB, 0x1A, 0x2C, 0x1A, 0x43,
  0xB9, 0xDB, 0xD3, 0xD7, 0xD6, 0x1E, 0x1E, 0x1E, 0xDB, 0xF0,
  0xCD, 0xEB, 0xF0, 0x20, 0xEE, 0x1B, 0xDC, 0xC7, 0x00, 0xDD,
  0x04, 0x13, 0x12, 0x0B, 0xEF, 0xED, 0xE0, 0xEC, 0xF1, 0xF7,
  0x06, 0x2C, 0x04, 0x0B, 0xB8, 0xD4, 0xAA, 0x05, 0x27, 0xFE,
  0xA7, 0xDB, 0xF6, 0xFC, 0xF0, 0xF1, 0xF1, 0x29, 0x2B, 0x0C,
  0xB9, 0xDA, 0xD0, 0x16, 0x2E, 0x30, 0xB7, 0x0A, 0xC6, 0x0D,
  0xC6, 0x0A, 0x0B, 0x3E, 0xE6, 0x09, 0xD3, 0xEF, 0xE8, 0x05,
  0x0B, 0x11, 0x02, 0xF8, 0xFE, 0xE6, 0xBC, 0x1F, 0x0A, 0x30,
  0xB4, 0xFA, 0xD8, 0xD6, 0xE6, 0xF6, 0x1A, 0x1D, 0xD5, 0xE3,
  0x04, 0xDF, 0x0D, 0x07, 0xE3, 0x02, 0x29, 0xF1, 0x1E, 0xED,
  0x09, 0xE8, 0x37, 0xEF, 0x11, 0x1A, 0x05, 0x10, 0x0D, 0x19,
  0x00, 0x38, 0x0C, 0x16, 0x22, 0xDB, 0xE8, 0x21, 0x51, 0x2A,
  0x23, 0x13, 0xB1, 0xFB, 0x13, 0x01, 0xEE, 0x70, 0x16, 0x03,
  0xF1, 0xED, 0xCA, 0xF0, 0x42, 0xD2, 0xFE, 0x1D, 0xD3, 0x27,
  0xD7, 0x22, 0xE7, 0x39, 0xC8, 0x3D, 0xA3, 0x19, 0xCC, 0x12,
  0x43, 0x0F, 0xC0, 0x1F, 0x9F, 0x2A, 0xDB, 0x23, 0x2C, 0x19,
  0xE4, 0x01, 0xE2, 0xE8, 0xEA, 0x1B, 0x38, 0x3B, 0xFA, 0xED,
  0xE7, 0xFC, 0xD3, 0xED, 0x10, 0x5D, 0x07, 0xF0, 0xDB, 0xD8,
  0xAF, 0xF6, 0x33, 0xE7, 0xC8, 0x09, 0xB6, 0xF7, 0xA4, 0x03,
  0xDD, 0x3E, 0xFD, 0x07, 0xE3, 0xCC, 0xA5, 0xD7, 0x3F, 0x30,
  0xF2, 0x06, 0xB5, 0x07, 0xAC, 0xFC, 0x13, 0x28, 0x00, 0x0B,
  0xD8, 0xE4, 0xCB, 0x0F, 0x68, 0x2A, 0xF7, 0xEE, 0xBC, 0x24,
  0x0C, 0x0E, 0x17, 0x1F, 0xF5, 0xFF, 0xFB, 0x28, 0x10, 0x03,
  0x66, 0x26, 0x38, 0xEB, 0xE3, 0x4F, 0x09, 0xEC, 0x1C, 0x48,
  0x16, 0x20, 0x1A, 0x09, 0x1E, 0xEF, 0x28, 0x24, 0x15, 0xF8,
  0xB6, 0x22, 0x5C, 0xE3, 0xEF, 0x69, 0x02, 0x04, 0xFD, 0xD0,
  0xD9, 0xF4, 0x40, 0x14, 0xBD, 0x0A, 0xD6, 0x1B, 0xAF, 0x03,
  0x1C, 0x44, 0x1B, 0x27, 0xA8, 0x1A, 0xFA, 0xFA, 0x22, 0x1D,
  0xE2, 0x07, 0x92, 0xF1, 0xD4, 0xF0, 0x13, 0x3D, 0xE5, 0x00,
  0x10, 0xEC, 0xF3, 0xE7, 0x2C, 0x44, 0xD5, 0x04, 0xD9, 0x0A,
  0xCC, 0x05, 0x20, 0x3E, 0xE4, 0xF8, 0xE3, 0x0A, 0x9C, 0xE8,
  0x4B, 0xF9, 0xEB, 0xE1, 0xE4, 0x0F, 0xB2, 0xFA, 0x15, 0x46,
  0xEA, 0xEF, 0xFD, 0x0A, 0xEB, 0xF4, 0xFD, 0x29, 0xF0, 0xFA,
  0xEB, 0x0C, 0xD9, 0xE7, 0xF1, 0x4D, 0x28, 0x1E, 0xDB, 0xDE,
  0xD1, 0xFB, 0x1C, 0xFB, 0x0E, 0x16, 0xEE, 0xED, 0xC4, 0xF5,
  0x20, 0x4F, 0xFA, 0xFF, 0xFE, 0x28, 0x12, 0xE9, 0x42, 0xFC,
  0x31, 0xF5, 0xF4, 0x25, 0xF8, 0xE1, 0xDC, 0x5B, 0x2B, 0xED,
  0x46, 0x14, 0xED, 0xCD, 0x1D, 0xFA, 0x10, 0xD8, 0x2D, 0x28,
  0x42, 0xEC, 0x13, 0x35, 0x06, 0xD9, 0x04, 0x0F, 0xD0, 0xF2,
  0x33, 0xF9, 0xE3, 0x0F, 0xBD, 0x18, 0x1F, 0xF7, 0x15, 0xE6,
  0x0D, 0x0C, 0xE5, 0x07, 0xFF, 0xE7, 0x18, 0x04, 0xCC, 0xF1,
  0xF3, 0x0D, 0xE4, 0xFE, 0x01, 0xE2, 0x11, 0x2D, 0x11, 0x06,
  0xE0, 0xF2, 0x39, 0x00, 0xFB, 0xEF, 0x01, 0x03, 0xFA, 0xDC,
  0xE9, 0x0E, 0xEC, 0xE8, 0xFE, 0x09, 0xDD, 0x1D, 0x39, 0x03,
  0xE2, 0xF6, 0x11, 0x0C, 0xBE, 0xFD, 0xF1, 0x16, 0x21, 0x03,
  0xE9, 0x2B, 0xF0, 0xF2, 0x03, 0xFF, 0xEF, 0x1C, 0xE8, 0x02,
  0x2B, 0xEC, 0x08, 0x3A, 0xF2, 0xB5, 0x00, 0xF4, 0xEB, 0xD7,
  0x0D, 0xEE, 0xE4, 0xEA, 0xF6, 0x00, 0x02, 0xE7, 0xF1, 0x31,
  0x05, 0x06, 0xDB, 0xFE, 0xFF, 0xEE, 0x10, 0xEA, 0x17, 0xFC,
  0x16, 0xEF, 0xF8, 0xEE, 0x13, 0x4F, 0x2A, 0xF8, 0x31, 0xFC,
  0x14, 0x09, 0xC3, 0xF6, 0x02, 0xF5, 0xE3, 0xF0, 0x23, 0xCD,
  0xE8, 0xDA, 0x30, 0xF9, 0xF8, 0x1E, 0xCC, 0xFC, 0xC2, 0xB8,
  0x0D, 0x0F, 0xEE, 0x14, 0x1F, 0xF3, 0x03, 0xEF, 0xE4, 0xC8,
  0x37, 0x28, 0xD9, 0xFB, 0xFC, 0x99, 0x07, 0xE9, 0x1C, 0xE1,
  0xEF, 0x06, 0xE4, 0xC4, 0xC7, 0xFD, 0xE0, 0x07, 0xFC, 0x0D,
  0x20, 0xCA, 0x17, 0x04, 0xDB, 0xDD, 0xF8, 0xF7, 0x1A, 0xF6,
  0xF5, 0x09, 0xE6, 0x0F, 0xD6, 0xFC, 0xE8, 0xCC, 0x22, 0x09,
  0x33, 0x23, 0x10, 0xEA, 0x02, 0x0E, 0xE6, 0x1D, 0x1F, 0x4B,
  0x37, 0xEC, 0x13, 0xF2, 0x36, 0xE9, 0x05, 0x03, 0x2A, 0x09,
  0x08, 0xE5, 0xFB, 0x0E, 0xC2, 0xF9, 0x1F, 0x0C, 0x08, 0xDE,
  0xF7, 0x15, 0xE2, 0x0F, 0x28, 0x27, 0x1A, 0x20, 0xEC, 0xDD,
  0x0B, 0x01, 0xE7, 0x02, 0xDD, 0xF8, 0x00, 0xF5, 0xFE, 0xFA,
  0xD0, 0x1A, 0xF4, 0xF5, 0xF9, 0x12, 0xE1, 0x1E, 0x0C, 0x02,
  0x1B, 0xEF, 0x1F, 0x20, 0xF6, 0x52, 0x31, 0x06, 0xF2, 0xF7,
  0xE2, 0xEE, 0x12, 0xEC, 0x32, 0x0D, 0x38, 0x26, 0x0B, 0xFC,
  0xD6, 0x0F, 0xDE, 0x13, 0x24, 0x1F, 0x18, 0x16, 0xD2, 0x27,
  0x27, 0xF9, 0x34, 0x17, 0x1F, 0x0A, 0xD7, 0x30, 0xC2, 0xF4,
  0x18, 0xE6, 0xE1, 0x04, 0x0C, 0x30, 0x3E, 0xFC, 0x3F, 0x23,
  0x2E, 0x1E, 0x0B, 0x2E, 0x09, 0xFB, 0x13, 0xEE, 0xE8, 0x1E,
  0xD9, 0x4F, 0x25, 0x24, 0x19, 0x11, 0x26, 0x0E, 0xBD, 0x26,
  0xD5, 0xED, 0x1E, 0xDE, 0xD9, 0xED, 0xBD, 0x31, 0x30, 0x10,
  0xF9, 0xE9, 0x23, 0xFE, 0xB9, 0x08, 0x08, 0xEC, 0x19, 0x18,
  0x01, 0xDF, 0xC8, 0x39, 0x1F, 0x14, 0x06, 0x15, 0x0F, 0xF5,
  0xCA, 0x2A, 0xE7, 0xE1, 0x06, 0x23, 0x01, 0x10, 0xE6, 0x12,
  0xD3, 0xFD, 0xFD, 0x20, 0xE5, 0xF7, 0xFA, 0x17, 0xC9, 0x2E,
  0x16, 0xEF, 0x0E, 0x11, 0xFA, 0xF0, 0xE4, 0x0F, 0x14, 0x14,
  0x18, 0xE7, 0xE3, 0x08, 0xFB, 0xF1, 0x16, 0x27, 0x10, 0xC7,
  0x1C, 0xF3, 0x24, 0xDE, 0xC2, 0x0C, 0xF2, 0xE8, 0x04, 0xF6,
  0xDC, 0xF2, 0x06, 0xD2, 0x0C, 0x0E, 0xFC, 0xF9, 0xF1, 0xEC,
  0xE8, 0xE6, 0x25, 0x23, 0x13, 0x10, 0xD0, 0x09, 0x18, 0xD1,
  0x18, 0x37, 0x00, 0x13, 0xF9, 0x03, 0xF2, 0x08, 0x32, 0x17,
  0xD8, 0xE5, 0xD1, 0xF3, 0xF7, 0xBB, 0xD7, 0x29, 0xC9, 0x33,
  0x3C, 0xE8, 0x03, 0x54, 0x26, 0x1C, 0xFA, 0x25, 0x1F, 0x1A,
  0x07, 0xE3, 0x09, 0xEF, 0xF4, 0x1F, 0x1E, 0xFD, 0xD8, 0x02,
  0xF8, 0x11, 0xC9, 0x21, 0xF8, 0x09, 0x05, 0xDA, 0x1A, 0x1D,
  0x00, 0x23, 0x20, 0xE9, 0xD3, 0x1A, 0x30, 0xF6, 0x14, 0xE1,
  0xEF, 0x04, 0x1C, 0x1B, 0x0C, 0xE3, 0x06, 0xDE, 0x02, 0x0B,
  0xEF, 0xF3, 0x11, 0x25, 0x0C, 0xDE, 0xCF, 0x2F, 0x0A, 0xFC,
  0xFB, 0xC0, 0x19, 0x20, 0x17, 0xD7, 0xE7, 0xFA, 0x22, 0x01,
  0x17, 0x04, 0xDA, 0xCD, 0x08, 0xEF, 0x05, 0xEF, 0xFB, 0xDB,
  0xF9, 0x19, 0x02, 0x13, 0x05, 0xE8, 0xF9, 0xEB, 0x12, 0x2C,
  0x16, 0xCE, 0x0D, 0x11, 0xEF, 0x21, 0x15, 0x0C, 0xE4, 0xD1,
  0x09, 0x04, 0xF3, 0xE2, 0x06, 0x0B, 0xF0, 0x09, 0x05, 0x4A,
  0x05, 0x4E, 0x19, 0xDA, 0xEF, 0x07, 0x29, 0x25, 0x42, 0xF2,
  0x07, 0x16, 0xFF, 0xE0, 0x2F, 0x04, 0x4F, 0x1A, 0x07, 0x13,
  0x17, 0xF6, 0x15, 0x18, 0x51, 0x09, 0x36, 0xE7, 0xFF, 0xF8,
  0x1E, 0xFB, 0x39, 0x38, 0x1E, 0x02, 0xE7, 0xE2, 0x33, 0x17,
  0x38, 0x2F, 0x39, 0x05, 0x02, 0xB4, 0xEF, 0x24, 0xFA, 0xFB,
  0xF5, 0xDC, 0x26, 0x00, 0x27, 0x15, 0x12, 0x44, 0x22, 0x02,
  0x04, 0x15, 0x13, 0xFC, 0xF6, 0x0F, 0xEA, 0x0C, 0xF1, 0x23,
  0x13, 0xF9, 0x16, 0xE8, 0x22, 0x02, 0x1D, 0x07, 0xF2, 0xFA,
  0x61, 0xFF, 0x01, 0x02, 0xD5, 0x18, 0xF5, 0xDD, 0x5E, 0xFE,
  0xF0, 0x09, 0xEC, 0xE0, 0x1A, 0xFC, 0x1C, 0xF1, 0xF2, 0xF2,
  0xE0, 0xEB, 0x26, 0x09, 0x19, 0xEA, 0x20, 0xDB, 0x12, 0xDF,
  0xF7, 0x1A, 0x19, 0x2B, 0xED, 0x1B, 0x01, 0xF9, 0x29, 0xFD,
  0xEF, 0x22, 0x11, 0x18, 0xE4, 0xD9, 0xDA, 0x13, 0x64, 0x2D,
  0x31, 0x18, 0xC8, 0xE3, 0x55, 0xF1, 0xE7, 0x27, 0x26, 0x27,
  0xF4, 0xBD, 0xE0, 0x16, 0x15, 0x32, 0x10, 0x12, 0xC8, 0xCF,
  0x42, 0xE4, 0x1B, 0xE7, 0x22, 0x0B, 0xFB, 0xB4, 0x25, 0xD7,
  0x48, 0xF9, 0x4B, 0xE1, 0xCD, 0xF0, 0x16, 0x18, 0x2A, 0x0A,
  0x42, 0xD3, 0x19, 0xFB, 0x27, 0x31, 0x2D, 0x0B, 0xFC, 0xE2,
  0x0F, 0xEE, 0x03, 0xE4, 0x1E, 0x25, 0xFB, 0x0B, 0x00, 0xF1,
  0xFA, 0x14, 0xE8, 0xFA, 0x19, 0xDB, 0xE8, 0x06, 0xDD, 0x0B,
  0x25, 0xFF, 0x14, 0xE9, 0x22, 0xE0, 0x04, 0xDF, 0xDE, 0x00,
  0xDF, 0xEF, 0xAF, 0xE5, 0xDF, 0xE3, 0x4E, 0xCF, 0xF0, 0xFD,
  0xFA, 0xAC, 0xF7, 0x0C, 0x3E, 0xE7, 0x4E, 0xDC, 0xD2, 0x2A,
  0x19, 0x11, 0x19, 0xEF, 0x31, 0x00, 0xF2, 0xD7, 0x3B, 0xE2,
  0x7D, 0x02, 0x19, 0xDF, 0xB7, 0xFF, 0x3F, 0x15, 0x3E, 0x04,
  0x19, 0xFA, 0x10, 0xCA, 0xF7, 0x18, 0x13, 0x06, 0x06, 0xEC,
  0xAD, 0xF1, 0x20, 0xE9, 0x2E, 0x00, 0x45, 0x16, 0xE8, 0xA9,
  0xD4, 0x2A, 0x09, 0x23, 0x1B, 0xED, 0xDD, 0x19, 0x22, 0x08,
  0x37, 0xFA, 0x5C, 0xFB, 0x11, 0xB8, 0xFC, 0xF0, 0x01, 0x09,
  0x32, 0x00, 0xCB, 0xE0, 0x0B, 0x22, 0x62, 0xDA, 0x3C, 0x1F,
  0xEB, 0x0D, 0x14, 0xDA, 0x10, 0xF0, 0x2A, 0x15, 0xBC, 0xC9,
  0x16, 0x0D, 0x3A, 0xBD, 0x15, 0xD9, 0x1B, 0xB5, 0xF6, 0xF4,
  0x03, 0xFC, 0xFA, 0x1A, 0x9A, 0xC3, 0xE5, 0xEB, 0xF3, 0xBA,
  0xCC, 0xFA, 0xF2, 0xB4, 0xE4, 0x1B, 0xE9, 0x03, 0x0B, 0xE5,
  0xC7, 0xF4, 0xF1, 0x16, 0x40, 0xE1, 0xC7, 0xEE, 0xFE, 0x8E,
  0x09, 0x22, 0xF5, 0x00, 0xFC, 0x1B, 0xD2, 0xF7, 0x3D, 0xFD,
  0x23, 0xDE, 0x47, 0x09, 0xEA, 0xB3, 0xF2, 0xD9, 0x4B, 0xE4,
  0x15, 0x11, 0xDD, 0xE8, 0x1B, 0xEA, 0x31, 0xEA, 0x3F, 0xF4,
  0xEC, 0xBB, 0x0A, 0xE0, 0x0E, 0x17, 0x0E, 0x08, 0xB5, 0xAE,
  0x3F, 0x1F, 0x44, 0xF5, 0x34, 0x1A, 0x16, 0xCB, 0x1C, 0x0D,
  0x29, 0x13, 0x5F, 0xF1, 0xB8, 0xE8, 0x4D, 0x18, 0x0D, 0x02,
  0x64, 0xE5, 0x0A, 0xE6, 0x23, 0x1C, 0x0F, 0xEA, 0x2E, 0xEA,
  0xD0, 0xD8, 0x30, 0x03, 0x21, 0xF4, 0xF5, 0xFD, 0xEF, 0xDE,
  0xE3, 0xF6, 0x1A, 0x03, 0x3D, 0xF6, 0xF6, 0xF6, 0x10, 0xEC,
  0x34, 0xE6, 0x12, 0xFE, 0xF6, 0xAE, 0xE8, 0x03, 0xEE, 0xDA,
  0xE4, 0xDB, 0xE9, 0x04, 0xD2, 0xE9, 0xEA, 0xDA, 0x07, 0x18,
  0x17, 0xCB, 0xE4, 0x08, 0xE4, 0x09, 0x12, 0x10, 0xDD, 0x1C,
  0xEC, 0xFF, 0x04, 0xFA, 0xBD, 0x08, 0x0E, 0xE9, 0x1E, 0x2C,
  0xE7, 0x17, 0xFA, 0x0D, 0xE1, 0x29, 0x05, 0xF0, 0x33, 0x05,
  0x16, 0xF8, 0x0F, 0xF6, 0x03, 0xED, 0x46, 0x22, 0x16, 0x01,
  0x06, 0x01, 0x13, 0x09, 0x33, 0xEF, 0x34, 0x0C, 0x09, 0xEF,
  0x06, 0x00, 0xD5, 0xF0, 0x2B, 0x06, 0xC3, 0x25, 0x0A, 0xE7,
  0x2D, 0x03, 0x22, 0xED, 0x18, 0xC5, 0xF3, 0xF1, 0x01, 0xE2,
  0x27, 0xF5, 0xE6, 0xD6, 0x22, 0xFF, 0xED, 0xE6, 0x14, 0x13,
  0xE3, 0xE7, 0x07, 0x10, 0x3B, 0xC6, 0x05, 0xEC, 0xEC, 0xDF,
  0x1C, 0xFA, 0x1C, 0x08, 0xE4, 0xF8, 0xF5, 0xC7, 0x0E, 0x5E,
  0xFB, 0xE9, 0x3C, 0x10, 0x10, 0x0E, 0xE7, 0xF6, 0xF8, 0xDD,
  0xED, 0x01, 0x0F, 0xFB, 0x0C, 0xEA, 0x04, 0x1C, 0x1A, 0xFE,
  0x0A, 0xFF, 0xFF, 0x04, 0x1F, 0x01, 0xEC, 0x0D, 0xF4, 0xD3,
  0xC8, 0xFF, 0xB3, 0x01, 0x10, 0x10, 0x2D, 0x11, 0xF2, 0x1E,
  0x09, 0x1A, 0xCA, 0x2F, 0x03, 0x33, 0xF8, 0xF5, 0x06, 0xE7,
  0x2F, 0x03, 0x41, 0x1B, 0xF0, 0xF3, 0x2B, 0x0D, 0xFA, 0xF8,
  0x1A, 0x48, 0xF0, 0x1B, 0xCC, 0xDA, 0xFE, 0xEE, 0x0D, 0x6C,
  0x0D, 0xE8, 0x1E, 0x1D, 0x12, 0xE7, 0xF9, 0x31, 0x10, 0x19,
  0x23, 0xE0, 0x21, 0x00, 0x16, 0x35, 0xF9, 0xE5, 0x13, 0x03,
  0xE6, 0xFF, 0x18, 0x42, 0x26, 0x21, 0xF2, 0xF6, 0xF0, 0x09,
  0xE4, 0x37, 0x0F, 0xE2, 0xF0, 0xFC, 0xEB, 0xF3, 0xEC, 0x0F,
  0x0A, 0xD8, 0x09, 0xC9, 0xC5, 0x26, 0x07, 0xEB, 0xDA, 0x10,
  0xDD, 0xD9, 0x00, 0x12, 0x04, 0xF4, 0x3C, 0x16, 0x3C, 0x08,
  0xD4, 0xF7, 0x18, 0x11, 0xD6, 0x1C, 0x34, 0xFE, 0x07, 0x18,
  0x09, 0xD8, 0xE0, 0x08, 0xE9, 0x29, 0x33, 0xE6, 0x05, 0xF3,
  0x01, 0xF0, 0x16, 0x07, 0x37, 0xE8, 0x02, 0xF0, 0x1A, 0xFD,
  0xFF, 0xFF, 0x04, 0x00, 0x00, 0x00, 0x08, 0x00, 0x00, 0x00,
  0x09, 0xFF, 0xFF, 0xFF, 0xF7, 0x00, 0x00, 0x00, 0x2E, 0xFD,
  0xFF, 0xFF, 0x04, 0x00, 0x00, 0x00, 0x08, 0x00, 0x00, 0x00,
  0xFF, 0xFF, 0xFF, 0xFF, 0x00, 0x04, 0x00, 0x00, 0x54, 0xEE,
  0xFF, 0xFF, 0x46, 0xFD, 0xFF, 0xFF, 0x04, 0x00, 0x00, 0x00,
  0x04, 0x00, 0x00, 0x00, 0x60, 0x00, 0x00, 0x00, 0x56, 0xFD,
  0xFF, 0xFF, 0x04, 0x00, 0x00, 0x00, 0x04, 0x00, 0x00, 0x00,
  0x01, 0x00, 0x00, 0x00, 0x66, 0xFD, 0xFF, 0xFF, 0x04, 0x00,
  0x00, 0x00, 0x04, 0x00, 0x00, 0x00, 0x00, 0x00, 0x00, 0x00,
  0x88, 0xEE, 0xFF, 0xFF, 0x8C, 0xEE, 0xFF, 0xFF, 0x0F, 0x00,
  0x00, 0x00, 0x4D, 0x4C, 0x49, 0x52, 0x20, 0x43, 0x6F, 0x6E,
  0x76, 0x65, 0x72, 0x74, 0x65, 0x64, 0x2E, 0x00, 0x01, 0x00,
  0x00, 0x00, 0x14, 0x00, 0x00, 0x00, 0x00, 0x00, 0x0E, 0x00,
  0x18, 0x00, 0x14, 0x00, 0x10, 0x00, 0x0C, 0x00, 0x08, 0x00,
  0x04, 0x00, 0x0E, 0x00, 0x00, 0x00, 0x14, 0x00, 0x00, 0x00,
  0x1C, 0x00, 0x00, 0x00, 0x14, 0x03, 0x00, 0x00, 0x18, 0x03,
  0x00, 0x00, 0x1C, 0x03, 0x00, 0x00, 0x04, 0x00, 0x00, 0x00,
  0x6D, 0x61, 0x69, 0x6E, 0x00, 0x00, 0x00, 0x00, 0x0B, 0x00,
  0x00, 0x00, 0xC4, 0x02, 0x00, 0x00, 0x64, 0x02, 0x00, 0x00,
  0x0C, 0x02, 0x00, 0x00, 0xE4, 0x01, 0x00, 0x00, 0x88, 0x01,
  0x00, 0x00, 0x34, 0x01, 0x00, 0x00, 0xDC, 0x00, 0x00, 0x00,
  0x98, 0x00, 0x00, 0x00, 0x70, 0x00, 0x00, 0x00, 0x38, 0x00,
  0x00, 0x00, 0x04, 0x00, 0x00, 0x00, 0xD2, 0xFD, 0xFF, 0xFF,
  0x14, 0x00, 0x00, 0x00, 0x00, 0x00, 0x00, 0x09, 0x14, 0x00,
  0x00, 0x00, 0x18, 0x00, 0x00, 0x00, 0x08, 0x00, 0x00, 0x00,
  0x16, 0xFE, 0xFF, 0xFF, 0x00, 0x00, 0x80, 0x3F, 0x01, 0x00,
  0x00, 0x00, 0x16, 0x00, 0x00, 0x00, 0x01, 0x00, 0x00, 0x00,
  0x15, 0x00, 0x00, 0x00, 0x02, 0xFE, 0xFF, 0xFF, 0x14, 0x00,
  0x00, 0x00, 0x00, 0x00, 0x00, 0x08, 0x10, 0x00, 0x00, 0x00,
  0x14, 0x00, 0x00, 0x00, 0x07, 0x00, 0x00, 0x00, 0x58, 0xEF,
  0xFF, 0xFF, 0x01, 0x00, 0x00, 0x00, 0x15, 0x00, 0x00, 0x00,
  0x03, 0x00, 0x00, 0x00, 0x14, 0x00, 0x00, 0x00, 0x07, 0x00,
  0x00, 0x00, 0x06, 0x00, 0x00, 0x00, 0xAA, 0xFE, 0xFF, 0xFF,
  0x0C, 0x00, 0x00, 0x00, 0x10, 0x00, 0x00, 0x00, 0x03, 0x00,
  0x00, 0x00, 0x01, 0x00, 0x00, 0x00, 0x14, 0x00, 0x00, 0x00,
  0x02, 0x00, 0x00, 0x00, 0x13, 0x00, 0x00, 0x00, 0x05, 0x00,
  0x00, 0x00, 0x5A, 0xFE, 0xFF, 0xFF, 0x14, 0x00, 0x00, 0x00,
  0x00, 0x00, 0x00, 0x05, 0x24, 0x00, 0x00, 0x00, 0x28, 0x00,
  0x00, 0x00, 0x05, 0x00, 0x00, 0x00, 0x6A, 0xFF, 0xFF, 0xFF,
  0x02, 0x00, 0x00, 0x00, 0x02, 0x00, 0x00, 0x00, 0x02, 0x00,
  0x00, 0x00, 0x02, 0x00, 0x00, 0x00, 0x00, 0x00, 0x00, 0x01,
  0x01, 0x00, 0x00, 0x00, 0x13, 0x00, 0x00, 0x00, 0x01, 0x00,
  0x00, 0x00, 0x12, 0x00, 0x00, 0x00, 0x9A, 0xFE, 0xFF, 0xFF,
  0x24, 0x00, 0x00, 0x00, 0x00, 0x00, 0x00, 0x02, 0x30, 0x00,
  0x00, 0x00, 0x34, 0x00, 0x00, 0x00, 0x06, 0x00, 0x00, 0x00,
  0x00, 0x00, 0x0E, 0x00, 0x14, 0x00, 0x00, 0x00, 0x10, 0x00,
  0x0C, 0x00, 0x08, 0x00, 0x07, 0x00, 0x0E, 0x00, 0x00, 0x00,
  0x00, 0x00, 0x00, 0x01, 0x01, 0x00, 0x00, 0x00, 0x03, 0x00,
  0x00, 0x00, 0x03, 0x00, 0x00, 0x00, 0x01, 0x00, 0x00, 0x00,
  0x12, 0x00, 0x00, 0x00, 0x03, 0x00, 0x00, 0x00, 0x11, 0x00,
  0x00, 0x00, 0x09, 0x00, 0x00, 0x00, 0x08, 0x00, 0x00, 0x00,
  0xEE, 0xFE, 0xFF, 0xFF, 0x24, 0x00, 0x00, 0x00, 0x00, 0x00,
  0x00, 0x05, 0x34, 0x00, 0x00, 0x00, 0x38, 0x00, 0x00, 0x00,
  0x05, 0x00, 0x00, 0x00, 0x00, 0x00, 0x0E, 0x00, 0x18, 0x00,
  0x17, 0x00, 0x10, 0x00, 0x0C, 0x00, 0x08, 0x00, 0x04, 0x00,
  0x0E, 0x00, 0x00, 0x00, 0x02, 0x00, 0x00, 0x00, 0x02, 0x00,
  0x00, 0x00, 0x02, 0x00, 0x00, 0x00, 0x02, 0x00, 0x00, 0x00,
  0x00, 0x00, 0x00, 0x01, 0x01, 0x00, 0x00, 0x00, 0x11, 0x00,
  0x00, 0x00, 0x01, 0x00, 0x00, 0x00, 0x10, 0x00, 0x00, 0x00,
  0x3E, 0xFF, 0xFF, 0xFF, 0x20, 0x00, 0x00, 0x00, 0x00, 0x00,
  0x00, 0x01, 0x28, 0x00, 0x00, 0x00, 0x2C, 0x00, 0x00, 0x00,
  0x04, 0x00, 0x00, 0x00, 0x0C, 0x00, 0x10, 0x00, 0x00, 0x00,
  0x0C, 0x00, 0x08, 0x00, 0x07, 0x00, 0x0C, 0x00, 0x00, 0x00,
  0x00, 0x00, 0x00, 0x01, 0x01, 0x00, 0x00, 0x00, 0x01, 0x00,
  0x00, 0x00, 0x01, 0x00, 0x00, 0x00, 0x10, 0x00, 0x00, 0x00,
  0x03, 0x00, 0x00, 0x00, 0x0F, 0x00, 0x00, 0x00, 0x0B, 0x00,
  0x00, 0x00, 0x0A, 0x00, 0x00, 0x00, 0x00, 0x00, 0x0A, 0x00,
  0x10, 0x00, 0x0C, 0x00, 0x08, 0x00, 0x04, 0x00, 0x0A, 0x00,
  0x00, 0x00, 0x0C, 0x00, 0x00, 0x00, 0x10, 0x00, 0x00, 0x00,
  0x03, 0x00, 0x00, 0x00, 0x01, 0x00, 0x00, 0x00, 0x0F, 0x00,
  0x00, 0x00, 0x02, 0x00, 0x00, 0x00, 0x00, 0x00, 0x00, 0x00,
  0x0E, 0x00, 0x00, 0x00, 0xBA, 0xFF, 0xFF, 0xFF, 0x1C, 0x00,
  0x00, 0x00, 0x00, 0x00, 0x00, 0x3B, 0x1C, 0x00, 0x00, 0x00,
  0x20, 0x00, 0x00, 0x00, 0x02, 0x00, 0x00, 0x00, 0x00, 0x00,
  0x06, 0x00, 0x08, 0x00, 0x04, 0x00, 0x06, 0x00, 0x00, 0x00,
  0x04, 0x00, 0x00, 0x00, 0x01, 0x00, 0x00, 0x00, 0x0E, 0x00,
  0x00, 0x00, 0x04, 0x00, 0x00, 0x00, 0x0D, 0x00, 0x00, 0x00,
  0x03, 0x00, 0x00, 0x00, 0x03, 0x00, 0x00, 0x00, 0x04, 0x00,
  0x00, 0x00, 0x00, 0x00, 0x0E, 0x00, 0x1A, 0x00, 0x14, 0x00,
  0x10, 0x00, 0x0C, 0x00, 0x0B, 0x00, 0x04, 0x00, 0x0E, 0x00,
  0x00, 0x00, 0x24, 0x00, 0x00, 0x00, 0x00, 0x00, 0x00, 0x20,
  0x24, 0x00, 0x00, 0x00, 0x28, 0x00, 0x00, 0x00, 0x01, 0x00,
  0x00, 0x00, 0x00, 0x00, 0x0E, 0x00, 0x08, 0x00, 0x00, 0x00,
  0x00, 0x00, 0x00, 0x00, 0x00, 0x00, 0x04, 0x00, 0x0E, 0x00,
  0x00, 0x00, 0x01, 0x00, 0x00, 0x00, 0x01, 0x00, 0x00, 0x00,
  0x0D, 0x00, 0x00, 0x00, 0x04, 0x00, 0x00, 0x00, 0x0C, 0x00,
  0x00, 0x00, 0x01, 0x00, 0x00, 0x00, 0x02, 0x00, 0x00, 0x00,
  0x02, 0x00, 0x00, 0x00, 0x00, 0x00, 0x0E, 0x00, 0x16, 0x00,
  0x00, 0x00, 0x10, 0x00, 0x0C, 0x00, 0x0B, 0x00, 0x04, 0x00,
  0x0E, 0x00, 0x00, 0x00, 0x18, 0x00, 0x00, 0x00, 0x00, 0x00,
  0x00, 0x37, 0x18, 0x00, 0x00, 0x00, 0x1C, 0x00, 0x00, 0x00,
  0x00, 0x00, 0x06, 0x00, 0x08, 0x00, 0x07, 0x00, 0x06, 0x00,
  0x00, 0x00, 0x00, 0x00, 0x00, 0x02, 0x01, 0x00, 0x00, 0x00,
  0x0C, 0x00, 0x00, 0x00, 0x01, 0x00, 0x00, 0x00, 0x00, 0x00,
  0x00, 0x00, 0x01, 0x00, 0x00, 0x00, 0x16, 0x00, 0x00, 0x00,
  0x01, 0x00, 0x00, 0x00, 0x00, 0x00, 0x00, 0x00, 0x17, 0x00,
  0x00, 0x00, 0x64, 0x0E, 0x00, 0x00, 0xF0, 0x0D, 0x00, 0x00,
  0x7C, 0x0D, 0x00, 0x00, 0x2C, 0x0D, 0x00, 0x00, 0xDC, 0x0C,
  0x00, 0x00, 0x90, 0x0C, 0x00, 0x00, 0x1C, 0x0C, 0x00, 0x00,
  0xB0, 0x0B, 0x00, 0x00, 0x7C, 0x0A, 0x00, 0x00, 0x30, 0x09,
  0x00, 0x00, 0x04, 0x08, 0x00, 0x00, 0x58, 0x06, 0x00, 0x00,
  0x0C, 0x06, 0x00, 0x00, 0xBC, 0x05, 0x00, 0x00, 0x68, 0x05,
  0x00, 0x00, 0xD8, 0x04, 0x00, 0x00, 0xCC, 0x03, 0x00, 0x00,
  0x38, 0x03, 0x00, 0x00, 0x24, 0x02, 0x00, 0x00, 0x90, 0x01,
  0x00, 0x00, 0x14, 0x01, 0x00, 0x00, 0x80, 0x00, 0x00, 0x00,
  0x04, 0x00, 0x00, 0x00, 0x0E, 0xF2, 0xFF, 0xFF, 0x00, 0x00,
  0x00, 0x01, 0x18, 0x00, 0x00, 0x00, 0x20, 0x00, 0x00, 0x00,
  0x3C, 0x00, 0x00, 0x00, 0x17, 0x00, 0x00, 0x00, 0x00, 0x00,
  0x00, 0x09, 0x50, 0x00, 0x00, 0x00, 0x02, 0x00, 0x00, 0x00,
  0xFF, 0xFF, 0xFF, 0xFF, 0x02, 0x00, 0x00, 0x00, 0xF4, 0xF1,
  0xFF, 0xFF, 0x08, 0x00, 0x00, 0x00, 0x10, 0x00, 0x00, 0x00,
  0x01, 0x00, 0x00, 0x00, 0x80, 0xFF, 0xFF, 0xFF, 0xFF, 0xFF,
  0xFF, 0xFF, 0x01, 0x00, 0x00, 0x00, 0x00, 0x00, 0x80, 0x3B,
  0x19, 0x00, 0x00, 0x00, 0x53, 0x74, 0x61, 0x74, 0x65, 0x66,
  0x75, 0x6C, 0x50, 0x61, 0x72, 0x74, 0x69, 0x74, 0x69, 0x6F,
  0x6E, 0x65, 0x64, 0x43, 0x61, 0x6C, 0x6C, 0x3A, 0x30, 0x00,
  0x00, 0x00, 0x02, 0x00, 0x00, 0x00, 0x01, 0x00, 0x00, 0x00,
  0x02, 0x00, 0x00, 0x00, 0x86, 0xF2, 0xFF, 0xFF, 0x00, 0x00,
  0x00, 0x01, 0x18, 0x00, 0x00, 0x00, 0x20, 0x00, 0x00, 0x00,
  0x3C, 0x00, 0x00, 0x00, 0x16, 0x00, 0x00, 0x00, 0x00, 0x00,
  0x00, 0x09, 0x68, 0x00, 0x00, 0x00, 0x02, 0x00, 0x00, 0x00,
  0xFF, 0xFF, 0xFF, 0xFF, 0x02, 0x00, 0x00, 0x00, 0x6C, 0xF2,
  0xFF, 0xFF, 0x08, 0x00, 0x00, 0x00, 0x10, 0x00, 0x00, 0x00,
  0x01, 0x00, 0x00, 0x00, 0xFC, 0xFF, 0xFF, 0xFF, 0xFF, 0xFF,
  0xFF, 0xFF, 0x01, 0x00, 0x00, 0x00, 0xDC, 0xAB, 0x89, 0x3C,
  0x30, 0x00, 0x00, 0x00, 0x73, 0x65, 0x71, 0x75, 0x65, 0x6E,
  0x74, 0x69, 0x61, 0x6C, 0x2F, 0x64, 0x65, 0x6E, 0x73, 0x65,
  0x2F, 0x4D, 0x61, 0x74, 0x4D, 0x75, 0x6C, 0x3B, 0x73, 0x65,
  0x71, 0x75, 0x65, 0x6E, 0x74, 0x69, 0x61, 0x6C, 0x2F, 0x64,
  0x65, 0x6E, 0x73, 0x65, 0x2F, 0x42, 0x69, 0x61, 0x73, 0x41,
  0x64, 0x64, 0x00, 0x00, 0x00, 0x00, 0x02, 0x00, 0x00, 0x00,
  0x01, 0x00, 0x00, 0x00, 0x02, 0x00, 0x00, 0x00, 0x16, 0xF3,
  0xFF, 0xFF, 0x00, 0x00, 0x00, 0x01, 0x18, 0x00, 0x00, 0x00,
  0x20, 0x00, 0x00, 0x00, 0x3C, 0x00, 0x00, 0x00, 0x15, 0x00,
  0x00, 0x00, 0x00, 0x00, 0x00, 0x09, 0x50, 0x00, 0x00, 0x00,
  0x02, 0x00, 0x00, 0x00, 0xFF, 0xFF, 0xFF, 0xFF, 0x00, 0x04,
  0x00, 0x00, 0xFC, 0xF2, 0xFF, 0xFF, 0x08, 0x00, 0x00, 0x00,
  0x10, 0x00, 0x00, 0x00, 0x01, 0x00, 0x00, 0x00, 0x80, 0xFF,
  0xFF, 0xFF, 0xFF, 0xFF, 0xFF, 0xFF, 0x01, 0x00, 0x00, 0x00,
  0xBF, 0x30, 0x0C, 0x3C, 0x1A, 0x00, 0x00, 0x00, 0x73, 0x65,
  0x71, 0x75, 0x65, 0x6E, 0x74, 0x69, 0x61, 0x6C, 0x2F, 0x66,
  0x6C, 0x61, 0x74, 0x74, 0x65, 0x6E, 0x2F, 0x52, 0x65, 0x73,
  0x68, 0x61, 0x70, 0x65, 0x00, 0x00, 0x02, 0x00, 0x00, 0x00,
  0x01, 0x00, 0x00, 0x00, 0x00, 0x04, 0x00, 0x00, 0x8E, 0xF3,
  0xFF, 0xFF, 0x00, 0x00, 0x00, 0x01, 0x18, 0x00, 0x00, 0x00,
  0x28, 0x00, 0x00, 0x00, 0x44, 0x00, 0x00, 0x00, 0x14, 0x00,
  0x00, 0x00, 0x00, 0x00, 0x00, 0x09, 0x60, 0x00, 0x00, 0x00,
  0x04, 0x00, 0x00, 0x00, 0xFF, 0xFF, 0xFF, 0xFF, 0x08, 0x00,
  0x00, 0x00, 0x08, 0x00, 0x00, 0x00, 0x10, 0x00, 0x00, 0x00,
  0x7C, 0xF3, 0xFF, 0xFF, 0x08, 0x00, 0x00, 0x00, 0x10, 0x00,
  0x00, 0x00, 0x01, 0x00, 0x00, 0x00, 0x80, 0xFF, 0xFF, 0xFF,
  0xFF, 0xFF, 0xFF, 0xFF, 0x01, 0x00, 0x00, 0x00, 0xBF, 0x30,
  0x0C, 0x3C, 0x22, 0x00, 0x00, 0x00, 0x73, 0x65, 0x71, 0x75,
  0x65, 0x6E, 0x74, 0x69, 0x61, 0x6C, 0x2F, 0x6D, 0x61, 0x78,
  0x5F, 0x70, 0x6F, 0x6F, 0x6C, 0x69, 0x6E, 0x67, 0x32, 0x64,
  0x5F, 0x31, 0x2F, 0x4D, 0x61, 0x78, 0x50, 0x6F, 0x6F, 0x6C,
  0x00, 0x00, 0x04, 0x00, 0x00, 0x00, 0x01, 0x00, 0x00, 0x00,
  0x08, 0x00, 0x00, 0x00, 0x08, 0x00, 0x00, 0x00, 0x10, 0x00,
  0x00, 0x00, 0x1E, 0xF4, 0xFF, 0xFF, 0x00, 0x00, 0x00, 0x01,
  0x18, 0x00, 0x00, 0x00, 0x28, 0x00, 0x00, 0x00, 0x48, 0x00,
  0x00, 0x00, 0x13, 0x00, 0x00, 0x00, 0x00, 0x00, 0x00, 0x09,
  0xE0, 0x00, 0x00, 0x00, 0x04, 0x00, 0x00, 0x00, 0xFF, 0xFF,
  0xFF, 0xFF, 0x10, 0x00, 0x00, 0x00, 0x10, 0x00, 0x00, 0x00,
  0x10, 0x00, 0x00, 0x00, 0x0C, 0xF4, 0xFF, 0xFF, 0x08, 0x00,
  0x00, 0x00, 0x14, 0x00, 0x00, 0x00, 0x01, 0x00, 0x00, 0x00,
  0x80, 0xFF, 0xFF, 0xFF, 0xFF, 0xFF, 0xFF, 0xFF, 0x00, 0x00,
  0x00, 0x00, 0x01, 0x00, 0x00, 0x00, 0xBF, 0x30, 0x0C, 0x3C,
  0x9D, 0x00, 0x00, 0x00, 0x73, 0x65, 0x71, 0x75, 0x65, 0x6E,
  0x74, 0x69, 0x61, 0x6C, 0x2F, 0x64, 0x65, 0x70, 0x74, 0x68,
  0x77, 0x69, 0x73, 0x65, 0x5F, 0x63, 0x6F, 0x6E, 0x76, 0x32,
  0x64, 0x2F, 0x52, 0x65, 0x6C, 0x75, 0x3B, 0x73, 0x65, 0x71,
  0x75, 0x65, 0x6E, 0x74, 0x69, 0x61, 0x6C, 0x2F, 0x64, 0x65,
  0x70, 0x74, 0x68, 0x77, 0x69, 0x73, 0x65, 0x5F, 0x63, 0x6F,
  0x6E, 0x76, 0x32, 0x64, 0x2F, 0x42, 0x69, 0x61, 0x73, 0x41,
  0x64, 0x64, 0x3B, 0x73, 0x65, 0x71, 0x75, 0x65, 0x6E, 0x74,
  0x69, 0x61, 0x6C, 0x2F, 0x64, 0x65, 0x70, 0x74, 0x68, 0x77,
  0x69, 0x73, 0x65, 0x5F, 0x63, 0x6F, 0x6E, 0x76, 0x32, 0x64,
  0x2F, 0x64, 0x65, 0x70, 0x74, 0x68, 0x77, 0x69, 0x73, 0x65,
  0x3B, 0x73, 0x65, 0x71, 0x75, 0x65, 0x6E, 0x74, 0x69, 0x61,
  0x6C, 0x2F, 0x64, 0x65, 0x70, 0x74, 0x68, 0x77, 0x69, 0x73,
  0x65, 0x5F, 0x63, 0x6F, 0x6E, 0x76, 0x32, 0x64, 0x2F, 0x42,
  0x69, 0x61, 0x73, 0x41, 0x64, 0x64, 0x2F, 0x52, 0x65, 0x61,
  0x64, 0x56, 0x61, 0x72, 0x69, 0x61, 0x62, 0x6C, 0x65, 0x4F,
  0x70, 0x00, 0x00, 0x00, 0x04, 0x00, 0x00, 0x00, 0x01, 0x00,
  0x00, 0x00, 0x10, 0x00, 0x00, 0x00, 0x10, 0x00, 0x00, 0x00,
  0x10, 0x00, 0x00, 0x00, 0x2E, 0xF5, 0xFF, 0xFF, 0x00, 0x00,
  0x00, 0x01, 0x18, 0x00, 0x00, 0x00, 0x28, 0x00, 0x00, 0x00,
  0x44, 0x00, 0x00, 0x00, 0x12, 0x00, 0x00, 0x00, 0x00, 0x00,
  0x00, 0x09, 0x60, 0x00, 0x00, 0x00, 0x04, 0x00, 0x00, 0x00,
  0xFF, 0xFF, 0xFF, 0xFF, 0x30, 0x00, 0x00, 0x00, 0x30, 0x00,
  0x00, 0x00, 0x10, 0x00, 0x00, 0x00, 0x1C, 0xF5, 0xFF, 0xFF,
  0x08, 0x00, 0x00, 0x00, 0x10, 0x00, 0x00, 0x00, 0x01, 0x00,
  0x00, 0x00, 0x80, 0xFF, 0xFF, 0xFF, 0xFF, 0xFF, 0xFF, 0xFF,
  0x01, 0x00, 0x00, 0x00, 0x0C, 0x7B, 0x10, 0x3C, 0x20, 0x00,
  0x00, 0x00, 0x73, 0x65, 0x71, 0x75, 0x65, 0x6E, 0x74, 0x69,
  0x61, 0x6C, 0x2F, 0x6D, 0x61, 0x78, 0x5F, 0x70, 0x6F, 0x6F,
  0x6C, 0x69, 0x6E, 0x67, 0x32, 0x64, 0x2F, 0x4D, 0x61, 0x78,
  0x50, 0x6F, 0x6F, 0x6C, 0x00, 0x00, 0x00, 0x00, 0x04, 0x00,
  0x00, 0x00, 0x01, 0x00, 0x00, 0x00, 0x30, 0x00, 0x00, 0x00,
  0x30, 0x00, 0x00, 0x00, 0x10, 0x00, 0x00, 0x00, 0xBE, 0xF5,
  0xFF, 0xFF, 0x00, 0x00, 0x00, 0x01, 0x18, 0x00, 0x00, 0x00,
  0x28, 0x00, 0x00, 0x00, 0x44, 0x00, 0x00, 0x00, 0x11, 0x00,
  0x00, 0x00, 0x00, 0x00, 0x00, 0x09, 0xD8, 0x00, 0x00, 0x00,
  0x04, 0x00, 0x00, 0x00, 0xFF, 0xFF, 0xFF, 0xFF, 0x60, 0x00,
  0x00, 0x00, 0x60, 0x00, 0x00, 0x00, 0x10, 0x00, 0x00, 0x00,
  0xAC, 0xF5, 0xFF, 0xFF, 0x08, 0x00, 0x00, 0x00, 0x10, 0x00,
  0x00, 0x00, 0x01, 0x00, 0x00, 0x00, 0x80, 0xFF, 0xFF, 0xFF,
  0xFF, 0xFF, 0xFF, 0xFF, 0x01, 0x00, 0x00, 0x00, 0x0C, 0x7B,
  0x10, 0x3C, 0x99, 0x00, 0x00, 0x00, 0x73, 0x65, 0x71, 0x75,
  0x65, 0x6E, 0x74, 0x69, 0x61, 0x6C, 0x2F, 0x63, 0x6F, 0x6E,
  0x76, 0x32, 0x64, 0x2F, 0x52, 0x65, 0x6C, 0x75, 0x3B, 0x73,
  0x65, 0x71, 0x75, 0x65, 0x6E, 0x74, 0x69, 0x61, 0x6C, 0x2F,
  0x63, 0x6F, 0x6E, 0x76, 0x32, 0x64, 0x2F, 0x42, 0x69, 0x61,
  0x73, 0x41, 0x64, 0x64, 0x3B, 0x73, 0x65, 0x71, 0x75, 0x65,
  0x6E, 0x74, 0x69, 0x61, 0x6C, 0x2F, 0x64, 0x65, 0x70, 0x74,
  0x68, 0x77, 0x69, 0x73, 0x65, 0x5F, 0x63, 0x6F, 0x6E, 0x76,
  0x32, 0x64, 0x2F, 0x64, 0x65, 0x70, 0x74, 0x68, 0x77, 0x69,
  0x73, 0x65, 0x3B, 0x73, 0x65, 0x71, 0x75, 0x65, 0x6E, 0x74,
  0x69, 0x61, 0x6C, 0x2F, 0x63, 0x6F, 0x6E, 0x76, 0x32, 0x64,
  0x2F, 0x43, 0x6F, 0x6E, 0x76, 0x32, 0x44, 0x3B, 0x73, 0x65,
  0x71, 0x75, 0x65, 0x6E, 0x74, 0x69, 0x61, 0x6C, 0x2F, 0x63,
  0x6F, 0x6E, 0x76, 0x32, 0x64, 0x2F, 0x42, 0x69, 0x61, 0x73,
  0x41, 0x64, 0x64, 0x2F, 0x52, 0x65, 0x61, 0x64, 0x56, 0x61,
  0x72, 0x69, 0x61, 0x62, 0x6C, 0x65, 0x4F, 0x70, 0x31, 0x00,
  0x00, 0x00, 0x04, 0x00, 0x00, 0x00, 0x01, 0x00, 0x00, 0x00,
  0x60, 0x00, 0x00, 0x00, 0x60, 0x00, 0x00, 0x00, 0x10, 0x00,
  0x00, 0x00, 0xC6, 0xF6, 0xFF, 0xFF, 0x00, 0x00, 0x00, 0x01,
  0x18, 0x00, 0x00, 0x00, 0x28, 0x00, 0x00, 0x00, 0x48, 0x00,
  0x00, 0x00, 0x10, 0x00, 0x00, 0x00, 0x00, 0x00, 0x00, 0x09,
  0x5C, 0x00, 0x00, 0x00, 0x04, 0x00, 0x00, 0x00, 0xFF, 0xFF,
  0xFF, 0xFF, 0x60, 0x00, 0x00, 0x00, 0x60, 0x00, 0x00, 0x00,
  0x01, 0x00, 0x00, 0x00, 0xB4, 0xF6, 0xFF, 0xFF, 0x08, 0x00,
  0x00, 0x00, 0x14, 0x00, 0x00, 0x00, 0x01, 0x00, 0x00, 0x00,
  0x80, 0xFF, 0xFF, 0xFF, 0xFF, 0xFF, 0xFF, 0xFF, 0x00, 0x00,
  0x00, 0x00, 0x01, 0x00, 0x00, 0x00, 0x00, 0x00, 0x80, 0x3F,
  0x1A, 0x00, 0x00, 0x00, 0x73, 0x65, 0x71, 0x75, 0x65, 0x6E,
  0x74, 0x69, 0x61, 0x6C, 0x2F, 0x72, 0x65, 0x73, 0x68, 0x61,
  0x70, 0x65, 0x2F, 0x52, 0x65, 0x73, 0x68, 0x61, 0x70, 0x65,
  0x00, 0x00, 0x04, 0x00, 0x00, 0x00, 0x01, 0x00, 0x00, 0x00,
  0x60, 0x00, 0x00, 0x00, 0x60, 0x00, 0x00, 0x00, 0x01, 0x00,
  0x00, 0x00, 0xC2, 0xF7, 0xFF, 0xFF, 0x00, 0x00, 0x00, 0x01,
  0x14, 0x00, 0x00, 0x00, 0x14, 0x00, 0x00, 0x00, 0x0F, 0x00,
  0x00, 0x00, 0x00, 0x00, 0x00, 0x02, 0x30, 0x00, 0x00, 0x00,
  0xAC, 0xF7, 0xFF, 0xFF, 0x20, 0x00, 0x00, 0x00, 0x73, 0x65,
  0x71, 0x75, 0x65, 0x6E, 0x74, 0x69, 0x61, 0x6C, 0x2F, 0x72,
  0x65, 0x73, 0x68, 0x61, 0x70, 0x65, 0x2F, 0x52, 0x65, 0x73,
  0x68, 0x61, 0x70, 0x65, 0x2F, 0x73, 0x68, 0x61, 0x70, 0x65,
  0x00, 0x00, 0x00, 0x00, 0x01, 0x00, 0x00, 0x00, 0x04, 0x00,
  0x00, 0x00, 0x12, 0xF8, 0xFF, 0xFF, 0x00, 0x00, 0x00, 0x01,
  0x14, 0x00, 0x00, 0x00, 0x14, 0x00, 0x00, 0x00, 0x0E, 0x00,
  0x00, 0x00, 0x00, 0x00, 0x00, 0x02, 0x30, 0x00, 0x00, 0x00,
  0xFC, 0xF7, 0xFF, 0xFF, 0x20, 0x00, 0x00, 0x00, 0x73, 0x65,
  0x71, 0x75, 0x65, 0x6E, 0x74, 0x69, 0x61, 0x6C, 0x2F, 0x72,
  0x65, 0x73, 0x68, 0x61, 0x70, 0x65, 0x2F, 0x73, 0x74, 0x72,
  0x69, 0x64, 0x65, 0x64, 0x5F, 0x73, 0x6C, 0x69, 0x63, 0x65,
  0x00, 0x00, 0x00, 0x00, 0x00, 0x00, 0x00, 0x00, 0x5E, 0xF8,
  0xFF, 0xFF, 0x00, 0x00, 0x00, 0x01, 0x14, 0x00, 0x00, 0x00,
  0x14, 0x00, 0x00, 0x00, 0x0D, 0x00, 0x00, 0x00, 0x00, 0x00,
  0x00, 0x02, 0x28, 0x00, 0x00, 0x00, 0x48, 0xF8, 0xFF, 0xFF,
  0x18, 0x00, 0x00, 0x00, 0x73, 0x65, 0x71, 0x75, 0x65, 0x6E,
  0x74, 0x69, 0x61, 0x6C, 0x2F, 0x72, 0x65, 0x73, 0x68, 0x61,
  0x70, 0x65, 0x2F, 0x53, 0x68, 0x61, 0x70, 0x65, 0x00, 0x00,
  0x00, 0x00, 0x01, 0x00, 0x00, 0x00, 0x03, 0x00, 0x00, 0x00,
  0xA6, 0xF8, 0xFF, 0xFF, 0x00, 0x00, 0x00, 0x01, 0x14, 0x00,
  0x00, 0x00, 0xE8, 0x00, 0x00, 0x00, 0x0C, 0x00, 0x00, 0x00,
  0x00, 0x00, 0x00, 0x09, 0x7C, 0x01, 0x00, 0x00, 0x0C, 0xF8,
  0xFF, 0xFF, 0x08, 0x00, 0x00, 0x00, 0x8C, 0x00, 0x00, 0x00,
  0x10, 0x00, 0x00, 0x00, 0x00, 0x00, 0x00, 0x00, 0x00, 0x00,
  0x00, 0x00, 0x00, 0x00, 0x00, 0x00, 0x00, 0x00, 0x00, 0x00,
  0x00, 0x00, 0x00, 0x00, 0x00, 0x00, 0x00, 0x00, 0x00, 0x00,
  0x00, 0x00, 0x00, 0x00, 0x00, 0x00, 0x00, 0x00, 0x00, 0x00,
  0x00, 0x00, 0x00, 0x00, 0x00, 0x00, 0x00, 0x00, 0x00, 0x00,
  0x00, 0x00, 0x00, 0x00, 0x00, 0x00, 0x00, 0x00, 0x00, 0x00,
  0x00, 0x00, 0x00, 0x00, 0x00, 0x00, 0x00, 0x00, 0x00, 0x00,
  0x00, 0x00, 0x00, 0x00, 0x00, 0x00, 0x00, 0x00, 0x00, 0x00,
  0x00, 0x00, 0x00, 0x00, 0x00, 0x00, 0x00, 0x00, 0x00, 0x00,
  0x00, 0x00, 0x00, 0x00, 0x00, 0x00, 0x00, 0x00, 0x00, 0x00,
  0x00, 0x00, 0x00, 0x00, 0x00, 0x00, 0x00, 0x00, 0x00, 0x00,
  0x00, 0x00, 0x00, 0x00, 0x00, 0x00, 0x00, 0x00, 0x00, 0x00,
  0x00, 0x00, 0x00, 0x00, 0x00, 0x00, 0x00, 0x00, 0x00, 0x00,
  0x00, 0x00, 0x00, 0x00, 0x00, 0x00, 0x10, 0x00, 0x00, 0x00,
  0x61, 0x18, 0xD9, 0x36, 0x00, 0x9A, 0x04, 0x37, 0xDF, 0x25,
  0x54, 0x37, 0xE2, 0x17, 0xD9, 0x36, 0x63, 0xEC, 0xBB, 0x36,
  0xD6, 0x86, 0xCF, 0x36, 0xBE, 0xB2, 0xF4, 0x36, 0x2F, 0x5E,
  0xF6, 0x36, 0x02, 0xFD, 0xBE, 0x36, 0x63, 0x4F, 0xAC, 0x36,
  0x1E, 0x4E, 0x24, 0x37, 0x27, 0x8D, 0xD7, 0x36, 0xBB, 0x64,
  0xD7, 0x36, 0xB1, 0xE4, 0xFA, 0x36, 0xA5, 0x83, 0xBC, 0x36,
  0x3F, 0x34, 0xDE, 0x36, 0x98, 0x00, 0x00, 0x00, 0x73, 0x65,
  0x71, 0x75, 0x65, 0x6E, 0x74, 0x69, 0x61, 0x6C, 0x2F, 0x63,
  0x6F, 0x6E, 0x76, 0x32, 0x64, 0x2F, 0x52, 0x65, 0x6C, 0x75,
  0x3B, 0x73, 0x65, 0x71, 0x75, 0x65, 0x6E, 0x74, 0x69, 0x61,
  0x6C, 0x2F, 0x63, 0x6F, 0x6E, 0x76, 0x32, 0x64, 0x2F, 0x42,
  0x69, 0x61, 0x73, 0x41, 0x64, 0x64, 0x3B, 0x73, 0x65, 0x71,
  0x75, 0x65, 0x6E, 0x74, 0x69, 0x61, 0x6C, 0x2F, 0x64, 0x65,
  0x70, 0x74, 0x68, 0x77, 0x69, 0x73, 0x65, 0x5F, 0x63, 0x6F,
  0x6E, 0x76, 0x32, 0x64, 0x2F, 0x64, 0x65, 0x70, 0x74, 0x68,
  0x77, 0x69, 0x73, 0x65, 0x3B, 0x73, 0x65, 0x71, 0x75, 0x65,
  0x6E, 0x74, 0x69, 0x61, 0x6C, 0x2F, 0x63, 0x6F, 0x6E, 0x76,
  0x32, 0x64, 0x2F, 0x43, 0x6F, 0x6E, 0x76, 0x32, 0x44, 0x3B,
  0x73, 0x65, 0x71, 0x75, 0x65, 0x6E, 0x74, 0x69, 0x61, 0x6C,
  0x2F, 0x63, 0x6F, 0x6E, 0x76, 0x32, 0x64, 0x2F, 0x42, 0x69,
  0x61, 0x73, 0x41, 0x64, 0x64, 0x2F, 0x52, 0x65, 0x61, 0x64,
  0x56, 0x61, 0x72, 0x69, 0x61, 0x62, 0x6C, 0x65, 0x4F, 0x70,
  0x00, 0x00, 0x00, 0x00, 0x04, 0x00, 0x00, 0x00, 0x10, 0x00,
  0x00, 0x00, 0x03, 0x00, 0x00, 0x00, 0x03, 0x00, 0x00, 0x00,
  0x01, 0x00, 0x00, 0x00, 0x4E, 0xFA, 0xFF, 0xFF, 0x00, 0x00,
  0x00, 0x01, 0x14, 0x00, 0x00, 0x00, 0xE4, 0x00, 0x00, 0x00,
  0x0B, 0x00, 0x00, 0x00, 0x00, 0x00, 0x00, 0x02, 0x08, 0x01,
  0x00, 0x00, 0xB4, 0xF9, 0xFF, 0xFF, 0x08, 0x00, 0x00, 0x00,
  0x88, 0x00, 0x00, 0x00, 0x10, 0x00, 0x00, 0x00, 0x00, 0x00,
  0x00, 0x00, 0x00, 0x00, 0x00, 0x00, 0x00, 0x00, 0x00, 0x00,
  0x00, 0x00, 0x00, 0x00, 0x00, 0x00, 0x00, 0x00, 0x00, 0x00,
  0x00, 0x00, 0x00, 0x00, 0x00, 0x00, 0x00, 0x00, 0x00, 0x00,
  0x00, 0x00, 0x00, 0x00, 0x00, 0x00, 0x00, 0x00, 0x00, 0x00,
  0x00, 0x00, 0x00, 0x00, 0x00, 0x00, 0x00, 0x00, 0x00, 0x00,
  0x00, 0x00, 0x00, 0x00, 0x00, 0x00, 0x00, 0x00, 0x00, 0x00,
  0x00, 0x00, 0x00, 0x00, 0x00, 0x00, 0x00, 0x00, 0x00, 0x00,
  0x00, 0x00, 0x00, 0x00, 0x00, 0x00, 0x00, 0x00, 0x00, 0x00,
  0x00, 0x00, 0x00, 0x00, 0x00, 0x00, 0x00, 0x00, 0x00, 0x00,
  0x00, 0x00, 0x00, 0x00, 0x00, 0x00, 0x00, 0x00, 0x00, 0x00,
  0x00, 0x00, 0x00, 0x00, 0x00, 0x00, 0x00, 0x00, 0x00, 0x00,
  0x00, 0x00, 0x00, 0x00, 0x00, 0x00, 0x00, 0x00, 0x00, 0x00,
  0x00, 0x00, 0x00, 0x00, 0x00, 0x00, 0x10, 0x00, 0x00, 0x00,
  0x61, 0x18, 0xD9, 0x36, 0x00, 0x9A, 0x04, 0x37, 0xDF, 0x25,
  0x54, 0x37, 0xE2, 0x17, 0xD9, 0x36, 0x63, 0xEC, 0xBB, 0x36,
  0xD6, 0x86, 0xCF, 0x36, 0xBE, 0xB2, 0xF4, 0x36, 0x2F, 0x5E,
  0xF6, 0x36, 0x02, 0xFD, 0xBE, 0x36, 0x63, 0x4F, 0xAC, 0x36,
  0x1E, 0x4E, 0x24, 0x37, 0x27, 0x8D, 0xD7, 0x36, 0xBB, 0x64,
  0xD7, 0x36, 0xB1, 0xE4, 0xFA, 0x36, 0xA5, 0x83, 0xBC, 0x36,
  0x3F, 0x34, 0xDE, 0x36, 0x28, 0x00, 0x00, 0x00, 0x73, 0x65,
  0x71, 0x75, 0x65, 0x6E, 0x74, 0x69, 0x61, 0x6C, 0x2F, 0x63,
  0x6F, 0x6E, 0x76, 0x32, 0x64, 0x2F, 0x42, 0x69, 0x61, 0x73,
  0x41, 0x64, 0x64, 0x2F, 0x52, 0x65, 0x61, 0x64, 0x56, 0x61,
  0x72, 0x69, 0x61, 0x62, 0x6C, 0x65, 0x4F, 0x70, 0x00, 0x00,
  0x00, 0x00, 0x01, 0x00, 0x00, 0x00, 0x10, 0x00, 0x00, 0x00,
  0x76, 0xFB, 0xFF, 0xFF, 0x00, 0x00, 0x00, 0x01, 0x28, 0x00,
  0x00, 0x00, 0xFC, 0x00, 0x00, 0x00, 0x0A, 0x00, 0x00, 0x00,
  0x00, 0x00, 0x00, 0x09, 0x1C, 0x01, 0x00, 0x00, 0x00, 0x00,
  0x12, 0x00, 0x10, 0x00, 0x00, 0x00, 0x00, 0x00, 0x0C, 0x00,
  0x08, 0x00, 0x00, 0x00, 0x00, 0x00, 0x04, 0x00, 0x12, 0x00,
  0x00, 0x00, 0x03, 0x00, 0x00, 0x00, 0x08, 0x00, 0x00, 0x00,
  0x88, 0x00, 0x00, 0x00, 0x10, 0x00, 0x00, 0x00, 0x00, 0x00,
  0x00, 0x00, 0x00, 0x00, 0x00, 0x00, 0x00, 0x00, 0x00, 0x00,
  0x00, 0x00, 0x00, 0x00, 0x00, 0x00, 0x00, 0x00, 0x00, 0x00,
  0x00, 0x00, 0x00, 0x00, 0x00, 0x00, 0x00, 0x00, 0x00, 0x00,
  0x00, 0x00, 0x00, 0x00, 0x00, 0x00, 0x00, 0x00, 0x00, 0x00,
  0x00, 0x00, 0x00, 0x00, 0x00, 0x00, 0x00, 0x00, 0x00, 0x00,
  0x00, 0x00, 0x00, 0x00, 0x00, 0x00, 0x00, 0x00, 0x00, 0x00,
  0x00, 0x00, 0x00, 0x00, 0x00, 0x00, 0x00, 0x00, 0x00, 0x00,
  0x00, 0x00, 0x00, 0x00, 0x00, 0x00, 0x00, 0x00, 0x00, 0x00,
  0x00, 0x00, 0x00, 0x00, 0x00, 0x00, 0x00, 0x00, 0x00, 0x00,
  0x00, 0x00, 0x00, 0x00, 0x00, 0x00, 0x00, 0x00, 0x00, 0x00,
  0x00, 0x00, 0x00, 0x00, 0x00, 0x00, 0x00, 0x00, 0x00, 0x00,
  0x00, 0x00, 0x00, 0x00, 0x00, 0x00, 0x00, 0x00, 0x00, 0x00,
  0x00, 0x00, 0x00, 0x00, 0x00, 0x00, 0x10, 0x00, 0x00, 0x00,
  0xEB, 0x2C, 0x7B, 0x3A, 0xE6, 0x09, 0xF7, 0x3A, 0x4D, 0xC5,
  0x91, 0x3A, 0x83, 0x1F, 0xD6, 0x3A, 0x27, 0xE6, 0xF6, 0x3A,
  0x6F, 0xDC, 0x2C, 0x3A, 0x7F, 0xD8, 0x31, 0x3B, 0xCA, 0x76,
  0x00, 0x3B, 0x3A, 0xC3, 0xDB, 0x3A, 0x76, 0xD6, 0x35, 0x3A,
  0x85, 0x29, 0x8D, 0x3A, 0x35, 0x26, 0x0E, 0x3B, 0x3D, 0x95,
  0x1D, 0x3B, 0x6E, 0x69, 0x82, 0x3A, 0xF2, 0x9B, 0x38, 0x3A,
  0x51, 0xF1, 0x08, 0x3B, 0x25, 0x00, 0x00, 0x00, 0x73, 0x65,
  0x71, 0x75, 0x65, 0x6E, 0x74, 0x69, 0x61, 0x6C, 0x2F, 0x64,
  0x65, 0x70, 0x74, 0x68, 0x77, 0x69, 0x73, 0x65, 0x5F, 0x63,
  0x6F, 0x6E, 0x76, 0x32, 0x64, 0x2F, 0x64, 0x65, 0x70, 0x74,
  0x68, 0x77, 0x69, 0x73, 0x65, 0x00, 0x00, 0x00, 0x04, 0x00,
  0x00, 0x00, 0x01, 0x00, 0x00, 0x00, 0x08, 0x00, 0x00, 0x00,
  0x08, 0x00, 0x00, 0x00, 0x10, 0x00, 0x00, 0x00, 0xBE, 0xFC,
  0xFF, 0xFF, 0x00, 0x00, 0x00, 0x01, 0x14, 0x00, 0x00, 0x00,
  0xE4, 0x00, 0x00, 0x00, 0x09, 0x00, 0x00, 0x00, 0x00, 0x00,
  0x00, 0x02, 0x10, 0x01, 0x00, 0x00, 0x24, 0xFC, 0xFF, 0xFF,
  0x08, 0x00, 0x00, 0x00, 0x88, 0x00, 0x00, 0x00, 0x10, 0x00,
  0x00, 0x00, 0x00, 0x00, 0x00, 0x00, 0x00, 0x00, 0x00, 0x00,
  0x00, 0x00, 0x00, 0x00, 0x00, 0x00, 0x00, 0x00, 0x00, 0x00,
  0x00, 0x00, 0x00, 0x00, 0x00, 0x00, 0x00, 0x00, 0x00, 0x00,
  0x00, 0x00, 0x00, 0x00, 0x00, 0x00, 0x00, 0x00, 0x00, 0x00,
  0x00, 0x00, 0x00, 0x00, 0x00, 0x00, 0x00, 0x00, 0x00, 0x00,
  0x00, 0x00, 0x00, 0x00, 0x00, 0x00, 0x00, 0x00, 0x00, 0x00,
  0x00, 0x00, 0x00, 0x00, 0x00, 0x00, 0x00, 0x00, 0x00, 0x00,
  0x00, 0x00, 0x00, 0x00, 0x00, 0x00, 0x00, 0x00, 0x00, 0x00,
  0x00, 0x00, 0x00, 0x00, 0x00, 0x00, 0x00, 0x00, 0x00, 0x00,
  0x00, 0x00, 0x00, 0x00, 0x00, 0x00, 0x00, 0x00, 0x00, 0x00,
  0x00, 0x00, 0x00, 0x00, 0x00, 0x00, 0x00, 0x00, 0x00, 0x00,
  0x00, 0x00, 0x00, 0x00, 0x00, 0x00, 0x00, 0x00, 0x00, 0x00,
  0x00, 0x00, 0x00, 0x00, 0x00, 0x00, 0x00, 0x00, 0x00, 0x00,
  0x10, 0x00, 0x00, 0x00, 0xFF, 0xC1, 0x0D, 0x37, 0x4F, 0x6C,
  0x8B, 0x37, 0x18, 0x8A, 0x24, 0x37, 0x4A, 0xB1, 0x71, 0x37,
  0x22, 0x58, 0x8B, 0x37, 0x29, 0x1E, 0xC3, 0x36, 0x86, 0xBE,
  0xC8, 0x37, 0x21, 0x01, 0x91, 0x37, 0xE3, 0x0E, 0x78, 0x37,
  0x12, 0x40, 0xCD, 0x36, 0x69, 0x56, 0x1F, 0x37, 0xA2, 0x73,
  0xA0, 0x37, 0x61, 0xDF, 0xB1, 0x37, 0xF9, 0x33, 0x13, 0x37,
  0xE7, 0x60, 0xD0, 0x36, 0x20, 0x93, 0x9A, 0x37, 0x32, 0x00,
  0x00, 0x00, 0x73, 0x65, 0x71, 0x75, 0x65, 0x6E, 0x74, 0x69,
  0x61, 0x6C, 0x2F, 0x64, 0x65, 0x70, 0x74, 0x68, 0x77, 0x69,
  0x73, 0x65, 0x5F, 0x63, 0x6F, 0x6E, 0x76, 0x32, 0x64, 0x2F,
  0x42, 0x69, 0x61, 0x73, 0x41, 0x64, 0x64, 0x2F, 0x52, 0x65,
  0x61, 0x64, 0x56, 0x61, 0x72, 0x69, 0x61, 0x62, 0x6C, 0x65,
  0x4F, 0x70, 0x00, 0x00, 0x01, 0x00, 0x00, 0x00, 0x10, 0x00,
  0x00, 0x00, 0xEE, 0xFD, 0xFF, 0xFF, 0x00, 0x00, 0x00, 0x01,
  0x14, 0x00, 0x00, 0x00, 0x34, 0x00, 0x00, 0x00, 0x08, 0x00,
  0x00, 0x00, 0x00, 0x00, 0x00, 0x09, 0x44, 0x00, 0x00, 0x00,
  0x54, 0xFD, 0xFF, 0xFF, 0x08, 0x00, 0x00, 0x00, 0x14, 0x00,
  0x00, 0x00, 0x01, 0x00, 0x00, 0x00, 0x00, 0x00, 0x00, 0x00,
  0x00, 0x00, 0x00, 0x00, 0x00, 0x00, 0x00, 0x00, 0x01, 0x00,
  0x00, 0x00, 0xFF, 0xE6, 0x15, 0x3B, 0x17, 0x00, 0x00, 0x00,
  0x73, 0x65, 0x71, 0x75, 0x65, 0x6E, 0x74, 0x69, 0x61, 0x6C,
  0x2F, 0x64, 0x65, 0x6E, 0x73, 0x65, 0x2F, 0x4D, 0x61, 0x74,
  0x4D, 0x75, 0x6C, 0x00, 0x02, 0x00, 0x00, 0x00, 0x02, 0x00,
  0x00, 0x00, 0x00, 0x04, 0x00, 0x00, 0x56, 0xFE, 0xFF, 0xFF,
  0x00, 0x00, 0x00, 0x01, 0x14, 0x00, 0x00, 0x00, 0x30, 0x00,
  0x00, 0x00, 0x07, 0x00, 0x00, 0x00, 0x00, 0x00, 0x00, 0x02,
  0x50, 0x00, 0x00, 0x00, 0xBC, 0xFD, 0xFF, 0xFF, 0x08, 0x00,
  0x00, 0x00, 0x10, 0x00, 0x00, 0x00, 0x01, 0x00, 0x00, 0x00,
  0x00, 0x00, 0x00, 0x00, 0x00, 0x00, 0x00, 0x00, 0x01, 0x00,
  0x00, 0x00, 0xBD, 0x2D, 0xA4, 0x37, 0x27, 0x00, 0x00, 0x00,
  0x73, 0x65, 0x71, 0x75, 0x65, 0x6E, 0x74, 0x69, 0x61, 0x6C,
  0x2F, 0x64, 0x65, 0x6E, 0x73, 0x65, 0x2F, 0x42, 0x69, 0x61,
  0x73, 0x41, 0x64, 0x64, 0x2F, 0x52, 0x65, 0x61, 0x64, 0x56,
  0x61, 0x72, 0x69, 0x61, 0x62, 0x6C, 0x65, 0x4F, 0x70, 0x00,
  0x01, 0x00, 0x00, 0x00, 0x02, 0x00, 0x00, 0x00, 0xC6, 0xFE,
  0xFF, 0xFF, 0x00, 0x00, 0x00, 0x01, 0x14, 0x00, 0x00, 0x00,
  0x14, 0x00, 0x00, 0x00, 0x06, 0x00, 0x00, 0x00, 0x00, 0x00,
  0x00, 0x02, 0x28, 0x00, 0x00, 0x00, 0xB0, 0xFE, 0xFF, 0xFF,
  0x18, 0x00, 0x00, 0x00, 0x73, 0x65, 0x71, 0x75, 0x65, 0x6E,
  0x74, 0x69, 0x61, 0x6C, 0x2F, 0x66, 0x6C, 0x61, 0x74, 0x74,
  0x65, 0x6E, 0x2F, 0x43, 0x6F, 0x6E, 0x73, 0x74, 0x00, 0x00,
  0x00, 0x00, 0x01, 0x00, 0x00, 0x00, 0x02, 0x00, 0x00, 0x00,
  0x0E, 0xFF, 0xFF, 0xFF, 0x00, 0x00, 0x00, 0x01, 0x14, 0x00,
  0x00, 0x00, 0x14, 0x00, 0x00, 0x00, 0x03, 0x00, 0x00, 0x00,
  0x00, 0x00, 0x00, 0x02, 0x30, 0x00, 0x00, 0x00, 0xF8, 0xFE,
  0xFF, 0xFF, 0x22, 0x00, 0x00, 0x00, 0x73, 0x65, 0x71, 0x75,
  0x65, 0x6E, 0x74, 0x69, 0x61, 0x6C, 0x2F, 0x72, 0x65, 0x73,
  0x68, 0x61, 0x70, 0x65, 0x2F, 0x52, 0x65, 0x73, 0x68, 0x61,
  0x70, 0x65, 0x2F, 0x73, 0x68, 0x61, 0x70, 0x65, 0x2F, 0x33,
  0x00, 0x00, 0x00, 0x00, 0x00, 0x00, 0x5A, 0xFF, 0xFF, 0xFF,
  0x00, 0x00, 0x00, 0x01, 0x14, 0x00, 0x00, 0x00, 0x14, 0x00,
  0x00, 0x00, 0x04, 0x00, 0x00, 0x00, 0x00, 0x00, 0x00, 0x02,
  0x30, 0x00, 0x00, 0x00, 0x44, 0xFF, 0xFF, 0xFF, 0x22, 0x00,
  0x00, 0x00, 0x73, 0x65, 0x71, 0x75, 0x65, 0x6E, 0x74, 0x69,
  0x61, 0x6C, 0x2F, 0x72, 0x65, 0x73, 0x68, 0x61, 0x70, 0x65,
  0x2F, 0x52, 0x65, 0x73, 0x68, 0x61, 0x70, 0x65, 0x2F, 0x73,
  0x68, 0x61, 0x70, 0x65, 0x2F, 0x31, 0x00, 0x00, 0x00, 0x00,
  0x00, 0x00, 0xA6, 0xFF, 0xFF, 0xFF, 0x00, 0x00, 0x00, 0x01,
  0x14, 0x00, 0x00, 0x00, 0x14, 0x00, 0x00, 0x00, 0x03, 0x00,
  0x00, 0x00, 0x00, 0x00, 0x00, 0x02, 0x38, 0x00, 0x00, 0x00,
  0x90, 0xFF, 0xFF, 0xFF, 0x28, 0x00, 0x00, 0x00, 0x73, 0x65,
  0x71, 0x75, 0x65, 0x6E, 0x74, 0x69, 0x61, 0x6C, 0x2F, 0x72,
  0x65, 0x73, 0x68, 0x61, 0x70, 0x65, 0x2F, 0x73, 0x74, 0x72,
  0x69, 0x64, 0x65, 0x64, 0x5F, 0x73, 0x6C, 0x69, 0x63, 0x65,
  0x2F, 0x73, 0x74, 0x61, 0x63, 0x6B, 0x5F, 0x31, 0x00, 0x00,
  0x00, 0x00, 0x01, 0x00, 0x00, 0x00, 0x01, 0x00, 0x00, 0x00,
  0x00, 0x00, 0x16, 0x00, 0x1C, 0x00, 0x18, 0x00, 0x17, 0x00,
  0x10, 0x00, 0x0C, 0x00, 0x08, 0x00, 0x00, 0x00, 0x00, 0x00,
  0x00, 0x00, 0x07, 0x00, 0x16, 0x00, 0x00, 0x00, 0x00, 0x00,
  0x00, 0x01, 0x18, 0x00, 0x00, 0x00, 0x18, 0x00, 0x00, 0x00,
  0x02, 0x00, 0x00, 0x00, 0x00, 0x00, 0x00, 0x02, 0x38, 0x00,
  0x00, 0x00, 0x04, 0x00, 0x04, 0x00, 0x04, 0x00, 0x00, 0x00,
  0x26, 0x00, 0x00, 0x00, 0x73, 0x65, 0x71, 0x75, 0x65, 0x6E,
  0x74, 0x69, 0x61, 0x6C, 0x2F, 0x72, 0x65, 0x73, 0x68, 0x61,
  0x70, 0x65, 0x2F, 0x73, 0x74, 0x72, 0x69, 0x64, 0x65, 0x64,
  0x5F, 0x73, 0x6C, 0x69, 0x63, 0x65, 0x2F, 0x73, 0x74, 0x61,
  0x63, 0x6B, 0x00, 0x00, 0x01, 0x00, 0x00, 0x00, 0x01, 0x00,
  0x00, 0x00, 0x00, 0x00, 0x16, 0x00, 0x20, 0x00, 0x1C, 0x00,
  0x1B, 0x00, 0x14, 0x00, 0x10, 0x00, 0x0C, 0x00, 0x00, 0x00,
  0x00, 0x00, 0x08, 0x00, 0x07, 0x00, 0x16, 0x00, 0x00, 0x00,
  0x00, 0x00, 0x00, 0x01, 0x18, 0x00, 0x00, 0x00, 0x30, 0x00,
  0x00, 0x00, 0x50, 0x00, 0x00, 0x00, 0x01, 0x00, 0x00, 0x00,
  0x00, 0x00, 0x00, 0x09, 0x68, 0x00, 0x00, 0x00, 0x03, 0x00,
  0x00, 0x00, 0xFF, 0xFF, 0xFF, 0xFF, 0x60, 0x00, 0x00, 0x00,
  0x60, 0x00, 0x00, 0x00, 0x0C, 0x00, 0x0C, 0x00, 0x00, 0x00,
  0x00, 0x00, 0x08, 0x00, 0x04, 0x00, 0x0C, 0x00, 0x00, 0x00,
  0x08, 0x00, 0x00, 0x00, 0x14, 0x00, 0x00, 0x00, 0x01, 0x00,
  0x00, 0x00, 0x80, 0xFF, 0xFF, 0xFF, 0xFF, 0xFF, 0xFF, 0xFF,
  0x00, 0x00, 0x00, 0x00, 0x01, 0x00, 0x00, 0x00, 0x00, 0x00,
  0x80, 0x3F, 0x1F, 0x00, 0x00, 0x00, 0x73, 0x65, 0x72, 0x76,
  0x69, 0x6E, 0x67, 0x5F, 0x64, 0x65, 0x66, 0x61, 0x75, 0x6C,
  0x74, 0x5F, 0x72, 0x65, 0x73, 0x68, 0x61, 0x70, 0x65, 0x5F,
  0x69, 0x6E, 0x70, 0x75, 0x74, 0x3A, 0x30, 0x00, 0x03, 0x00,
  0x00, 0x00, 0x01, 0x00, 0x00, 0x00, 0x60, 0x00, 0x00, 0x00,
  0x60, 0x00, 0x00, 0x00, 0x09, 0x00, 0x00, 0x00, 0xB0, 0x00,
  0x00, 0x00, 0x94, 0x00, 0x00, 0x00, 0x84, 0x00, 0x00, 0x00,
  0x74, 0x00, 0x00, 0x00, 0x60, 0x00, 0x00, 0x00, 0x40, 0x00,
  0x00, 0x00, 0x2C, 0x00, 0x00, 0x00, 0x18, 0x00, 0x00, 0x00,
  0x04, 0x00, 0x00, 0x00, 0xC0, 0xFF, 0xFF, 0xFF, 0x19, 0x00,
  0x00, 0x00, 0x02, 0x00, 0x00, 0x00, 0x00, 0x00, 0x00, 0x19,
  0xD0, 0xFF, 0xFF, 0xFF, 0x09, 0x00, 0x00, 0x00, 0x04, 0x00,
  0x00, 0x00, 0x00, 0x00, 0x00, 0x09, 0xE0, 0xFF, 0xFF, 0xFF,
  0x04, 0x00, 0x00, 0x00, 0x03, 0x00, 0x00, 0x00, 0x00, 0x00,
  0x00, 0x04, 0xF0, 0xFF, 0xFF, 0xFF, 0x11, 0x00, 0x00, 0x00,
  0x02, 0x00, 0x00, 0x00, 0x00, 0x00, 0x00, 0x11, 0x0C, 0x00,
  0x10, 0x00, 0x0F, 0x00, 0x00, 0x00, 0x08, 0x00, 0x04, 0x00,
  0x0C, 0x00, 0x00, 0x00, 0x03, 0x00, 0x00, 0x00, 0x03, 0x00,
  0x00, 0x00, 0x00, 0x00, 0x00, 0x03, 0xDC, 0xFF, 0xFF, 0xFF,
  0x16, 0x00, 0x00, 0x00, 0x00, 0x00, 0x00, 0x16, 0xE8, 0xFF,
  0xFF, 0xFF, 0x53, 0x00, 0x00, 0x00, 0x00, 0x00, 0x00, 0x53,
  0xF4, 0xFF, 0xFF, 0xFF, 0x2D, 0x00, 0x00, 0x00, 0x00, 0x00,
  0x00, 0x2D, 0x0C, 0x00, 0x0C, 0x00, 0x0B, 0x00, 0x00, 0x00,
  0x00, 0x00, 0x04, 0x00, 0x0C, 0x00, 0x00, 0x00, 0x4D, 0x00,
  0x00, 0x00, 0x00, 0x00, 0x00, 0x4D
};
const unsigned int model_tflite_len = 8936;