#include "model.h"
const unsigned char model_tflite[] = {
  0x1C, 0x00, 0x00, 0x00, 0x54, 0x46, 0x4C, 0x33, 0x14, 0x00,
  0x20, 0x00, 0x1C, 0x00, 0x18, 0x00, 0x14, 0x00, 0x10, 0x00,
  0x0C, 0x00, 0x00, 0x00, 0x08, 0x00, 0x04, 0x00, 0x14, 0x00,
  0x00, 0x00, 0x1C, 0x00, 0x00, 0x00, 0x88, 0x00, 0x00, 0x00,
  0xE0, 0x00, 0x00, 0x00, 0xC4, 0x07, 0x00, 0x00, 0xD4, 0x07,
  0x00, 0x00, 0xAC, 0x1A, 0x00, 0x00, 0x03, 0x00, 0x00, 0x00,
  0x01, 0x00, 0x00, 0x00, 0x04, 0x00, 0x00, 0x00, 0x1A, 0xF6,
  0xFF, 0xFF, 0x0C, 0x00, 0x00, 0x00, 0x1C, 0x00, 0x00, 0x00,
  0x38, 0x00, 0x00, 0x00, 0x0F, 0x00, 0x00, 0x00, 0x73, 0x65,
  0x72, 0x76, 0x69, 0x6E, 0x67, 0x5F, 0x64, 0x65, 0x66, 0x61,
  0x75, 0x6C, 0x74, 0x00, 0x01, 0x00, 0x00, 0x00, 0x04, 0x00,
  0x00, 0x00, 0x94, 0xFF, 0xFF, 0xFF, 0x16, 0x00, 0x00, 0x00,
  0x04, 0x00, 0x00, 0x00, 0x07, 0x00, 0x00, 0x00, 0x64, 0x65,
  0x6E, 0x73, 0x65, 0x5F, 0x31, 0x00, 0x01, 0x00, 0x00, 0x00,
  0x04, 0x00, 0x00, 0x00, 0x1E, 0xF6, 0xFF, 0xFF, 0x04, 0x00,
  0x00, 0x00, 0x0F, 0x00, 0x00, 0x00, 0x72, 0x65, 0x73, 0x68,
  0x61, 0x70, 0x65, 0x5F, 0x31, 0x5F, 0x69, 0x6E, 0x70, 0x75,
  0x74, 0x00, 0x02, 0x00, 0x00, 0x00, 0x34, 0x00, 0x00, 0x00,
  0x04, 0x00, 0x00, 0x00, 0xDC, 0xFF, 0xFF, 0xFF, 0x19, 0x00,
  0x00, 0x00, 0x04, 0x00, 0x00, 0x00, 0x13, 0x00, 0x00, 0x00,
  0x43, 0x4F, 0x4E, 0x56, 0x45, 0x52, 0x53, 0x49, 0x4F, 0x4E,
  0x5F, 0x4D, 0x45, 0x54, 0x41, 0x44, 0x41, 0x54, 0x41, 0x00,
  0x08, 0x00, 0x0C, 0x00, 0x08, 0x00, 0x04, 0x00, 0x08, 0x00,
  0x00, 0x00, 0x18, 0x00, 0x00, 0x00, 0x04, 0x00, 0x00, 0x00,
  0x13, 0x00, 0x00, 0x00, 0x6D, 0x69, 0x6E, 0x5F, 0x72, 0x75,
  0x6E, 0x74, 0x69, 0x6D, 0x65, 0x5F, 0x76, 0x65, 0x72, 0x73,
  0x69, 0x6F, 0x6E, 0x00, 0x1A, 0x00, 0x00, 0x00, 0xE0, 0x06,
  0x00, 0x00, 0xD8, 0x06, 0x00, 0x00, 0xC4, 0x06, 0x00, 0x00,
  0xB0, 0x06, 0x00, 0x00, 0x9C, 0x06, 0x00, 0x00, 0x94, 0x06,
  0x00, 0x00, 0x7C, 0x06, 0x00, 0x00, 0x64, 0x06, 0x00, 0x00,
  0x34, 0x06, 0x00, 0x00, 0xE4, 0x05, 0x00, 0x00, 0xD4, 0x01,
  0x00, 0x00, 0x84, 0x01, 0x00, 0x00, 0xE4, 0x00, 0x00, 0x00,
  0xDC, 0x00, 0x00, 0x00, 0xD4, 0x00, 0x00, 0x00, 0xCC, 0x00,
  0x00, 0x00, 0xC4, 0x00, 0x00, 0x00, 0xBC, 0x00, 0x00, 0x00,
  0xB4, 0x00, 0x00, 0x00, 0xAC, 0x00, 0x00, 0x00, 0xA4, 0x00,
  0x00, 0x00, 0x9C, 0x00, 0x00, 0x00, 0x94, 0x00, 0x00, 0x00,
  0x8C, 0x00, 0x00, 0x00, 0x6C, 0x00, 0x00, 0x00, 0x04, 0x00,
  0x00, 0x00, 0x02, 0xF7, 0xFF, 0xFF, 0x04, 0x00, 0x00, 0x00,
  0x58, 0x00, 0x00, 0x00, 0x0C, 0x00, 0x00, 0x00, 0x08, 0x00,
  0x0E, 0x00, 0x08, 0x00, 0x04, 0x00, 0x08, 0x00, 0x00, 0x00,
  0x10, 0x00, 0x00, 0x00, 0x28, 0x00, 0x00, 0x00, 0x00, 0x00,
  0x06, 0x00, 0x08, 0x00, 0x04, 0x00, 0x06, 0x00, 0x00, 0x00,
  0x04, 0x00, 0x00, 0x00, 0x01, 0x00, 0x00, 0x00, 0xEB, 0x03,
  0x00, 0x00, 0x00, 0x00, 0x0A, 0x00, 0x10, 0x00, 0x0C, 0x00,
  0x08, 0x00, 0x04, 0x00, 0x0A, 0x00, 0x00, 0x00, 0x01, 0x00,
  0x00, 0x00, 0x02, 0x00, 0x00, 0x00, 0x04, 0x00, 0x00, 0x00,
  0x06, 0x00, 0x00, 0x00, 0x32, 0x2E, 0x31, 0x32, 0x2E, 0x30,
  0x00, 0x00, 0x66, 0xF7, 0xFF, 0xFF, 0x04, 0x00, 0x00, 0x00,
  0x10, 0x00, 0x00, 0x00, 0x31, 0x2E, 0x31, 0x34, 0x2E, 0x30,
  0x00, 0x00, 0x00, 0x00, 0x00, 0x00, 0x00, 0x00, 0x00, 0x00,
  0x00, 0xE8, 0xFF, 0xFF, 0x04, 0xE8, 0xFF, 0xFF, 0x08, 0xE8,
  0xFF, 0xFF, 0x0C, 0xE8, 0xFF, 0xFF, 0x10, 0xE8, 0xFF, 0xFF,
  0x14, 0xE8, 0xFF, 0xFF, 0x18, 0xE8, 0xFF, 0xFF, 0x1C, 0xE8,
  0xFF, 0xFF, 0x20, 0xE8, 0xFF, 0xFF, 0x24, 0xE8, 0xFF, 0xFF,
  0x28, 0xE8, 0xFF, 0xFF, 0xAE, 0xF7, 0xFF, 0xFF, 0x04, 0x00,
  0x00, 0x00, 0x90, 0x00, 0x00, 0x00, 0x87, 0x6B, 0xC3, 0x81,
  0x71, 0x12, 0xCB, 0x5A, 0x22, 0x71, 0x3F, 0x7F, 0xF8, 0x38,
  0xB5, 0xB4, 0xDE, 0x26, 0xC8, 0x4C, 0x81, 0x2A, 0xD5, 0xDD,
  0x74, 0x4C, 0x8F, 0x81, 0xEC, 0xF5, 0x66, 0x79, 0x38, 0x39,
  0x1E, 0x7B, 0x87, 0x7F, 0x40, 0x87, 0xEB, 0x33, 0xF8, 0x6B,
  0x35, 0xED, 0x52, 0x3C, 0x81, 0xBD, 0x65, 0x41, 0x87, 0x8F,
  0xCD, 0xD8, 0x27, 0x33, 0x7B, 0x7F, 0xE0, 0x8C, 0xE4, 0xF2,
  0x7F, 0xD6, 0xA9, 0xFB, 0xB7, 0x30, 0xDB, 0x12, 0x46, 0x8E,
  0x81, 0xE7, 0x66, 0x2E, 0x44, 0xCF, 0x2A, 0xAD, 0x50, 0x42,
  0xCC, 0xEC, 0x7F, 0xFE, 0x55, 0x0B, 0x81, 0x7C, 0x0C, 0xD8,
  0x9A, 0xCF, 0x9E, 0xE0, 0x08, 0x44, 0xE9, 0x81, 0xD1, 0x69,
  0x78, 0xAC, 0x73, 0x86, 0xF5, 0x5E, 0x3A, 0xE2, 0xAC, 0xA8,
  0x5F, 0xEF, 0x7F, 0x05, 0x9D, 0xCA, 0x0D, 0x63, 0x25, 0x81,
  0x58, 0x0C, 0xA5, 0x09, 0x9A, 0xAE, 0x64, 0x9E, 0x03, 0x52,
  0x7F, 0xC4, 0xEA, 0x95, 0x8C, 0xC0, 0x81, 0x4F, 0xD6, 0x49,
  0x4A, 0xF8, 0xFF, 0xFF, 0x04, 0x00, 0x00, 0x00, 0x40, 0x00,
  0x00, 0x00, 0xA4, 0x0E, 0x00, 0x00, 0xA7, 0x00, 0x00, 0x00,
  0xE6, 0x12, 0x00, 0x00, 0xD3, 0xFE, 0xFF, 0xFF, 0x15, 0x00,
  0x00, 0x00, 0xCB, 0x44, 0x00, 0x00, 0x46, 0x06, 0x00, 0x00,
  0x6C, 0x39, 0x00, 0x00, 0x2C, 0x04, 0x00, 0x00, 0xFA, 0xF4,
  0xFF, 0xFF, 0xB7, 0xF0, 0xFF, 0xFF, 0x2A, 0x00, 0x00, 0x00,
  0x19, 0x04, 0x00, 0x00, 0x18, 0xF5, 0xFF, 0xFF, 0xE0, 0x2B,
  0x00, 0x00, 0x5F, 0xF8, 0xFF, 0xFF, 0x96, 0xF8, 0xFF, 0xFF,
  0x04, 0x00, 0x00, 0x00, 0x00, 0x04, 0x00, 0x00, 0x07, 0x17,
  0x1C, 0xA4, 0x33, 0x16, 0x24, 0x21, 0xFD, 0x0F, 0x8A, 0xE7,
  0x38, 0xF2, 0x27, 0x89, 0x35, 0x22, 0xD7, 0x45, 0x50, 0x18,
  0xFF, 0xE1, 0x0F, 0x2D, 0x0F, 0xA0, 0x6D, 0x4B, 0x2A, 0x2E,
  0xE7, 0xCF, 0xC3, 0xC3, 0xB9, 0xE5, 0xEA, 0xDF, 0xB7, 0xD0,
  0xE1, 0x25, 0xCC, 0xC4, 0xF9, 0xC8, 0x0F, 0xDE, 0x35, 0x01,
  0xBE, 0x1C, 0x32, 0x33, 0x3A, 0xB9, 0xF5, 0xF6, 0x41, 0xE2,
  0xFD, 0x9C, 0xFE, 0xEE, 0x3E, 0x90, 0xD1, 0xBB, 0x72, 0xF7,
  0x15, 0xFE, 0xED, 0x2E, 0xB5, 0xED, 0x1C, 0xB6, 0xF8, 0x06,
  0xDA, 0x4A, 0xD9, 0xE8, 0x46, 0x1F, 0xE6, 0x22, 0x6C, 0x35,
  0xE2, 0x61, 0xE0, 0xA8, 0x10, 0x26, 0x40, 0xE3, 0x30, 0x1D,
  0x5C, 0x18, 0xDF, 0xF0, 0xE6, 0x81, 0xF0, 0x1C, 0xFB, 0xFB,
  0x0C, 0xC1, 0xF4, 0x00, 0xC1, 0xFE, 0x6E, 0xFF, 0xE8, 0x33,
  0xCF, 0x34, 0xCD, 0xCD, 0xF7, 0x47, 0xE9, 0xD9, 0x36, 0x37,
  0xD1, 0x08, 0x3E, 0x0D, 0x47, 0x0C, 0xBC, 0xBC, 0x71, 0x27,
  0x15, 0x30, 0x09, 0xA5, 0x17, 0xE1, 0x56, 0xF1, 0x0A, 0xE7,
  0xD4, 0x4B, 0xFD, 0x75, 0x57, 0x37, 0x2A, 0xE4, 0x31, 0x18,
  0xD0, 0xCA, 0xFD, 0xCD, 0x06, 0xE7, 0x15, 0x1D, 0xFD, 0xCC,
  0x7F, 0x3E, 0x26, 0x3C, 0xC6, 0x11, 0x1B, 0xCD, 0x50, 0xCD,
  0x2C, 0x39, 0xB6, 0xC4, 0x2A, 0x1C, 0x64, 0x05, 0x37, 0x8A,
  0x09, 0xE6, 0x2E, 0x99, 0x54, 0xB1, 0x17, 0x16, 0x1C, 0xBC,
  0x0F, 0x3A, 0x1A, 0xA8, 0x20, 0x45, 0xE2, 0x4E, 0x2C, 0xB6,
  0xE7, 0x14, 0x04, 0x04, 0xBC, 0xA9, 0xED, 0x24, 0x27, 0x3B,
  0x16, 0x07, 0x2F, 0xE4, 0xCA, 0x9F, 0xC5, 0x09, 0x38, 0xFE,
  0xCD, 0xBD, 0x0A, 0xDF, 0xAF, 0xDB, 0xFA, 0x35, 0x27, 0xCB,
  0x07, 0x00, 0xB0, 0x04, 0x18, 0x12, 0xF8, 0x2E, 0xD5, 0x1A,
  0xAC, 0x6A, 0xED, 0xAC, 0xF5, 0xCF, 0xD4, 0xD6, 0xEF, 0x2F,
  0xC4, 0x1F, 0xEA, 0x20, 0x20, 0xC3, 0x2C, 0x8E, 0x19, 0x95,
  0x17, 0xC2, 0xE0, 0xCD, 0xAE, 0x9C, 0x39, 0xF6, 0xD1, 0x19,
  0x5A, 0x49, 0xB3, 0x51, 0x29, 0x62, 0x06, 0xAD, 0x01, 0x20,
  0xEF, 0xBB, 0xEC, 0x0C, 0xEF, 0xFE, 0xFE, 0xA5, 0xA6, 0xFA,
  0x2D, 0x0E, 0xFA, 0xD8, 0xF6, 0x9C, 0xA9, 0xFB, 0xED, 0x11,
  0x1B, 0x2E, 0xCB, 0xE8, 0x03, 0xCB, 0x37, 0x27, 0x1D, 0x4C,
  0x33, 0xDE, 0xA2, 0xE5, 0x79, 0xEF, 0xC8, 0xE1, 0x2F, 0x40,
  0x13, 0x1B, 0x4C, 0xBE, 0xE9, 0x36, 0xDD, 0xDA, 0x1D, 0xC0,
  0x2A, 0x2A, 0xBA, 0x43, 0x98, 0x2F, 0x54, 0x31, 0xFB, 0xB6,
  0xFE, 0x19, 0xB7, 0x0F, 0x69, 0xD8, 0x7F, 0xF0, 0xFC, 0xC7,
  0xE4, 0x03, 0x58, 0xDC, 0x1D, 0xB2, 0xFA, 0x41, 0x05, 0xFC,
  0x8C, 0xDB, 0x75, 0xF7, 0x1E, 0xFA, 0x94, 0x19, 0x35, 0x1D,
  0x20, 0xFC, 0x30, 0x3D, 0xB4, 0xCF, 0xB3, 0x24, 0xA9, 0xE8,
  0x26, 0xA2, 0xF6, 0x42, 0x60, 0xA3, 0x20, 0x85, 0x37, 0x7F,
  0xF9, 0x4C, 0x37, 0x95, 0xF1, 0xFD, 0xB6, 0xBE, 0xA7, 0x1F,
  0xAC, 0x32, 0x22, 0xC6, 0xE9, 0x5D, 0xA1, 0xD7, 0xF0, 0x81,
  0xFD, 0xF1, 0xF0, 0xB3, 0x53, 0xCB, 0x56, 0xC3, 0x35, 0x17,
  0x25, 0x44, 0x81, 0x79, 0xF4, 0xD0, 0xBF, 0x17, 0x03, 0xAB,
  0xF9, 0xEA, 0x11, 0xEE, 0x2F, 0xDE, 0xDE, 0x35, 0x15, 0x61,
  0x8D, 0xD0, 0xD9, 0x1C, 0xFB, 0xA9, 0x3A, 0x95, 0x20, 0x45,
  0x2B, 0x5E, 0x27, 0x69, 0xD6, 0x49, 0xDF, 0xDD, 0x12, 0x0C,
  0x54, 0x29, 0x12, 0x0A, 0xEF, 0xAE, 0xEC, 0xFB, 0x01, 0x61,
  0xB4, 0x3F, 0xCB, 0xCE, 0xE2, 0x46, 0x57, 0x19, 0x9F, 0x25,
  0x3A, 0x55, 0xE8, 0x03, 0x01, 0x0D, 0x08, 0x6E, 0x47, 0xB9,
  0x1B, 0x23, 0x21, 0xFC, 0x0B, 0xB4, 0xD1, 0xA1, 0x03, 0x95,
  0x23, 0x55, 0x0D, 0xC4, 0x4D, 0x5B, 0x2C, 0x04, 0xF9, 0x11,
  0xDA, 0x4D, 0x14, 0xDC, 0x4A, 0x39, 0xD2, 0x57, 0xD9, 0x35,
  0x81, 0x49, 0x06, 0x0E, 0xD6, 0x28, 0xE6, 0x8F, 0xEA, 0xFC,
  0x5F, 0x9B, 0x00, 0x20, 0xBF, 0x10, 0xC7, 0x4A, 0x0D, 0x28,
  0xD4, 0xF4, 0x08, 0xEF, 0x17, 0xB4, 0x7F, 0xA7, 0x33, 0x1A,
  0xDD, 0x09, 0xED, 0x2A, 0x29, 0x20, 0x1A, 0xB3, 0xB2, 0x83,
  0x53, 0x58, 0x53, 0x6C, 0x29, 0x59, 0xEE, 0xF3, 0x8D, 0x0E,
  0x4E, 0x43, 0x13, 0x0C, 0x37, 0x94, 0x2D, 0x25, 0x29, 0x37,
  0x2A, 0xDD, 0xC1, 0x69, 0x50, 0xC9, 0xE3, 0x61, 0xD5, 0xEC,
  0xEF, 0x87, 0xE8, 0xF3, 0xEA, 0x22, 0xDF, 0xF8, 0x08, 0x16,
  0x5D, 0xE5, 0x3E, 0x50, 0x4D, 0xD8, 0xA2, 0x1C, 0x95, 0xCD,
  0x06, 0xE5, 0x2F, 0xCB, 0xFC, 0xC8, 0x98, 0x03, 0xFE, 0x32,
  0xE9, 0x01, 0xF5, 0xBE, 0x0B, 0x81, 0xF6, 0xA1, 0x45, 0x2E,
  0xE7, 0x43, 0x05, 0xDE, 0xCA, 0xE3, 0xC4, 0x11, 0xC5, 0xB1,
  0xE7, 0xF2, 0xD9, 0xB9, 0xE3, 0x5C, 0xDE, 0xE6, 0xD0, 0xE5,
  0xFC, 0xE3, 0xEA, 0x1E, 0x1C, 0xA3, 0xBD, 0xC2, 0x13, 0x68,
  0xEB, 0xEF, 0x09, 0x61, 0x99, 0xE1, 0xDC, 0x29, 0x2D, 0xC3,
  0x1B, 0x86, 0x44, 0x04, 0xFB, 0x93, 0xFF, 0xF4, 0x1C, 0x3A,
  0xED, 0xD8, 0xE8, 0x27, 0x15, 0x56, 0x81, 0x39, 0xCA, 0x47,
  0x29, 0x25, 0xEC, 0x06, 0xD2, 0xC1, 0xE9, 0xFD, 0xE9, 0x22,
  0xE5, 0xCE, 0x54, 0x02, 0xBD, 0x20, 0xD1, 0xFD, 0xF1, 0xE9,
  0xA0, 0xBB, 0x56, 0x06, 0x1D, 0x26, 0x35, 0x5E, 0x38, 0x53,
  0x48, 0x01, 0xEE, 0x60, 0xF0, 0xB7, 0xC6, 0xBE, 0x14, 0xCD,
  0xBC, 0x47, 0x0B, 0x5B, 0x98, 0xD5, 0x24, 0x63, 0xF2, 0xCE,
  0x4B, 0xE9, 0xCB, 0xD5, 0x1E, 0xF6, 0xD9, 0xFE, 0x6C, 0x51,
  0xB6, 0x9B, 0x46, 0x06, 0x1B, 0x1F, 0xF2, 0x2C, 0x1F, 0xC5,
  0x03, 0xF8, 0xEC, 0xFA, 0xDD, 0x81, 0xC2, 0xDA, 0x3D, 0x3E,
  0xC3, 0x4E, 0xE5, 0xC2, 0x2F, 0x24, 0x2E, 0xB0, 0xEC, 0x23,
  0x35, 0x07, 0x16, 0xE8, 0xC9, 0x12, 0x00, 0xCA, 0xE0, 0xBD,
  0x31, 0x12, 0x21, 0xC6, 0x00, 0x01, 0xEE, 0xEB, 0xBB, 0x12,
  0x33, 0x24, 0x15, 0x94, 0x24, 0xF0, 0x21, 0xDD, 0xCD, 0xD1,
  0xE6, 0x4E, 0x1F, 0x44, 0x07, 0xD6, 0x38, 0x35, 0xF5, 0x52,
  0xF5, 0xCF, 0xDF, 0x12, 0x53, 0xE2, 0xE5, 0x43, 0x1A, 0xF7,
  0x12, 0x99, 0xE3, 0xB9, 0xEA, 0xD1, 0xF9, 0xF3, 0xE5, 0xC9,
  0xF1, 0xEC, 0xBC, 0x7F, 0x30, 0xEB, 0x28, 0x8B, 0xC7, 0x18,
  0x03, 0x3F, 0x25, 0x15, 0xAC, 0xE4, 0xCD, 0xDB, 0xC1, 0x39,
  0x24, 0x05, 0x32, 0x95, 0x48, 0x0E, 0x0D, 0x8E, 0x7F, 0xB8,
  0x24, 0x08, 0xFA, 0x00, 0x05, 0x40, 0x38, 0xAC, 0x9E, 0x42,
  0xC1, 0x10, 0xE2, 0xC1, 0x0F, 0x06, 0xD8, 0x92, 0x9F, 0xB4,
  0xCE, 0x28, 0x12, 0xE3, 0xC3, 0x58, 0x3B, 0x44, 0xC9, 0x81,
  0xD8, 0x2B, 0xDF, 0x9E, 0xFD, 0xFA, 0xD5, 0xF7, 0x02, 0x08,
  0xD0, 0x4E, 0x20, 0x40, 0x02, 0xFF, 0xF7, 0x13, 0xCD, 0x02,
  0x05, 0xC4, 0xF3, 0x01, 0xC4, 0xB6, 0x87, 0xBC, 0x41, 0xBE,
  0x25, 0xF1, 0x3B, 0xC2, 0xFC, 0x49, 0xE4, 0xAF, 0xFB, 0x2A,
  0x49, 0x5C, 0x46, 0x22, 0x0E, 0x28, 0xFA, 0xDB, 0xCE, 0x37,
  0x0A, 0xDC, 0x58, 0xC1, 0xBA, 0x0F, 0x7F, 0x74, 0x5B, 0x2B,
  0xA9, 0x95, 0xFF, 0x0E, 0x36, 0xE1, 0xEB, 0x0B, 0xC9, 0xD3,
  0xFE, 0x4A, 0x2A, 0x43, 0x92, 0x1D, 0xEE, 0xAD, 0x0D, 0x57,
  0x67, 0x2B, 0xD5, 0xFA, 0xD6, 0x1B, 0xDC, 0x02, 0xF5, 0x0A,
  0x48, 0x74, 0xC8, 0xB3, 0xE6, 0x75, 0x45, 0x3E, 0x0E, 0x7F,
  0xFE, 0x12, 0xC4, 0x02, 0xD2, 0x90, 0x31, 0xD8, 0xE3, 0x5D,
  0x09, 0x53, 0xA2, 0xFC, 0xFF, 0xFF, 0x04, 0x00, 0x00, 0x00,
  0x40, 0x00, 0x00, 0x00, 0x05, 0x09, 0x00, 0x00, 0x24, 0x0D,
  0x00, 0x00, 0x15, 0xFF, 0xFF, 0xFF, 0x23, 0x11, 0x00, 0x00,
  0x9E, 0xEE, 0xFF, 0xFF, 0x01, 0x28, 0x00, 0x00, 0xB0, 0x11,
  0x00, 0x00, 0x35, 0x09, 0x00, 0x00, 0x9B, 0x1C, 0x00, 0x00,
  0x08, 0xFE, 0xFF, 0xFF, 0x10, 0xED, 0xFF, 0xFF, 0x9E, 0xE3,
  0xFF, 0xFF, 0x18, 0x10, 0x00, 0x00, 0xF7, 0xE1, 0xFF, 0xFF,
  0x40, 0x08, 0x00, 0x00, 0x89, 0xE3, 0xFF, 0xFF, 0xEE, 0xFC,
  0xFF, 0xFF, 0x04, 0x00, 0x00, 0x00, 0x20, 0x00, 0x00, 0x00,
  0x98, 0x02, 0xCB, 0xA4, 0x7F, 0x73, 0xA7, 0xA1, 0x8D, 0x08,
  0x30, 0x23, 0xA9, 0xBC, 0x96, 0x1C, 0x58, 0x29, 0xAC, 0x4B,
  0x8E, 0xD6, 0xEE, 0x74, 0x42, 0xEA, 0x89, 0xD1, 0xDC, 0xAB,
  0x67, 0xD7, 0x1A, 0xFD, 0xFF, 0xFF, 0x04, 0x00, 0x00, 0x00,
  0x08, 0x00, 0x00, 0x00, 0x75, 0xFB, 0xFF, 0xFF, 0x8B, 0x04,
  0x00, 0x00, 0x2E, 0xFD, 0xFF, 0xFF, 0x04, 0x00, 0x00, 0x00,
  0x08, 0x00, 0x00, 0x00, 0xFF, 0xFF, 0xFF, 0xFF, 0x10, 0x00,
  0x00, 0x00, 0xC0, 0xED, 0xFF, 0xFF, 0x46, 0xFD, 0xFF, 0xFF,
  0x04, 0x00, 0x00, 0x00, 0x04, 0x00, 0x00, 0x00, 0x0A, 0x00,
  0x00, 0x00, 0x56, 0xFD, 0xFF, 0xFF, 0x04, 0x00, 0x00, 0x00,
  0x04, 0x00, 0x00, 0x00, 0x01, 0x00, 0x00, 0x00, 0x66, 0xFD,
  0xFF, 0xFF, 0x04, 0x00, 0x00, 0x00, 0x04, 0x00, 0x00, 0x00,
  0x00, 0x00, 0x00, 0x00, 0xF4, 0xED, 0xFF, 0xFF, 0xF8, 0xED,
  0xFF, 0xFF, 0x0F, 0x00, 0x00, 0x00, 0x4D, 0x4C, 0x49, 0x52,
  0x20, 0x43, 0x6F, 0x6E, 0x76, 0x65, 0x72, 0x74, 0x65, 0x64,
  0x2E, 0x00, 0x01, 0x00, 0x00, 0x00, 0x14, 0x00, 0x00, 0x00,
  0x00, 0x00, 0x0E, 0x00, 0x18, 0x00, 0x14, 0x00, 0x10, 0x00,
  0x0C, 0x00, 0x08, 0x00, 0x04, 0x00, 0x0E, 0x00, 0x00, 0x00,
  0x14, 0x00, 0x00, 0x00, 0x1C, 0x00, 0x00, 0x00, 0x14, 0x03,
  0x00, 0x00, 0x18, 0x03, 0x00, 0x00, 0x1C, 0x03, 0x00, 0x00,
  0x04, 0x00, 0x00, 0x00, 0x6D, 0x61, 0x69, 0x6E, 0x00, 0x00,
  0x00, 0x00, 0x0B, 0x00, 0x00, 0x00, 0xC4, 0x02, 0x00, 0x00,
  0x64, 0x02, 0x00, 0x00, 0x0C, 0x02, 0x00, 0x00, 0xE4, 0x01,
  0x00, 0x00, 0x88, 0x01, 0x00, 0x00, 0x34, 0x01, 0x00, 0x00,
  0xDC, 0x00, 0x00, 0x00, 0x98, 0x00, 0x00, 0x00, 0x70, 0x00,
  0x00, 0x00, 0x38, 0x00, 0x00, 0x00, 0x04, 0x00, 0x00, 0x00,
  0xD2, 0xFD, 0xFF, 0xFF, 0x14, 0x00, 0x00, 0x00, 0x00, 0x00,
  0x00, 0x09, 0x14, 0x00, 0x00, 0x00, 0x18, 0x00, 0x00, 0x00,
  0x08, 0x00, 0x00, 0x00, 0x16, 0xFE, 0xFF, 0xFF, 0x00, 0x00,
  0x80, 0x3F, 0x01, 0x00, 0x00, 0x00, 0x16, 0x00, 0x00, 0x00,
  0x01, 0x00, 0x00, 0x00, 0x15, 0x00, 0x00, 0x00, 0x02, 0xFE,
  0xFF, 0xFF, 0x14, 0x00, 0x00, 0x00, 0x00, 0x00, 0x00, 0x08,
  0x10, 0x00, 0x00, 0x00, 0x14, 0x00, 0x00, 0x00, 0x07, 0x00,
  0x00, 0x00, 0xC4, 0xEE, 0xFF, 0xFF, 0x01, 0x00, 0x00, 0x00,
  0x15, 0x00, 0x00, 0x00, 0x03, 0x00, 0x00, 0x00, 0x14, 0x00,
  0x00, 0x00, 0x07, 0x00, 0x00, 0x00, 0x06, 0x00, 0x00, 0x00,
  0xAA, 0xFE, 0xFF, 0xFF, 0x0C, 0x00, 0x00, 0x00, 0x10, 0x00,
  0x00, 0x00, 0x03, 0x00, 0x00, 0x00, 0x01, 0x00, 0x00, 0x00,
  0x14, 0x00, 0x00, 0x00, 0x02, 0x00, 0x00, 0x00, 0x13, 0x00,
  0x00, 0x00, 0x05, 0x00, 0x00, 0x00, 0x5A, 0xFE, 0xFF, 0xFF,
  0x14, 0x00, 0x00, 0x00, 0x00, 0x00, 0x00, 0x05, 0x24, 0x00,
  0x00, 0x00, 0x28, 0x00, 0x00, 0x00, 0x05, 0x00, 0x00, 0x00,
  0x6A, 0xFF, 0xFF, 0xFF, 0x02, 0x00, 0x00, 0x00, 0x02, 0x00,
  0x00, 0x00, 0x02, 0x00, 0x00, 0x00, 0x02, 0x00, 0x00, 0x00,
  0x00, 0x00, 0x00, 0x01, 0x01, 0x00, 0x00, 0x00, 0x13, 0x00,
  0x00, 0x00, 0x01, 0x00, 0x00, 0x00, 0x12, 0x00, 0x00, 0x00,
  0x9A, 0xFE, 0xFF, 0xFF, 0x24, 0x00, 0x00, 0x00, 0x00, 0x00,
  0x00, 0x02, 0x30, 0x00, 0x00, 0x00, 0x34, 0x00, 0x00, 0x00,
  0x06, 0x00, 0x00, 0x00, 0x00, 0x00, 0x0E, 0x00, 0x14, 0x00,
  0x00, 0x00, 0x10, 0x00, 0x0C, 0x00, 0x08, 0x00, 0x07, 0x00,
  0x0E, 0x00, 0x00, 0x00, 0x00, 0x00, 0x00, 0x01, 0x01, 0x00,
  0x00, 0x00, 0x03, 0x00, 0x00, 0x00, 0x03, 0x00, 0x00, 0x00,
  0x01, 0x00, 0x00, 0x00, 0x12, 0x00, 0x00, 0x00, 0x03, 0x00,
  0x00, 0x00, 0x11, 0x00, 0x00, 0x00, 0x09, 0x00, 0x00, 0x00,
  0x08, 0x00, 0x00, 0x00, 0xEE, 0xFE, 0xFF, 0xFF, 0x24, 0x00,
  0x00, 0x00, 0x00, 0x00, 0x00, 0x05, 0x34, 0x00, 0x00, 0x00,
  0x38, 0x00, 0x00, 0x00, 0x05, 0x00, 0x00, 0x00, 0x00, 0x00,
  0x0E, 0x00, 0x18, 0x00, 0x17, 0x00, 0x10, 0x00, 0x0C, 0x00,
  0x08, 0x00, 0x04, 0x00, 0x0E, 0x00, 0x00, 0x00, 0x02, 0x00,
  0x00, 0x00, 0x02, 0x00, 0x00, 0x00, 0x02, 0x00, 0x00, 0x00,
  0x02, 0x00, 0x00, 0x00, 0x00, 0x00, 0x00, 0x01, 0x01, 0x00,
  0x00, 0x00, 0x11, 0x00, 0x00, 0x00, 0x01, 0x00, 0x00, 0x00,
  0x10, 0x00, 0x00, 0x00, 0x3E, 0xFF, 0xFF, 0xFF, 0x20, 0x00,
  0x00, 0x00, 0x00, 0x00, 0x00, 0x01, 0x28, 0x00, 0x00, 0x00,
  0x2C, 0x00, 0x00, 0x00, 0x04, 0x00, 0x00, 0x00, 0x0C, 0x00,
  0x10, 0x00, 0x00, 0x00, 0x0C, 0x00, 0x08, 0x00, 0x07, 0x00,
  0x0C, 0x00, 0x00, 0x00, 0x00, 0x00, 0x00, 0x01, 0x01, 0x00,
  0x00, 0x00, 0x01, 0x00, 0x00, 0x00, 0x01, 0x00, 0x00, 0x00,
  0x10, 0x00, 0x00, 0x00, 0x03, 0x00, 0x00, 0x00, 0x0F, 0x00,
  0x00, 0x00, 0x0B, 0x00, 0x00, 0x00, 0x0A, 0x00, 0x00, 0x00,
  0x00, 0x00, 0x0A, 0x00, 0x10, 0x00, 0x0C, 0x00, 0x08, 0x00,
  0x04, 0x00, 0x0A, 0x00, 0x00, 0x00, 0x0C, 0x00, 0x00, 0x00,
  0x10, 0x00, 0x00, 0x00, 0x03, 0x00, 0x00, 0x00, 0x01, 0x00,
  0x00, 0x00, 0x0F, 0x00, 0x00, 0x00, 0x02, 0x00, 0x00, 0x00,
  0x00, 0x00, 0x00, 0x00, 0x0E, 0x00, 0x00, 0x00, 0xBA, 0xFF,
  0xFF, 0xFF, 0x1C, 0x00, 0x00, 0x00, 0x00, 0x00, 0x00, 0x3B,
  0x1C, 0x00, 0x00, 0x00, 0x20, 0x00, 0x00, 0x00, 0x02, 0x00,
  0x00, 0x00, 0x00, 0x00, 0x06, 0x00, 0x08, 0x00, 0x04, 0x00,
  0x06, 0x00, 0x00, 0x00, 0x04, 0x00, 0x00, 0x00, 0x01, 0x00,
  0x00, 0x00, 0x0E, 0x00, 0x00, 0x00, 0x04, 0x00, 0x00, 0x00,
  0x0D, 0x00, 0x00, 0x00, 0x03, 0x00, 0x00, 0x00, 0x03, 0x00,
  0x00, 0x00, 0x04, 0x00, 0x00, 0x00, 0x00, 0x00, 0x0E, 0x00,
  0x1A, 0x00, 0x14, 0x00, 0x10, 0x00, 0x0C, 0x00, 0x0B, 0x00,
  0x04, 0x00, 0x0E, 0x00, 0x00, 0x00, 0x24, 0x00, 0x00, 0x00,
  0x00, 0x00, 0x00, 0x20, 0x24, 0x00, 0x00, 0x00, 0x28, 0x00,
  0x00, 0x00, 0x01, 0x00, 0x00, 0x00, 0x00, 0x00, 0x0E, 0x00,
  0x08, 0x00, 0x00, 0x00, 0x00, 0x00, 0x00, 0x00, 0x00, 0x00,
  0x04, 0x00, 0x0E, 0x00, 0x00, 0x00, 0x01, 0x00, 0x00, 0x00,
  0x01, 0x00, 0x00, 0x00, 0x0D, 0x00, 0x00, 0x00, 0x04, 0x00,
  0x00, 0x00, 0x0C, 0x00, 0x00, 0x00, 0x01, 0x00, 0x00, 0x00,
  0x02, 0x00, 0x00, 0x00, 0x02, 0x00, 0x00, 0x00, 0x00, 0x00,
  0x0E, 0x00, 0x16, 0x00, 0x00, 0x00, 0x10, 0x00, 0x0C, 0x00,
  0x0B, 0x00, 0x04, 0x00, 0x0E, 0x00, 0x00, 0x00, 0x18, 0x00,
  0x00, 0x00, 0x00, 0x00, 0x00, 0x37, 0x18, 0x00, 0x00, 0x00,
  0x1C, 0x00, 0x00, 0x00, 0x00, 0x00, 0x06, 0x00, 0x08, 0x00,
  0x07, 0x00, 0x06, 0x00, 0x00, 0x00, 0x00, 0x00, 0x00, 0x02,
  0x01, 0x00, 0x00, 0x00, 0x0C, 0x00, 0x00, 0x00, 0x01, 0x00,
  0x00, 0x00, 0x00, 0x00, 0x00, 0x00, 0x01, 0x00, 0x00, 0x00,
  0x16, 0x00, 0x00, 0x00, 0x01, 0x00, 0x00, 0x00, 0x00, 0x00,
  0x00, 0x00, 0x17, 0x00, 0x00, 0x00, 0xFC, 0x0E, 0x00, 0x00,
  0x84, 0x0E, 0x00, 0x00, 0x0C, 0x0E, 0x00, 0x00, 0xB8, 0x0D,
  0x00, 0x00, 0x64, 0x0D, 0x00, 0x00, 0x14, 0x0D, 0x00, 0x00,
  0x9C, 0x0C, 0x00, 0x00, 0x30, 0x0C, 0x00, 0x00, 0xF4, 0x0A,
  0x00, 0x00, 0xA0, 0x09, 0x00, 0x00, 0x6C, 0x08, 0x00, 0x00,
  0xB0, 0x06, 0x00, 0x00, 0x60, 0x06, 0x00, 0x00, 0x0C, 0x06,
  0x00, 0x00, 0xB4, 0x05, 0x00, 0x00, 0x20, 0x05, 0x00, 0x00,
  0xFC, 0x03, 0x00, 0x00, 0x60, 0x03, 0x00, 0x00, 0x3C, 0x02,
  0x00, 0x00, 0xA0, 0x01, 0x00, 0x00, 0x1C, 0x01, 0x00, 0x00,
  0x80, 0x00, 0x00, 0x00, 0x04, 0x00, 0x00, 0x00, 0x76, 0xF1,
  0xFF, 0xFF, 0x00, 0x00, 0x00, 0x01, 0x18, 0x00, 0x00, 0x00,
  0x20, 0x00, 0x00, 0x00, 0x3C, 0x00, 0x00, 0x00, 0x17, 0x00,
  0x00, 0x00, 0x00, 0x00, 0x00, 0x09, 0x50, 0x00, 0x00, 0x00,
  0x02, 0x00, 0x00, 0x00, 0xFF, 0xFF, 0xFF, 0xFF, 0x02, 0x00,
  0x00, 0x00, 0x5C, 0xF1, 0xFF, 0xFF, 0x08, 0x00, 0x00, 0x00,
  0x10, 0x00, 0x00, 0x00, 0x01, 0x00, 0x00, 0x00, 0x80, 0xFF,
  0xFF, 0xFF, 0xFF, 0xFF, 0xFF, 0xFF, 0x01, 0x00, 0x00, 0x00,
  0x00, 0x00, 0x80, 0x3B, 0x19, 0x00, 0x00, 0x00, 0x53, 0x74,
  0x61, 0x74, 0x65, 0x66, 0x75, 0x6C, 0x50, 0x61, 0x72, 0x74,
  0x69, 0x74, 0x69, 0x6F, 0x6E, 0x65, 0x64, 0x43, 0x61, 0x6C,
  0x6C, 0x3A, 0x30, 0x00, 0x00, 0x00, 0x02, 0x00, 0x00, 0x00,
  0x01, 0x00, 0x00, 0x00, 0x02, 0x00, 0x00, 0x00, 0xEE, 0xF1,
  0xFF, 0xFF, 0x00, 0x00, 0x00, 0x01, 0x18, 0x00, 0x00, 0x00,
  0x20, 0x00, 0x00, 0x00, 0x3C, 0x00, 0x00, 0x00, 0x16, 0x00,
  0x00, 0x00, 0x00, 0x00, 0x00, 0x09, 0x70, 0x00, 0x00, 0x00,
  0x02, 0x00, 0x00, 0x00, 0xFF, 0xFF, 0xFF, 0xFF, 0x02, 0x00,
  0x00, 0x00, 0xD4, 0xF1, 0xFF, 0xFF, 0x08, 0x00, 0x00, 0x00,
  0x10, 0x00, 0x00, 0x00, 0x01, 0x00, 0x00, 0x00, 0x13, 0x00,
  0x00, 0x00, 0x00, 0x00, 0x00, 0x00, 0x01, 0x00, 0x00, 0x00,
  0x0C, 0x04, 0xB5, 0x3B, 0x38, 0x00, 0x00, 0x00, 0x73, 0x65,
  0x71, 0x75, 0x65, 0x6E, 0x74, 0x69, 0x61, 0x6C, 0x5F, 0x31,
  0x2F, 0x64, 0x65, 0x6E, 0x73, 0x65, 0x5F, 0x31, 0x2F, 0x4D,
  0x61, 0x74, 0x4D, 0x75, 0x6C, 0x3B, 0x73, 0x65, 0x71, 0x75,
  0x65, 0x6E, 0x74, 0x69, 0x61, 0x6C, 0x5F, 0x31, 0x2F, 0x64,
  0x65, 0x6E, 0x73, 0x65, 0x5F, 0x31, 0x2F, 0x42, 0x69, 0x61,
  0x73, 0x41, 0x64, 0x64, 0x00, 0x00, 0x00, 0x00, 0x02, 0x00,
  0x00, 0x00, 0x01, 0x00, 0x00, 0x00, 0x02, 0x00, 0x00, 0x00,
  0x86, 0xF2, 0xFF, 0xFF, 0x00, 0x00, 0x00, 0x01, 0x18, 0x00,
  0x00, 0x00, 0x20, 0x00, 0x00, 0x00, 0x40, 0x00, 0x00, 0x00,
  0x15, 0x00, 0x00, 0x00, 0x00, 0x00, 0x00, 0x09, 0x58, 0x00,
  0x00, 0x00, 0x02, 0x00, 0x00, 0x00, 0xFF, 0xFF, 0xFF, 0xFF,
  0x10, 0x00, 0x00, 0x00, 0x6C, 0xF2, 0xFF, 0xFF, 0x08, 0x00,
  0x00, 0x00, 0x14, 0x00, 0x00, 0x00, 0x01, 0x00, 0x00, 0x00,
  0x80, 0xFF, 0xFF, 0xFF, 0xFF, 0xFF, 0xFF, 0xFF, 0x00, 0x00,
  0x00, 0x00, 0x01, 0x00, 0x00, 0x00, 0x68, 0x24, 0x0A, 0x3B,
  0x1E, 0x00, 0x00, 0x00, 0x73, 0x65, 0x71, 0x75, 0x65, 0x6E,
  0x74, 0x69, 0x61, 0x6C, 0x5F, 0x31, 0x2F, 0x66, 0x6C, 0x61,
  0x74, 0x74, 0x65, 0x6E, 0x5F, 0x31, 0x2F, 0x52, 0x65, 0x73,
  0x68, 0x61, 0x70, 0x65, 0x00, 0x00, 0x02, 0x00, 0x00, 0x00,
  0x01, 0x00, 0x00, 0x00, 0x10, 0x00, 0x00, 0x00, 0x06, 0xF3,
  0xFF, 0xFF, 0x00, 0x00, 0x00, 0x01, 0x18, 0x00, 0x00, 0x00,
  0x28, 0x00, 0x00, 0x00, 0x48, 0x00, 0x00, 0x00, 0x14, 0x00,
  0x00, 0x00, 0x00, 0x00, 0x00, 0x09, 0x68, 0x00, 0x00, 0x00,
  0x04, 0x00, 0x00, 0x00, 0xFF, 0xFF, 0xFF, 0xFF, 0x01, 0x00,
  0x00, 0x00, 0x01, 0x00, 0x00, 0x00, 0x10, 0x00, 0x00, 0x00,
  0xF4, 0xF2, 0xFF, 0xFF, 0x08, 0x00, 0x00, 0x00, 0x14, 0x00,
  0x00, 0x00, 0x01, 0x00, 0x00, 0x00, 0x80, 0xFF, 0xFF, 0xFF,
  0xFF, 0xFF, 0xFF, 0xFF, 0x00, 0x00, 0x00, 0x00, 0x01, 0x00,
  0x00, 0x00, 0x68, 0x24, 0x0A, 0x3B, 0x24, 0x00, 0x00, 0x00,
  0x73, 0x65, 0x71, 0x75, 0x65, 0x6E, 0x74, 0x69, 0x61, 0x6C,
  0x5F, 0x31, 0x2F, 0x6D, 0x61, 0x78, 0x5F, 0x70, 0x6F, 0x6F,
  0x6C, 0x69, 0x6E, 0x67, 0x32, 0x64, 0x5F, 0x33, 0x2F, 0x4D,
  0x61, 0x78, 0x50, 0x6F, 0x6F, 0x6C, 0x00, 0x00, 0x00, 0x00,
  0x04, 0x00, 0x00, 0x00, 0x01, 0x00, 0x00, 0x00, 0x01, 0x00,
  0x00, 0x00, 0x01, 0x00, 0x00, 0x00, 0x10, 0x00, 0x00, 0x00,
  0x9E, 0xF3, 0xFF, 0xFF, 0x00, 0x00, 0x00, 0x01, 0x18, 0x00,
  0x00, 0x00, 0x28, 0x00, 0x00, 0x00, 0x48, 0x00, 0x00, 0x00,
  0x13, 0x00, 0x00, 0x00, 0x00, 0x00, 0x00, 0x09, 0xF0, 0x00,
  0x00, 0x00, 0x04, 0x00, 0x00, 0x00, 0xFF, 0xFF, 0xFF, 0xFF,
  0x02, 0x00, 0x00, 0x00, 0x02, 0x00, 0x00, 0x00, 0x10, 0x00,
  0x00, 0x00, 0x8C, 0xF3, 0xFF, 0xFF, 0x08, 0x00, 0x00, 0x00,
  0x14, 0x00, 0x00, 0x00, 0x01, 0x00, 0x00, 0x00, 0x80, 0xFF,
  0xFF, 0xFF, 0xFF, 0xFF, 0xFF, 0xFF, 0x00, 0x00, 0x00, 0x00,
  0x01, 0x00, 0x00, 0x00, 0x68, 0x24, 0x0A, 0x3B, 0xAD, 0x00,
  0x00, 0x00, 0x73, 0x65, 0x71, 0x75, 0x65, 0x6E, 0x74, 0x69,
  0x61, 0x6C, 0x5F, 0x31, 0x2F, 0x64, 0x65, 0x70, 0x74, 0x68,
  0x77, 0x69, 0x73, 0x65, 0x5F, 0x63, 0x6F, 0x6E, 0x76, 0x32,
  0x64, 0x5F, 0x31, 0x2F, 0x52, 0x65, 0x6C, 0x75, 0x3B, 0x73,
  0x65, 0x71, 0x75, 0x65, 0x6E, 0x74, 0x69, 0x61, 0x6C, 0x5F,
  0x31, 0x2F, 0x64, 0x65, 0x70, 0x74, 0x68, 0x77, 0x69, 0x73,
  0x65, 0x5F, 0x63, 0x6F, 0x6E, 0x76, 0x32, 0x64, 0x5F, 0x31,
  0x2F, 0x42, 0x69, 0x61, 0x73, 0x41, 0x64, 0x64, 0x3B, 0x73,
  0x65, 0x71, 0x75, 0x65, 0x6E, 0x74, 0x69, 0x61, 0x6C, 0x5F,
  0x31, 0x2F, 0x64, 0x65, 0x70, 0x74, 0x68, 0x77, 0x69, 0x73,
  0x65, 0x5F, 0x63, 0x6F, 0x6E, 0x76, 0x32, 0x64, 0x5F, 0x31,
  0x2F, 0x64, 0x65, 0x70, 0x74, 0x68, 0x77, 0x69, 0x73, 0x65,
  0x3B, 0x73, 0x65, 0x71, 0x75, 0x65, 0x6E, 0x74, 0x69, 0x61,
  0x6C, 0x5F, 0x31, 0x2F, 0x64, 0x65, 0x70, 0x74, 0x68, 0x77,
  0x69, 0x73, 0x65, 0x5F, 0x63, 0x6F, 0x6E, 0x76, 0x32, 0x64,
  0x5F, 0x31, 0x2F, 0x42, 0x69, 0x61, 0x73, 0x41, 0x64, 0x64,
  0x2F, 0x52, 0x65, 0x61, 0x64, 0x56, 0x61, 0x72, 0x69, 0x61,
  0x62, 0x6C, 0x65, 0x4F, 0x70, 0x00, 0x00, 0x00, 0x04, 0x00,
  0x00, 0x00, 0x01, 0x00, 0x00, 0x00, 0x02, 0x00, 0x00, 0x00,
  0x02, 0x00, 0x00, 0x00, 0x10, 0x00, 0x00, 0x00, 0xBE, 0xF4,
  0xFF, 0xFF, 0x00, 0x00, 0x00, 0x01, 0x18, 0x00, 0x00, 0x00,
  0x28, 0x00, 0x00, 0x00, 0x48, 0x00, 0x00, 0x00, 0x12, 0x00,
  0x00, 0x00, 0x00, 0x00, 0x00, 0x09, 0x68, 0x00, 0x00, 0x00,
  0x04, 0x00, 0x00, 0x00, 0xFF, 0xFF, 0xFF, 0xFF, 0x05, 0x00,
  0x00, 0x00, 0x05, 0x00, 0x00, 0x00, 0x10, 0x00, 0x00, 0x00,
  0xAC, 0xF4, 0xFF, 0xFF, 0x08, 0x00, 0x00, 0x00, 0x14, 0x00,
  0x00, 0x00, 0x01, 0x00, 0x00, 0x00, 0x80, 0xFF, 0xFF, 0xFF,
  0xFF, 0xFF, 0xFF, 0xFF, 0x00, 0x00, 0x00, 0x00, 0x01, 0x00,
  0x00, 0x00, 0x5C, 0x8D, 0x53, 0x3B, 0x24, 0x00, 0x00, 0x00,
  0x73, 0x65, 0x71, 0x75, 0x65, 0x6E, 0x74, 0x69, 0x61, 0x6C,
  0x5F, 0x31, 0x2F, 0x6D, 0x61, 0x78, 0x5F, 0x70, 0x6F, 0x6F,
  0x6C, 0x69, 0x6E, 0x67, 0x32, 0x64, 0x5F, 0x32, 0x2F, 0x4D,
  0x61, 0x78, 0x50, 0x6F, 0x6F, 0x6C, 0x00, 0x00, 0x00, 0x00,
  0x04, 0x00, 0x00, 0x00, 0x01, 0x00, 0x00, 0x00, 0x05, 0x00,
  0x00, 0x00, 0x05, 0x00, 0x00, 0x00, 0x10, 0x00, 0x00, 0x00,
  0x56, 0xF5, 0xFF, 0xFF, 0x00, 0x00, 0x00, 0x01, 0x18, 0x00,
  0x00, 0x00, 0x28, 0x00, 0x00, 0x00, 0x48, 0x00, 0x00, 0x00,
  0x11, 0x00, 0x00, 0x00, 0x00, 0x00, 0x00, 0x09, 0xF0, 0x00,
  0x00, 0x00, 0x04, 0x00, 0x00, 0x00, 0xFF, 0xFF, 0xFF, 0xFF,
  0x0A, 0x00, 0x00, 0x00, 0x0A, 0x00, 0x00, 0x00, 0x10, 0x00,
  0x00, 0x00, 0x44, 0xF5, 0xFF, 0xFF, 0x08, 0x00, 0x00, 0x00,
  0x14, 0x00, 0x00, 0x00, 0x01, 0x00, 0x00, 0x00, 0x80, 0xFF,
  0xFF, 0xFF, 0xFF, 0xFF, 0xFF, 0xFF, 0x00, 0x00, 0x00, 0x00,
  0x01, 0x00, 0x00, 0x00, 0x5C, 0x8D, 0x53, 0x3B, 0xAD, 0x00,
  0x00, 0x00, 0x73, 0x65, 0x71, 0x75, 0x65, 0x6E, 0x74, 0x69,
  0x61, 0x6C, 0x5F, 0x31, 0x2F, 0x63, 0x6F, 0x6E, 0x76, 0x32,
  0x64, 0x5F, 0x31, 0x2F, 0x52, 0x65, 0x6C, 0x75, 0x3B, 0x73,
  0x65, 0x71, 0x75, 0x65, 0x6E, 0x74, 0x69, 0x61, 0x6C, 0x5F,
  0x31, 0x2F, 0x63, 0x6F, 0x6E, 0x76, 0x32, 0x64, 0x5F, 0x31,
  0x2F, 0x42, 0x69, 0x61, 0x73, 0x41, 0x64, 0x64, 0x3B, 0x73,
  0x65, 0x71, 0x75, 0x65, 0x6E, 0x74, 0x69, 0x61, 0x6C, 0x5F,
  0x31, 0x2F, 0x64, 0x65, 0x70, 0x74, 0x68, 0x77, 0x69, 0x73,
  0x65, 0x5F, 0x63, 0x6F, 0x6E, 0x76, 0x32, 0x64, 0x5F, 0x31,
  0x2F, 0x64, 0x65, 0x70, 0x74, 0x68, 0x77, 0x69, 0x73, 0x65,
  0x3B, 0x73, 0x65, 0x71, 0x75, 0x65, 0x6E, 0x74, 0x69, 0x61,
  0x6C, 0x5F, 0x31, 0x2F, 0x63, 0x6F, 0x6E, 0x76, 0x32, 0x64,
  0x5F, 0x31, 0x2F, 0x43, 0x6F, 0x6E, 0x76, 0x32, 0x44, 0x3B,
  0x73, 0x65, 0x71, 0x75, 0x65, 0x6E, 0x74, 0x69, 0x61, 0x6C,
  0x5F, 0x31, 0x2F, 0x63, 0x6F, 0x6E, 0x76, 0x32, 0x64, 0x5F,
  0x31, 0x2F, 0x42, 0x69, 0x61, 0x73, 0x41, 0x64, 0x64, 0x2F,
  0x52, 0x65, 0x61, 0x64, 0x56, 0x61, 0x72, 0x69, 0x61, 0x62,
  0x6C, 0x65, 0x4F, 0x70, 0x31, 0x00, 0x00, 0x00, 0x04, 0x00,
  0x00, 0x00, 0x01, 0x00, 0x00, 0x00, 0x0A, 0x00, 0x00, 0x00,
  0x0A, 0x00, 0x00, 0x00, 0x10, 0x00, 0x00, 0x00, 0x76, 0xF6,
  0xFF, 0xFF, 0x00, 0x00, 0x00, 0x01, 0x18, 0x00, 0x00, 0x00,
  0x28, 0x00, 0x00, 0x00, 0x48, 0x00, 0x00, 0x00, 0x10, 0x00,
  0x00, 0x00, 0x00, 0x00, 0x00, 0x09, 0x60, 0x00, 0x00, 0x00,
  0x04, 0x00, 0x00, 0x00, 0xFF, 0xFF, 0xFF, 0xFF, 0x0A, 0x00,
  0x00, 0x00, 0x0A, 0x00, 0x00, 0x00, 0x01, 0x00, 0x00, 0x00,
  0x64, 0xF6, 0xFF, 0xFF, 0x08, 0x00, 0x00, 0x00, 0x14, 0x00,
  0x00, 0x00, 0x01, 0x00, 0x00, 0x00, 0x80, 0xFF, 0xFF, 0xFF,
  0xFF, 0xFF, 0xFF, 0xFF, 0x00, 0x00, 0x00, 0x00, 0x01, 0x00,
  0x00, 0x00, 0x00, 0x00, 0x80, 0x3F, 0x1E, 0x00, 0x00, 0x00,
  0x73, 0x65, 0x71, 0x75, 0x65, 0x6E, 0x74, 0x69, 0x61, 0x6C,
  0x5F, 0x31, 0x2F, 0x72, 0x65, 0x73, 0x68, 0x61, 0x70, 0x65,
  0x5F, 0x31, 0x2F, 0x52, 0x65, 0x73, 0x68, 0x61, 0x70, 0x65,
  0x00, 0x00, 0x04, 0x00, 0x00, 0x00, 0x01, 0x00, 0x00, 0x00,
  0x0A, 0x00, 0x00, 0x00, 0x0A, 0x00, 0x00, 0x00, 0x01, 0x00,
  0x00, 0x00, 0x7A, 0xF7, 0xFF, 0xFF, 0x00, 0x00, 0x00, 0x01,
  0x14, 0x00, 0x00, 0x00, 0x14, 0x00, 0x00, 0x00, 0x0F, 0x00,
  0x00, 0x00, 0x00, 0x00, 0x00, 0x02, 0x34, 0x00, 0x00, 0x00,
  0x64, 0xF7, 0xFF, 0xFF, 0x24, 0x00, 0x00, 0x00, 0x73, 0x65,
  0x71, 0x75, 0x65, 0x6E, 0x74, 0x69, 0x61, 0x6C, 0x5F, 0x31,
  0x2F, 0x72, 0x65, 0x73, 0x68, 0x61, 0x70, 0x65, 0x5F, 0x31,
  0x2F, 0x52, 0x65, 0x73, 0x68, 0x61, 0x70, 0x65, 0x2F, 0x73,
  0x68, 0x61, 0x70, 0x65, 0x00, 0x00, 0x00, 0x00, 0x01, 0x00,
  0x00, 0x00, 0x04, 0x00, 0x00, 0x00, 0xCE, 0xF7, 0xFF, 0xFF,
  0x00, 0x00, 0x00, 0x01, 0x14, 0x00, 0x00, 0x00, 0x14, 0x00,
  0x00, 0x00, 0x0E, 0x00, 0x00, 0x00, 0x00, 0x00, 0x00, 0x02,
  0x34, 0x00, 0x00, 0x00, 0xB8, 0xF7, 0xFF, 0xFF, 0x24, 0x00,
  0x00, 0x00, 0x73, 0x65, 0x71, 0x75, 0x65, 0x6E, 0x74, 0x69,
  0x61, 0x6C, 0x5F, 0x31, 0x2F, 0x72, 0x65, 0x73, 0x68, 0x61,
  0x70, 0x65, 0x5F, 0x31, 0x2F, 0x73, 0x74, 0x72, 0x69, 0x64,
  0x65, 0x64, 0x5F, 0x73, 0x6C, 0x69, 0x63, 0x65, 0x00, 0x00,
  0x00, 0x00, 0x00, 0x00, 0x00, 0x00, 0x1E, 0xF8, 0xFF, 0xFF,
  0x00, 0x00, 0x00, 0x01, 0x14, 0x00, 0x00, 0x00, 0x14, 0x00,
  0x00, 0x00, 0x0D, 0x00, 0x00, 0x00, 0x00, 0x00, 0x00, 0x02,
  0x2C, 0x00, 0x00, 0x00, 0x08, 0xF8, 0xFF, 0xFF, 0x1C, 0x00,
  0x00, 0x00, 0x73, 0x65, 0x71, 0x75, 0x65, 0x6E, 0x74, 0x69,
  0x61, 0x6C, 0x5F, 0x31, 0x2F, 0x72, 0x65, 0x73, 0x68, 0x61,
  0x70, 0x65, 0x5F, 0x31, 0x2F, 0x53, 0x68, 0x61, 0x70, 0x65,
  0x00, 0x00, 0x00, 0x00, 0x01, 0x00, 0x00, 0x00, 0x03, 0x00,
  0x00, 0x00, 0x6A, 0xF8, 0xFF, 0xFF, 0x00, 0x00, 0x00, 0x01,
  0x14, 0x00, 0x00, 0x00, 0xE4, 0x00, 0x00, 0x00, 0x0C, 0x00,
  0x00, 0x00, 0x00, 0x00, 0x00, 0x09, 0x8C, 0x01, 0x00, 0x00,
  0xCC, 0xF7, 0xFF, 0xFF, 0x08, 0x00, 0x00, 0x00, 0x88, 0x00,
  0x00, 0x00, 0x10, 0x00, 0x00, 0x00, 0x00, 0x00, 0x00, 0x00,
  0x00, 0x00, 0x00, 0x00, 0x00, 0x00, 0x00, 0x00, 0x00, 0x00,
  0x00, 0x00, 0x00, 0x00, 0x00, 0x00, 0x00, 0x00, 0x00, 0x00,
  0x00, 0x00, 0x00, 0x00, 0x00, 0x00, 0x00, 0x00, 0x00, 0x00,
  0x00, 0x00, 0x00, 0x00, 0x00, 0x00, 0x00, 0x00, 0x00, 0x00,
  0x00, 0x00, 0x00, 0x00, 0x00, 0x00, 0x00, 0x00, 0x00, 0x00,
  0x00, 0x00, 0x00, 0x00, 0x00, 0x00, 0x00, 0x00, 0x00, 0x00,
  0x00, 0x00, 0x00, 0x00, 0x00, 0x00, 0x00, 0x00, 0x00, 0x00,
  0x00, 0x00, 0x00, 0x00, 0x00, 0x00, 0x00, 0x00, 0x00, 0x00,
  0x00, 0x00, 0x00, 0x00, 0x00, 0x00, 0x00, 0x00, 0x00, 0x00,
  0x00, 0x00, 0x00, 0x00, 0x00, 0x00, 0x00, 0x00, 0x00, 0x00,
  0x00, 0x00, 0x00, 0x00, 0x00, 0x00, 0x00, 0x00, 0x00, 0x00,
  0x00, 0x00, 0x00, 0x00, 0x00, 0x00, 0x00, 0x00, 0x00, 0x00,
  0x00, 0x00, 0x00, 0x00, 0x10, 0x00, 0x00, 0x00, 0xB8, 0xB1,
  0xCA, 0x36, 0x8D, 0x4F, 0xDE, 0x36, 0x96, 0xFF, 0xAD, 0x36,
  0x30, 0x04, 0xDE, 0x36, 0x94, 0xD5, 0xB6, 0x36, 0x15, 0xFD,
  0xD8, 0x36, 0x8B, 0x5B, 0xD9, 0x36, 0xBA, 0x03, 0xCA, 0x36,
  0x32, 0x6F, 0xDC, 0x36, 0x3A, 0x0F, 0xC8, 0x36, 0xB8, 0xA6,
  0x8C, 0x36, 0x87, 0xB8, 0x9A, 0x36, 0x6A, 0xF7, 0xCC, 0x36,
  0xDF, 0x6A, 0xA5, 0x36, 0xB4, 0xD4, 0xED, 0x36, 0x5B, 0x56,
  0xD8, 0x36, 0xAC, 0x00, 0x00, 0x00, 0x73, 0x65, 0x71, 0x75,
  0x65, 0x6E, 0x74, 0x69, 0x61, 0x6C, 0x5F, 0x31, 0x2F, 0x63,
  0x6F, 0x6E, 0x76, 0x32, 0x64, 0x5F, 0x31, 0x2F, 0x52, 0x65,
  0x6C, 0x75, 0x3B, 0x73, 0x65, 0x71, 0x75, 0x65, 0x6E, 0x74,
  0x69, 0x61, 0x6C, 0x5F, 0x31, 0x2F, 0x63, 0x6F, 0x6E, 0x76,
  0x32, 0x64, 0x5F, 0x31, 0x2F, 0x42, 0x69, 0x61, 0x73, 0x41,
  0x64, 0x64, 0x3B, 0x73, 0x65, 0x71, 0x75, 0x65, 0x6E, 0x74,
  0x69, 0x61, 0x6C, 0x5F, 0x31, 0x2F, 0x64, 0x65, 0x70, 0x74,
  0x68, 0x77, 0x69, 0x73, 0x65, 0x5F, 0x63, 0x6F, 0x6E, 0x76,
  0x32, 0x64, 0x5F, 0x31, 0x2F, 0x64, 0x65, 0x70, 0x74, 0x68,
  0x77, 0x69, 0x73, 0x65, 0x3B, 0x73, 0x65, 0x71, 0x75, 0x65,
  0x6E, 0x74, 0x69, 0x61, 0x6C, 0x5F, 0x31, 0x2F, 0x63, 0x6F,
  0x6E, 0x76, 0x32, 0x64, 0x5F, 0x31, 0x2F, 0x43, 0x6F, 0x6E,
  0x76, 0x32, 0x44, 0x3B, 0x73, 0x65, 0x71, 0x75, 0x65, 0x6E,
  0x74, 0x69, 0x61, 0x6C, 0x5F, 0x31, 0x2F, 0x63, 0x6F, 0x6E,
  0x76, 0x32, 0x64, 0x5F, 0x31, 0x2F, 0x42, 0x69, 0x61, 0x73,
  0x41, 0x64, 0x64, 0x2F, 0x52, 0x65, 0x61, 0x64, 0x56, 0x61,
  0x72, 0x69, 0x61, 0x62, 0x6C, 0x65, 0x4F, 0x70, 0x00, 0x00,
  0x00, 0x00, 0x04, 0x00, 0x00, 0x00, 0x10, 0x00, 0x00, 0x00,
  0x03, 0x00, 0x00, 0x00, 0x03, 0x00, 0x00, 0x00, 0x01, 0x00,
  0x00, 0x00, 0x22, 0xFA, 0xFF, 0xFF, 0x00, 0x00, 0x00, 0x01,
  0x14, 0x00, 0x00, 0x00, 0xE8, 0x00, 0x00, 0x00, 0x0B, 0x00,
  0x00, 0x00, 0x00, 0x00, 0x00, 0x02, 0x10, 0x01, 0x00, 0x00,
  0x84, 0xF9, 0xFF, 0xFF, 0x08, 0x00, 0x00, 0x00, 0x8C, 0x00,
  0x00, 0x00, 0x10, 0x00, 0x00, 0x00, 0x00, 0x00, 0x00, 0x00,
  0x00, 0x00, 0x00, 0x00, 0x00, 0x00, 0x00, 0x00, 0x00, 0x00,
  0x00, 0x00, 0x00, 0x00, 0x00, 0x00, 0x00, 0x00, 0x00, 0x00,
  0x00, 0x00, 0x00, 0x00, 0x00, 0x00, 0x00, 0x00, 0x00, 0x00,
  0x00, 0x00, 0x00, 0x00, 0x00, 0x00, 0x00, 0x00, 0x00, 0x00,
  0x00, 0x00, 0x00, 0x00, 0x00, 0x00, 0x00, 0x00, 0x00, 0x00,
  0x00, 0x00, 0x00, 0x00, 0x00, 0x00, 0x00, 0x00, 0x00, 0x00,
  0x00, 0x00, 0x00, 0x00, 0x00, 0x00, 0x00, 0x00, 0x00, 0x00,
  0x00, 0x00, 0x00, 0x00, 0x00, 0x00, 0x00, 0x00, 0x00, 0x00,
  0x00, 0x00, 0x00, 0x00, 0x00, 0x00, 0x00, 0x00, 0x00, 0x00,
  0x00, 0x00, 0x00, 0x00, 0x00, 0x00, 0x00, 0x00, 0x00, 0x00,
  0x00, 0x00, 0x00, 0x00, 0x00, 0x00, 0x00, 0x00, 0x00, 0x00,
  0x00, 0x00, 0x00, 0x00, 0x00, 0x00, 0x00, 0x00, 0x00, 0x00,
  0x00, 0x00, 0x00, 0x00, 0x00, 0x00, 0x00, 0x00, 0x10, 0x00,
  0x00, 0x00, 0xB8, 0xB1, 0xCA, 0x36, 0x8D, 0x4F, 0xDE, 0x36,
  0x96, 0xFF, 0xAD, 0x36, 0x30, 0x04, 0xDE, 0x36, 0x94, 0xD5,
  0xB6, 0x36, 0x15, 0xFD, 0xD8, 0x36, 0x8B, 0x5B, 0xD9, 0x36,
  0xBA, 0x03, 0xCA, 0x36, 0x32, 0x6F, 0xDC, 0x36, 0x3A, 0x0F,
  0xC8, 0x36, 0xB8, 0xA6, 0x8C, 0x36, 0x87, 0xB8, 0x9A, 0x36,
  0x6A, 0xF7, 0xCC, 0x36, 0xDF, 0x6A, 0xA5, 0x36, 0xB4, 0xD4,
  0xED, 0x36, 0x5B, 0x56, 0xD8, 0x36, 0x2C, 0x00, 0x00, 0x00,
  0x73, 0x65, 0x71, 0x75, 0x65, 0x6E, 0x74, 0x69, 0x61, 0x6C,
  0x5F, 0x31, 0x2F, 0x63, 0x6F, 0x6E, 0x76, 0x32, 0x64, 0x5F,
  0x31, 0x2F, 0x42, 0x69, 0x61, 0x73, 0x41, 0x64, 0x64, 0x2F,
  0x52, 0x65, 0x61, 0x64, 0x56, 0x61, 0x72, 0x69, 0x61, 0x62,
  0x6C, 0x65, 0x4F, 0x70, 0x00, 0x00, 0x00, 0x00, 0x01, 0x00,
  0x00, 0x00, 0x10, 0x00, 0x00, 0x00, 0x52, 0xFB, 0xFF, 0xFF,
  0x00, 0x00, 0x00, 0x01, 0x28, 0x00, 0x00, 0x00, 0x00, 0x01,
  0x00, 0x00, 0x0A, 0x00, 0x00, 0x00, 0x00, 0x00, 0x00, 0x09,
  0x24, 0x01, 0x00, 0x00, 0x00, 0x00, 0x12, 0x00, 0x10, 0x00,
  0x00, 0x00, 0x00, 0x00, 0x0C, 0x00, 0x08, 0x00, 0x00, 0x00,
  0x00, 0x00, 0x04, 0x00, 0x12, 0x00, 0x00, 0x00, 0x03, 0x00,
  0x00, 0x00, 0x08, 0x00, 0x00, 0x00, 0x8C, 0x00, 0x00, 0x00,
  0x10, 0x00, 0x00, 0x00, 0x00, 0x00, 0x00, 0x00, 0x00, 0x00,
  0x00, 0x00, 0x00, 0x00, 0x00, 0x00, 0x00, 0x00, 0x00, 0x00,
  0x00, 0x00, 0x00, 0x00, 0x00, 0x00, 0x00, 0x00, 0x00, 0x00,
  0x00, 0x00, 0x00, 0x00, 0x00, 0x00, 0x00, 0x00, 0x00, 0x00,
  0x00, 0x00, 0x00, 0x00, 0x00, 0x00, 0x00, 0x00, 0x00, 0x00,
  0x00, 0x00, 0x00, 0x00, 0x00, 0x00, 0x00, 0x00, 0x00, 0x00,
  0x00, 0x00, 0x00, 0x00, 0x00, 0x00, 0x00, 0x00, 0x00, 0x00,
  0x00, 0x00, 0x00, 0x00, 0x00, 0x00, 0x00, 0x00, 0x00, 0x00,
  0x00, 0x00, 0x00, 0x00, 0x00, 0x00, 0x00, 0x00, 0x00, 0x00,
  0x00, 0x00, 0x00, 0x00, 0x00, 0x00, 0x00, 0x00, 0x00, 0x00,
  0x00, 0x00, 0x00, 0x00, 0x00, 0x00, 0x00, 0x00, 0x00, 0x00,
  0x00, 0x00, 0x00, 0x00, 0x00, 0x00, 0x00, 0x00, 0x00, 0x00,
  0x00, 0x00, 0x00, 0x00, 0x00, 0x00, 0x00, 0x00, 0x00, 0x00,
  0x00, 0x00, 0x00, 0x00, 0x00, 0x00, 0x10, 0x00, 0x00, 0x00,
  0x79, 0x59, 0xC1, 0x3A, 0x2C, 0xF4, 0x76, 0x3A, 0x57, 0x9E,
  0x89, 0x3A, 0x1F, 0x09, 0x49, 0x3A, 0xDA, 0xA2, 0x27, 0x3A,
  0x9A, 0x76, 0xB9, 0x3A, 0xE9, 0xB2, 0x82, 0x3A, 0x0A, 0x9E,
  0x03, 0x3B, 0x69, 0x50, 0x7A, 0x3A, 0xA4, 0x4D, 0x5B, 0x3A,
  0x06, 0x46, 0x24, 0x3A, 0x9D, 0xB7, 0x22, 0x3A, 0x51, 0x04,
  0x4F, 0x3A, 0x9B, 0xCE, 0x1C, 0x3A, 0x8A, 0x31, 0x05, 0x3B,
  0x3C, 0xFD, 0x16, 0x3A, 0x29, 0x00, 0x00, 0x00, 0x73, 0x65,
  0x71, 0x75, 0x65, 0x6E, 0x74, 0x69, 0x61, 0x6C, 0x5F, 0x31,
  0x2F, 0x64, 0x65, 0x70, 0x74, 0x68, 0x77, 0x69, 0x73, 0x65,
  0x5F, 0x63, 0x6F, 0x6E, 0x76, 0x32, 0x64, 0x5F, 0x31, 0x2F,
  0x64, 0x65, 0x70, 0x74, 0x68, 0x77, 0x69, 0x73, 0x65, 0x00,
  0x00, 0x00, 0x04, 0x00, 0x00, 0x00, 0x01, 0x00, 0x00, 0x00,
  0x08, 0x00, 0x00, 0x00, 0x08, 0x00, 0x00, 0x00, 0x10, 0x00,
  0x00, 0x00, 0xA2, 0xFC, 0xFF, 0xFF, 0x00, 0x00, 0x00, 0x01,
  0x14, 0x00, 0x00, 0x00, 0xE8, 0x00, 0x00, 0x00, 0x09, 0x00,
  0x00, 0x00, 0x00, 0x00, 0x00, 0x02, 0x18, 0x01, 0x00, 0x00,
  0x04, 0xFC, 0xFF, 0xFF, 0x08, 0x00, 0x00, 0x00, 0x8C, 0x00,
  0x00, 0x00, 0x10, 0x00, 0x00, 0x00, 0x00, 0x00, 0x00, 0x00,
  0x00, 0x00, 0x00, 0x00, 0x00, 0x00, 0x00, 0x00, 0x00, 0x00,
  0x00, 0x00, 0x00, 0x00, 0x00, 0x00, 0x00, 0x00, 0x00, 0x00,
  0x00, 0x00, 0x00, 0x00, 0x00, 0x00, 0x00, 0x00, 0x00, 0x00,
  0x00, 0x00, 0x00, 0x00, 0x00, 0x00, 0x00, 0x00, 0x00, 0x00,
  0x00, 0x00, 0x00, 0x00, 0x00, 0x00, 0x00, 0x00, 0x00, 0x00,
  0x00, 0x00, 0x00, 0x00, 0x00, 0x00, 0x00, 0x00, 0x00, 0x00,
  0x00, 0x00, 0x00, 0x00, 0x00, 0x00, 0x00, 0x00, 0x00, 0x00,
  0x00, 0x00, 0x00, 0x00, 0x00, 0x00, 0x00, 0x00, 0x00, 0x00,
  0x00, 0x00, 0x00, 0x00, 0x00, 0x00, 0x00, 0x00, 0x00, 0x00,
  0x00, 0x00, 0x00, 0x00, 0x00, 0x00, 0x00, 0x00, 0x00, 0x00,
  0x00, 0x00, 0x00, 0x00, 0x00, 0x00, 0x00, 0x00, 0x00, 0x00,
  0x00, 0x00, 0x00, 0x00, 0x00, 0x00, 0x00, 0x00, 0x00, 0x00,
  0x00, 0x00, 0x00, 0x00, 0x00, 0x00, 0x00, 0x00, 0x10, 0x00,
  0x00, 0x00, 0x82, 0xC7, 0x9F, 0x36, 0x9D, 0x13, 0x4C, 0x36,
  0xFF, 0x72, 0x63, 0x36, 0x87, 0x21, 0x26, 0x36, 0xCB, 0x87,
  0x0A, 0x36, 0x2A, 0x43, 0x99, 0x36, 0x43, 0x03, 0x58, 0x36,
  0xDF, 0x87, 0xD9, 0x36, 0x7F, 0xDA, 0x4E, 0x36, 0x17, 0x3A,
  0x35, 0x36, 0x6D, 0xC0, 0x07, 0x36, 0x30, 0x77, 0x06, 0x36,
  0xDF, 0x12, 0x2B, 0x36, 0xE0, 0x94, 0x01, 0x36, 0xC2, 0x22,
  0xDC, 0x36, 0x30, 0x8C, 0xF9, 0x35, 0x36, 0x00, 0x00, 0x00,
  0x73, 0x65, 0x71, 0x75, 0x65, 0x6E, 0x74, 0x69, 0x61, 0x6C,
  0x5F, 0x31, 0x2F, 0x64, 0x65, 0x70, 0x74, 0x68, 0x77, 0x69,
  0x73, 0x65, 0x5F, 0x63, 0x6F, 0x6E, 0x76, 0x32, 0x64, 0x5F,
  0x31, 0x2F, 0x42, 0x69, 0x61, 0x73, 0x41, 0x64, 0x64, 0x2F,
  0x52, 0x65, 0x61, 0x64, 0x56, 0x61, 0x72, 0x69, 0x61, 0x62,
  0x6C, 0x65, 0x4F, 0x70, 0x00, 0x00, 0x01, 0x00, 0x00, 0x00,
  0x10, 0x00, 0x00, 0x00, 0xDA, 0xFD, 0xFF, 0xFF, 0x00, 0x00,
  0x00, 0x01, 0x14, 0x00, 0x00, 0x00, 0x30, 0x00, 0x00, 0x00,
  0x08, 0x00, 0x00, 0x00, 0x00, 0x00, 0x00, 0x09, 0x44, 0x00,
  0x00, 0x00, 0x3C, 0xFD, 0xFF, 0xFF, 0x08, 0x00, 0x00, 0x00,
  0x10, 0x00, 0x00, 0x00, 0x01, 0x00, 0x00, 0x00, 0x00, 0x00,
  0x00, 0x00, 0x00, 0x00, 0x00, 0x00, 0x01, 0x00, 0x00, 0x00,
  0xF0, 0x07, 0x92, 0x3B, 0x1B, 0x00, 0x00, 0x00, 0x73, 0x65,
  0x71, 0x75, 0x65, 0x6E, 0x74, 0x69, 0x61, 0x6C, 0x5F, 0x31,
  0x2F, 0x64, 0x65, 0x6E, 0x73, 0x65, 0x5F, 0x31, 0x2F, 0x4D,
  0x61, 0x74, 0x4D, 0x75, 0x6C, 0x00, 0x02, 0x00, 0x00, 0x00,
  0x02, 0x00, 0x00, 0x00, 0x10, 0x00, 0x00, 0x00, 0x42, 0xFE,
  0xFF, 0xFF, 0x00, 0x00, 0x00, 0x01, 0x14, 0x00, 0x00, 0x00,
  0x30, 0x00, 0x00, 0x00, 0x07, 0x00, 0x00, 0x00, 0x00, 0x00,
  0x00, 0x02, 0x54, 0x00, 0x00, 0x00, 0xA4, 0xFD, 0xFF, 0xFF,
  0x08, 0x00, 0x00, 0x00, 0x10, 0x00, 0x00, 0x00, 0x01, 0x00,
  0x00, 0x00, 0x00, 0x00, 0x00, 0x00, 0x00, 0x00, 0x00, 0x00,
  0x01, 0x00, 0x00, 0x00, 0x18, 0x9A, 0x1D, 0x37, 0x2B, 0x00,
  0x00, 0x00, 0x73, 0x65, 0x71, 0x75, 0x65, 0x6E, 0x74, 0x69,
  0x61, 0x6C, 0x5F, 0x31, 0x2F, 0x64, 0x65, 0x6E, 0x73, 0x65,
  0x5F, 0x31, 0x2F, 0x42, 0x69, 0x61, 0x73, 0x41, 0x64, 0x64,
  0x2F, 0x52, 0x65, 0x61, 0x64, 0x56, 0x61, 0x72, 0x69, 0x61,
  0x62, 0x6C, 0x65, 0x4F, 0x70, 0x00, 0x01, 0x00, 0x00, 0x00,
  0x02, 0x00, 0x00, 0x00, 0xB6, 0xFE, 0xFF, 0xFF, 0x00, 0x00,
  0x00, 0x01, 0x14, 0x00, 0x00, 0x00, 0x14, 0x00, 0x00, 0x00,
  0x06, 0x00, 0x00, 0x00, 0x00, 0x00, 0x00, 0x02, 0x2C, 0x00,
  0x00, 0x00, 0xA0, 0xFE, 0xFF, 0xFF, 0x1C, 0x00, 0x00, 0x00,
  0x73, 0x65, 0x71, 0x75, 0x65, 0x6E, 0x74, 0x69, 0x61, 0x6C,
  0x5F, 0x31, 0x2F, 0x66, 0x6C, 0x61, 0x74, 0x74, 0x65, 0x6E,
  0x5F, 0x31, 0x2F, 0x43, 0x6F, 0x6E, 0x73, 0x74, 0x00, 0x00,
  0x00, 0x00, 0x01, 0x00, 0x00, 0x00, 0x02, 0x00, 0x00, 0x00,
  0x02, 0xFF, 0xFF, 0xFF, 0x00, 0x00, 0x00, 0x01, 0x14, 0x00,
  0x00, 0x00, 0x14, 0x00, 0x00, 0x00, 0x03, 0x00, 0x00, 0x00,
  0x00, 0x00, 0x00, 0x02, 0x34, 0x00, 0x00, 0x00, 0xEC, 0xFE,
  0xFF, 0xFF, 0x26, 0x00, 0x00, 0x00, 0x73, 0x65, 0x71, 0x75,
  0x65, 0x6E, 0x74, 0x69, 0x61, 0x6C, 0x5F, 0x31, 0x2F, 0x72,
  0x65, 0x73, 0x68, 0x61, 0x70, 0x65, 0x5F, 0x31, 0x2F, 0x52,
  0x65, 0x73, 0x68, 0x61, 0x70, 0x65, 0x2F, 0x73, 0x68, 0x61,
  0x70, 0x65, 0x2F, 0x33, 0x00, 0x00, 0x00, 0x00, 0x00, 0x00,
  0x52, 0xFF, 0xFF, 0xFF, 0x00, 0x00, 0x00, 0x01, 0x14, 0x00,
  0x00, 0x00, 0x14, 0x00, 0x00, 0x00, 0x04, 0x00, 0x00, 0x00,
  0x00, 0x00, 0x00, 0x02, 0x34, 0x00, 0x00, 0x00, 0x3C, 0xFF,
  0xFF, 0xFF, 0x26, 0x00, 0x00, 0x00, 0x73, 0x65, 0x71, 0x75,
  0x65, 0x6E, 0x74, 0x69, 0x61, 0x6C, 0x5F, 0x31, 0x2F, 0x72,
  0x65, 0x73, 0x68, 0x61, 0x70, 0x65, 0x5F, 0x31, 0x2F, 0x52,
  0x65, 0x73, 0x68, 0x61, 0x70, 0x65, 0x2F, 0x73, 0x68, 0x61,
  0x70, 0x65, 0x2F, 0x31, 0x00, 0x00, 0x00, 0x00, 0x00, 0x00,
  0xA2, 0xFF, 0xFF, 0xFF, 0x00, 0x00, 0x00, 0x01, 0x14, 0x00,
  0x00, 0x00, 0x14, 0x00, 0x00, 0x00, 0x03, 0x00, 0x00, 0x00,
  0x00, 0x00, 0x00, 0x02, 0x3C, 0x00, 0x00, 0x00, 0x8C, 0xFF,
  0xFF, 0xFF, 0x2C, 0x00, 0x00, 0x00, 0x73, 0x65, 0x71, 0x75,
  0x65, 0x6E, 0x74, 0x69, 0x61, 0x6C, 0x5F, 0x31, 0x2F, 0x72,
  0x65, 0x73, 0x68, 0x61, 0x70, 0x65, 0x5F, 0x31, 0x2F, 0x73,
  0x74, 0x72, 0x69, 0x64, 0x65, 0x64, 0x5F, 0x73, 0x6C, 0x69,
  0x63, 0x65, 0x2F, 0x73, 0x74, 0x61, 0x63, 0x6B, 0x5F, 0x31,
  0x00, 0x00, 0x00, 0x00, 0x01, 0x00, 0x00, 0x00, 0x01, 0x00,
  0x00, 0x00, 0x00, 0x00, 0x16, 0x00, 0x1C, 0x00, 0x18, 0x00,
  0x17, 0x00, 0x10, 0x00, 0x0C, 0x00, 0x08, 0x00, 0x00, 0x00,
  0x00, 0x00, 0x00, 0x00, 0x07, 0x00, 0x16, 0x00, 0x00, 0x00,
  0x00, 0x00, 0x00, 0x01, 0x18, 0x00, 0x00, 0x00, 0x18, 0x00,
  0x00, 0x00, 0x02, 0x00, 0x00, 0x00, 0x00, 0x00, 0x00, 0x02,
  0x3C, 0x00, 0x00, 0x00, 0x04, 0x00, 0x04, 0x00, 0x04, 0x00,
  0x00, 0x00, 0x2A, 0x00, 0x00, 0x00, 0x73, 0x65, 0x71, 0x75,
  0x65, 0x6E, 0x74, 0x69, 0x61, 0x6C, 0x5F, 0x31, 0x2F, 0x72,
  0x65, 0x73, 0x68, 0x61, 0x70, 0x65, 0x5F, 0x31, 0x2F, 0x73,
  0x74, 0x72, 0x69, 0x64, 0x65, 0x64, 0x5F, 0x73, 0x6C, 0x69,
  0x63, 0x65, 0x2F, 0x73, 0x74, 0x61, 0x63, 0x6B, 0x00, 0x00,
  0x01, 0x00, 0x00, 0x00, 0x01, 0x00, 0x00, 0x00, 0x00, 0x00,
  0x16, 0x00, 0x20, 0x00, 0x1C, 0x00, 0x1B, 0x00, 0x14, 0x00,
  0x10, 0x00, 0x0C, 0x00, 0x00, 0x00, 0x00, 0x00, 0x08, 0x00,
  0x07, 0x00, 0x16, 0x00, 0x00, 0x00, 0x00, 0x00, 0x00, 0x01,
  0x18, 0x00, 0x00, 0x00, 0x30, 0x00, 0x00, 0x00, 0x4C, 0x00,
  0x00, 0x00, 0x01, 0x00, 0x00, 0x00, 0x00, 0x00, 0x00, 0x09,
  0x68, 0x00, 0x00, 0x00, 0x03, 0x00, 0x00, 0x00, 0xFF, 0xFF,
  0xFF, 0xFF, 0x0A, 0x00, 0x00, 0x00, 0x0A, 0x00, 0x00, 0x00,
  0x0C, 0x00, 0x0C, 0x00, 0x00, 0x00, 0x00, 0x00, 0x08, 0x00,
  0x04, 0x00, 0x0C, 0x00, 0x00, 0x00, 0x08, 0x00, 0x00, 0x00,
  0x10, 0x00, 0x00, 0x00, 0x01, 0x00, 0x00, 0x00, 0x80, 0xFF,
  0xFF, 0xFF, 0xFF, 0xFF, 0xFF, 0xFF, 0x01, 0x00, 0x00, 0x00,
  0x00, 0x00, 0x80, 0x3F, 0x21, 0x00, 0x00, 0x00, 0x73, 0x65,
  0x72, 0x76, 0x69, 0x6E, 0x67, 0x5F, 0x64, 0x65, 0x66, 0x61,
  0x75, 0x6C, 0x74, 0x5F, 0x72, 0x65, 0x73, 0x68, 0x61, 0x70,
  0x65, 0x5F, 0x31, 0x5F, 0x69, 0x6E, 0x70, 0x75, 0x74, 0x3A,
  0x30, 0x00, 0x00, 0x00, 0x03, 0x00, 0x00, 0x00, 0x01, 0x00,
  0x00, 0x00, 0x0A, 0x00, 0x00, 0x00, 0x0A, 0x00, 0x00, 0x00,
  0x09, 0x00, 0x00, 0x00, 0xB0, 0x00, 0x00, 0x00, 0x94, 0x00,
  0x00, 0x00, 0x84, 0x00, 0x00, 0x00, 0x74, 0x00, 0x00, 0x00,
  0x60, 0x00, 0x00, 0x00, 0x40, 0x00, 0x00, 0x00, 0x2C, 0x00,
  0x00, 0x00, 0x18, 0x00, 0x00, 0x00, 0x04, 0x00, 0x00, 0x00,
  0xC0, 0xFF, 0xFF, 0xFF, 0x19, 0x00, 0x00, 0x00, 0x02, 0x00,
  0x00, 0x00, 0x00, 0x00, 0x00, 0x19, 0xD0, 0xFF, 0xFF, 0xFF,
  0x09, 0x00, 0x00, 0x00, 0x04, 0x00, 0x00, 0x00, 0x00, 0x00,
  0x00, 0x09, 0xE0, 0xFF, 0xFF, 0xFF, 0x04, 0x00, 0x00, 0x00,
  0x03, 0x00, 0x00, 0x00, 0x00, 0x00, 0x00, 0x04, 0xF0, 0xFF,
  0xFF, 0xFF, 0x11, 0x00, 0x00, 0x00, 0x02, 0x00, 0x00, 0x00,
  0x00, 0x00, 0x00, 0x11, 0x0C, 0x00, 0x10, 0x00, 0x0F, 0x00,
  0x00, 0x00, 0x08, 0x00, 0x04, 0x00, 0x0C, 0x00, 0x00, 0x00,
  0x03, 0x00, 0x00, 0x00, 0x03, 0x00, 0x00, 0x00, 0x00, 0x00,
  0x00, 0x03, 0xDC, 0xFF, 0xFF, 0xFF, 0x16, 0x00, 0x00, 0x00,
  0x00, 0x00, 0x00, 0x16, 0xE8, 0xFF, 0xFF, 0xFF, 0x53, 0x00,
  0x00, 0x00, 0x00, 0x00, 0x00, 0x53, 0xF4, 0xFF, 0xFF, 0xFF,
  0x2D, 0x00, 0x00, 0x00, 0x00, 0x00, 0x00, 0x2D, 0x0C, 0x00,
  0x0C, 0x00, 0x0B, 0x00, 0x00, 0x00, 0x00, 0x00, 0x04, 0x00,
  0x0C, 0x00, 0x00, 0x00, 0x4D, 0x00, 0x00, 0x00, 0x00, 0x00,
  0x00, 0x4D
};
unsigned int model_tflite_len = 7072;