#include "target_model.h"
const unsigned char model_tflite[] = {
  0x1C, 0x00, 0x00, 0x00, 0x54, 0x46, 0x4C, 0x33, 0x14, 0x00,
  0x20, 0x00, 0x1C, 0x00, 0x18, 0x00, 0x14, 0x00, 0x10, 0x00,
  0x0C, 0x00, 0x00, 0x00, 0x08, 0x00, 0x04, 0x00, 0x14, 0x00,
  0x00, 0x00, 0x1C, 0x00, 0x00, 0x00, 0x88, 0x00, 0x00, 0x00,
  0xE0, 0x00, 0x00, 0x00, 0xA4, 0x0F, 0x00, 0x00, 0xB4, 0x0F,
  0x00, 0x00, 0x3C, 0x22, 0x00, 0x00, 0x03, 0x00, 0x00, 0x00,
  0x01, 0x00, 0x00, 0x00, 0x04, 0x00, 0x00, 0x00, 0x3A, 0xEE,
  0xFF, 0xFF, 0x0C, 0x00, 0x00, 0x00, 0x1C, 0x00, 0x00, 0x00,
  0x38, 0x00, 0x00, 0x00, 0x0F, 0x00, 0x00, 0x00, 0x73, 0x65,
  0x72, 0x76, 0x69, 0x6E, 0x67, 0x5F, 0x64, 0x65, 0x66, 0x61,
  0x75, 0x6C, 0x74, 0x00, 0x01, 0x00, 0x00, 0x00, 0x04, 0x00,
  0x00, 0x00, 0x94, 0xFF, 0xFF, 0xFF, 0x16, 0x00, 0x00, 0x00,
  0x04, 0x00, 0x00, 0x00, 0x05, 0x00, 0x00, 0x00, 0x64, 0x65,
  0x6E, 0x73, 0x65, 0x00, 0x00, 0x00, 0x01, 0x00, 0x00, 0x00,
  0x04, 0x00, 0x00, 0x00, 0x3E, 0xEE, 0xFF, 0xFF, 0x04, 0x00,
  0x00, 0x00, 0x0D, 0x00, 0x00, 0x00, 0x72, 0x65, 0x73, 0x68,
  0x61, 0x70, 0x65, 0x5F, 0x69, 0x6E, 0x70, 0x75, 0x74, 0x00,
  0x00, 0x00, 0x02, 0x00, 0x00, 0x00, 0x34, 0x00, 0x00, 0x00,
  0x04, 0x00, 0x00, 0x00, 0xDC, 0xFF, 0xFF, 0xFF, 0x19, 0x00,
  0x00, 0x00, 0x04, 0x00, 0x00, 0x00, 0x13, 0x00, 0x00, 0x00,
  0x43, 0x4F, 0x4E, 0x56, 0x45, 0x52, 0x53, 0x49, 0x4F, 0x4E,
  0x5F, 0x4D, 0x45, 0x54, 0x41, 0x44, 0x41, 0x54, 0x41, 0x00,
  0x08, 0x00, 0x0C, 0x00, 0x08, 0x00, 0x04, 0x00, 0x08, 0x00,
  0x00, 0x00, 0x18, 0x00, 0x00, 0x00, 0x04, 0x00, 0x00, 0x00,
  0x13, 0x00, 0x00, 0x00, 0x6D, 0x69, 0x6E, 0x5F, 0x72, 0x75,
  0x6E, 0x74, 0x69, 0x6D, 0x65, 0x5F, 0x76, 0x65, 0x72, 0x73,
  0x69, 0x6F, 0x6E, 0x00, 0x1A, 0x00, 0x00, 0x00, 0xC0, 0x0E,
  0x00, 0x00, 0xB8, 0x0E, 0x00, 0x00, 0xA4, 0x0E, 0x00, 0x00,
  0x90, 0x0E, 0x00, 0x00, 0x7C, 0x0E, 0x00, 0x00, 0x74, 0x0E,
  0x00, 0x00, 0x5C, 0x0E, 0x00, 0x00, 0x44, 0x0E, 0x00, 0x00,
  0x34, 0x06, 0x00, 0x00, 0xE4, 0x05, 0x00, 0x00, 0xD4, 0x01,
  0x00, 0x00, 0x84, 0x01, 0x00, 0x00, 0xE4, 0x00, 0x00, 0x00,
  0xDC, 0x00, 0x00, 0x00, 0xD4, 0x00, 0x00, 0x00, 0xCC, 0x00,
  0x00, 0x00, 0xC4, 0x00, 0x00, 0x00, 0xBC, 0x00, 0x00, 0x00,
  0xB4, 0x00, 0x00, 0x00, 0xAC, 0x00, 0x00, 0x00, 0xA4, 0x00,
  0x00, 0x00, 0x9C, 0x00, 0x00, 0x00, 0x94, 0x00, 0x00, 0x00,
  0x8C, 0x00, 0x00, 0x00, 0x6C, 0x00, 0x00, 0x00, 0x04, 0x00,
  0x00, 0x00, 0x22, 0xEF, 0xFF, 0xFF, 0x04, 0x00, 0x00, 0x00,
  0x58, 0x00, 0x00, 0x00, 0x0C, 0x00, 0x00, 0x00, 0x08, 0x00,
  0x0E, 0x00, 0x08, 0x00, 0x04, 0x00, 0x08, 0x00, 0x00, 0x00,
  0x10, 0x00, 0x00, 0x00, 0x28, 0x00, 0x00, 0x00, 0x00, 0x00,
  0x06, 0x00, 0x08, 0x00, 0x04, 0x00, 0x06, 0x00, 0x00, 0x00,
  0x04, 0x00, 0x00, 0x00, 0x01, 0x00, 0x00, 0x00, 0xEB, 0x03,
  0x00, 0x00, 0x00, 0x00, 0x0A, 0x00, 0x10, 0x00, 0x0C, 0x00,
  0x08, 0x00, 0x04, 0x00, 0x0A, 0x00, 0x00, 0x00, 0x01, 0x00,
  0x00, 0x00, 0x02, 0x00, 0x00, 0x00, 0x04, 0x00, 0x00, 0x00,
  0x06, 0x00, 0x00, 0x00, 0x32, 0x2E, 0x31, 0x32, 0x2E, 0x30,
  0x00, 0x00, 0x86, 0xEF, 0xFF, 0xFF, 0x04, 0x00, 0x00, 0x00,
  0x10, 0x00, 0x00, 0x00, 0x31, 0x2E, 0x31, 0x34, 0x2E, 0x30,
  0x00, 0x00, 0x00, 0x00, 0x00, 0x00, 0x00, 0x00, 0x00, 0x00,
  0x70, 0xE0, 0xFF, 0xFF, 0x74, 0xE0, 0xFF, 0xFF, 0x78, 0xE0,
  0xFF, 0xFF, 0x7C, 0xE0, 0xFF, 0xFF, 0x80, 0xE0, 0xFF, 0xFF,
  0x84, 0xE0, 0xFF, 0xFF, 0x88, 0xE0, 0xFF, 0xFF, 0x8C, 0xE0,
  0xFF, 0xFF, 0x90, 0xE0, 0xFF, 0xFF, 0x94, 0xE0, 0xFF, 0xFF,
  0x98, 0xE0, 0xFF, 0xFF, 0xCE, 0xEF, 0xFF, 0xFF, 0x04, 0x00,
  0x00, 0x00, 0x90, 0x00, 0x00, 0x00, 0x7F, 0x00, 0x88, 0xE3,
  0xEC, 0x65, 0xD6, 0x6F, 0x79, 0x9F, 0xBC, 0x95, 0x81, 0x43,
  0x61, 0x53, 0x0A, 0x66, 0x7F, 0x8A, 0x85, 0xAE, 0x3B, 0xFC,
  0x37, 0x2C, 0xA1, 0x69, 0x3B, 0x40, 0x7F, 0x03, 0xEF, 0xE5,
  0xEB, 0xB0, 0x62, 0x6F, 0x4B, 0x32, 0x7F, 0x05, 0xEE, 0xFB,
  0x5E, 0x53, 0xCC, 0x9B, 0x6E, 0x81, 0x90, 0xD1, 0x26, 0xB4,
  0xEC, 0x51, 0x07, 0x7F, 0xBA, 0x60, 0xD8, 0xEE, 0xA3, 0x36,
  0x81, 0xA5, 0x7D, 0x62, 0xB1, 0xC9, 0xD4, 0x63, 0xBD, 0x24,
  0x9E, 0x5B, 0xE8, 0xD0, 0x90, 0xB0, 0x81, 0x81, 0xC7, 0x25,
  0x15, 0x6B, 0x6A, 0x33, 0x40, 0x37, 0x6F, 0x7F, 0xC2, 0x87,
  0xCA, 0x1E, 0x2D, 0xF0, 0x32, 0xF7, 0xE4, 0x27, 0x62, 0x9E,
  0x81, 0xFE, 0xB8, 0xFA, 0x9B, 0xFC, 0x16, 0xAF, 0x13, 0xE6,
  0x10, 0x74, 0x81, 0xA1, 0x20, 0x06, 0x86, 0xCB, 0x14, 0xAE,
  0x81, 0x12, 0x54, 0x81, 0x13, 0x49, 0x8D, 0xBC, 0x22, 0xFF,
  0xF9, 0x7F, 0x8E, 0xBA, 0x1D, 0x19, 0xCB, 0xFE, 0xDB, 0xB9,
  0x6A, 0xF0, 0xFF, 0xFF, 0x04, 0x00, 0x00, 0x00, 0x40, 0x00,
  0x00, 0x00, 0xD2, 0xEE, 0xFF, 0xFF, 0x5E, 0xFE, 0xFF, 0xFF,
  0x8A, 0x21, 0x00, 0x00, 0x9A, 0xF4, 0xFF, 0xFF, 0x79, 0xE7,
  0xFF, 0xFF, 0x5F, 0x50, 0x00, 0x00, 0xCF, 0x01, 0x00, 0x00,
  0x29, 0x07, 0x00, 0x00, 0x0A, 0xFE, 0xFF, 0xFF, 0xCD, 0xF9,
  0xFF, 0xFF, 0xFA, 0xFB, 0xFF, 0xFF, 0xC9, 0xF7, 0xFF, 0xFF,
  0xF6, 0x32, 0x00, 0x00, 0x6C, 0xFA, 0xFF, 0xFF, 0x5E, 0x11,
  0x00, 0x00, 0x74, 0x1B, 0x00, 0x00, 0xB6, 0xF0, 0xFF, 0xFF,
  0x04, 0x00, 0x00, 0x00, 0x00, 0x04, 0x00, 0x00, 0xE9, 0x12,
  0x1A, 0x6A, 0xC4, 0x5B, 0x06, 0xC9, 0x1C, 0xA6, 0x05, 0xBF,
  0x3F, 0x3D, 0xDF, 0xE8, 0x01, 0x5D, 0xF4, 0xEE, 0xD2, 0x4A,
  0xD0, 0xDF, 0x9D, 0x13, 0x62, 0x3B, 0x61, 0xA1, 0x28, 0xF7,
  0x4A, 0x05, 0xAB, 0xA8, 0xC0, 0x18, 0xCA, 0x9F, 0xAC, 0xA7,
  0x46, 0x0D, 0x3B, 0x4A, 0x3D, 0xEA, 0xEF, 0xD1, 0xF8, 0x5D,
  0xD3, 0x21, 0x21, 0xB9, 0xAF, 0x38, 0x17, 0xCC, 0x3D, 0x58,
  0xFE, 0xDC, 0xAC, 0x28, 0x10, 0xFD, 0xF5, 0x37, 0xC7, 0xAE,
  0x2E, 0xDD, 0xBF, 0xD7, 0x59, 0x88, 0xF1, 0x26, 0xB0, 0x05,
  0x35, 0xCC, 0xDD, 0x43, 0xE2, 0x3E, 0xFA, 0x4B, 0xB9, 0x49,
  0x56, 0x63, 0x27, 0xE2, 0xEC, 0x57, 0x05, 0xF7, 0xD4, 0x63,
  0xA7, 0xF9, 0xD4, 0x99, 0x81, 0x34, 0x41, 0x5F, 0x39, 0x07,
  0x4B, 0xD1, 0x06, 0x09, 0x1C, 0x59, 0x9D, 0x76, 0x60, 0xFD,
  0xEA, 0xCF, 0x51, 0x22, 0x35, 0xCD, 0x86, 0xEA, 0xFA, 0x5A,
  0xD9, 0x3B, 0xF2, 0xE0, 0xC8, 0x5F, 0x1B, 0xBF, 0x5E, 0x8D,
  0xE7, 0x15, 0xA6, 0x4C, 0x9A, 0x79, 0x8F, 0x14, 0xE9, 0x4B,
  0xC7, 0x0D, 0x11, 0xA2, 0x6C, 0xFF, 0x09, 0xE4, 0x81, 0x68,
  0xF4, 0xC2, 0x90, 0x3A, 0x0C, 0xDF, 0xC8, 0x40, 0x45, 0x93,
  0x52, 0x90, 0x18, 0xFA, 0x29, 0x68, 0xDC, 0x1F, 0xE1, 0x31,
  0xBC, 0xDB, 0x0B, 0xA6, 0xF6, 0x33, 0x3C, 0xF3, 0xE9, 0xB4,
  0xB6, 0x00, 0x30, 0x14, 0xB9, 0x36, 0xE2, 0x62, 0x14, 0xC9,
  0x9F, 0x30, 0x33, 0x08, 0x3A, 0xC9, 0xD5, 0x12, 0x42, 0x28,
  0x1B, 0x6B, 0x43, 0x33, 0x81, 0x5C, 0x99, 0xFE, 0x19, 0x16,
  0x30, 0xD4, 0xBA, 0x55, 0xF5, 0x17, 0xF9, 0x2E, 0xDA, 0x44,
  0x9A, 0x04, 0x39, 0x8E, 0x48, 0x25, 0x11, 0xE9, 0x2F, 0x6F,
  0x00, 0xF8, 0xEB, 0x20, 0xFE, 0x4A, 0x2A, 0x3E, 0x54, 0x36,
  0x60, 0x41, 0x65, 0xCD, 0xD4, 0xEE, 0xB9, 0x50, 0xAD, 0x1F,
  0x4B, 0x2B, 0xFE, 0xED, 0x21, 0x5C, 0x33, 0x2E, 0x34, 0x40,
  0xA6, 0xE8, 0x2B, 0xE3, 0x81, 0x21, 0x3F, 0xC5, 0x71, 0x43,
  0xF8, 0x2C, 0x1E, 0x1E, 0x36, 0xD5, 0xEE, 0x18, 0xD6, 0x0E,
  0x85, 0x32, 0xD2, 0xBE, 0x81, 0x2E, 0x90, 0x74, 0x0A, 0x19,
  0x28, 0xEB, 0xB2, 0x1F, 0x54, 0x9B, 0xED, 0x43, 0x41, 0x30,
  0xB8, 0x81, 0xED, 0x25, 0x35, 0x07, 0xE4, 0x25, 0x07, 0x25,
  0x0D, 0x5D, 0x17, 0x57, 0x09, 0xE9, 0xAA, 0x46, 0x23, 0x12,
  0x4B, 0x3D, 0x12, 0x1B, 0xF4, 0x18, 0x4C, 0x11, 0x11, 0x62,
  0xF2, 0x27, 0x4F, 0x3A, 0x22, 0x51, 0x6F, 0xF8, 0x01, 0xFD,
  0x46, 0xFC, 0x1B, 0xEE, 0xE0, 0x1B, 0x43, 0x76, 0xAA, 0xBB,
  0xB2, 0x63, 0x31, 0x8B, 0x1C, 0x33, 0x82, 0x54, 0x4A, 0x3F,
  0xF0, 0x4F, 0x95, 0x24, 0xA3, 0x93, 0x0C, 0x32, 0x5A, 0x51,
  0x6F, 0x1A, 0xC9, 0x10, 0x1F, 0xC9, 0xCC, 0x20, 0x92, 0x42,
  0xDF, 0x8F, 0x28, 0x3D, 0x3E, 0x02, 0xF8, 0xDA, 0xC0, 0xE0,
  0x0C, 0xE1, 0x83, 0x48, 0x4D, 0xC6, 0xBB, 0xEC, 0xE2, 0xB1,
  0x2A, 0x61, 0x63, 0x28, 0x41, 0xC0, 0xD8, 0x60, 0x9E, 0x4F,
  0x98, 0x5D, 0x6B, 0x9D, 0x37, 0x43, 0x18, 0xDA, 0x55, 0xC3,
  0xA8, 0x0E, 0x04, 0xD8, 0xD1, 0x7F, 0x2A, 0x18, 0x46, 0xB3,
  0x99, 0x0D, 0x7F, 0x60, 0xF0, 0x34, 0x3D, 0x0D, 0x31, 0x70,
  0xE3, 0x48, 0xA8, 0xEA, 0xA1, 0x56, 0x9D, 0x2A, 0x4C, 0xD6,
  0x3F, 0xF0, 0xD5, 0x72, 0x7F, 0xD9, 0x1D, 0x58, 0x02, 0xB9,
  0x0D, 0xB6, 0x0B, 0xB7, 0x58, 0xE7, 0x57, 0x03, 0x4D, 0x6E,
  0x0B, 0xEB, 0x19, 0x55, 0xBA, 0x58, 0xF5, 0x47, 0xB3, 0x8C,
  0x3F, 0x90, 0x63, 0x07, 0xCD, 0x18, 0xE8, 0x03, 0x23, 0x1B,
  0xAE, 0x6D, 0x27, 0x1F, 0xC2, 0x3A, 0x63, 0xF8, 0x56, 0x69,
  0xCE, 0x6A, 0xE2, 0xD1, 0x04, 0x45, 0x9A, 0x0B, 0xEE, 0xCB,
  0xC8, 0xFB, 0x10, 0x85, 0x0B, 0x5E, 0xB0, 0x7A, 0xE0, 0xF5,
  0xB4, 0x20, 0x81, 0xCF, 0x6E, 0xD3, 0x8B, 0x4D, 0x39, 0xF8,
  0x35, 0x10, 0x88, 0x33, 0xCB, 0x0B, 0xE9, 0x5D, 0xCC, 0x7F,
  0x3D, 0xE4, 0x62, 0xFB, 0x2C, 0xE7, 0x29, 0x52, 0x18, 0xC3,
  0x4B, 0x5C, 0xE9, 0x44, 0xCE, 0x06, 0x44, 0x0C, 0x84, 0xCB,
  0x3E, 0xFA, 0xEF, 0x56, 0x28, 0xBE, 0x2E, 0xEC, 0xD0, 0x2D,
  0x2F, 0x62, 0xEE, 0x0A, 0x91, 0x5A, 0x11, 0x2F, 0xFE, 0x2E,
  0x41, 0xD3, 0x4E, 0x5E, 0x25, 0x37, 0x14, 0x64, 0x28, 0x55,
  0x40, 0xAA, 0x2F, 0x08, 0x0F, 0xE8, 0x2A, 0x65, 0x6B, 0x5E,
  0x04, 0x36, 0xA2, 0x36, 0xBB, 0x4F, 0xD5, 0x6E, 0x4E, 0xE8,
  0x7F, 0x09, 0x01, 0xC0, 0x0F, 0x41, 0x08, 0x0A, 0xA5, 0x66,
  0x4E, 0xCB, 0x8E, 0x31, 0x4E, 0x6C, 0x27, 0x77, 0xF1, 0xD9,
  0xB2, 0xE9, 0xDD, 0x48, 0xC9, 0xFF, 0xBB, 0xE7, 0x69, 0x76,
  0x37, 0x8F, 0xC0, 0x38, 0xAC, 0x44, 0xF2, 0xDC, 0xD2, 0x25,
  0x1E, 0xD7, 0x2E, 0x65, 0xD8, 0x81, 0x15, 0x4E, 0x68, 0x62,
  0xBA, 0xFD, 0xE9, 0x17, 0xE5, 0x4A, 0x3B, 0x13, 0xB3, 0x20,
  0x22, 0x2C, 0xED, 0x14, 0x1A, 0x20, 0x3D, 0xB1, 0x31, 0xEC,
  0xF0, 0x24, 0xDE, 0x40, 0xEF, 0x18, 0xB9, 0x1A, 0x13, 0x08,
  0x06, 0x44, 0x14, 0xE7, 0xF3, 0xC8, 0x0B, 0x42, 0x34, 0xE7,
  0xFF, 0x1A, 0xB3, 0xCC, 0x5F, 0xAE, 0x03, 0xDB, 0x07, 0xED,
  0x3C, 0x55, 0x1A, 0x5C, 0x30, 0x60, 0x29, 0x92, 0x05, 0x2F,
  0x27, 0x16, 0x68, 0xFF, 0x4A, 0x26, 0x1B, 0xC9, 0x48, 0x56,
  0xC9, 0x0A, 0xE3, 0xA2, 0xB9, 0x54, 0x71, 0x23, 0x3D, 0x65,
  0x99, 0x02, 0x2B, 0x1F, 0x13, 0x36, 0x17, 0xCD, 0xBF, 0x90,
  0xFE, 0x60, 0x69, 0xD3, 0x0D, 0x17, 0x95, 0x21, 0x07, 0x81,
  0x11, 0x0C, 0xD0, 0x31, 0xC4, 0xA1, 0xD5, 0xB3, 0x42, 0xDC,
  0x0D, 0x34, 0x16, 0x7F, 0x2A, 0x23, 0xD5, 0x3A, 0x36, 0xE0,
  0xD3, 0xA1, 0x0D, 0x84, 0xF4, 0x1E, 0x22, 0x0E, 0xEB, 0xC2,
  0x01, 0x22, 0xF3, 0x53, 0xE0, 0xC1, 0x4B, 0xA5, 0xBD, 0x1D,
  0xEB, 0x75, 0x3A, 0x15, 0x12, 0x4D, 0x62, 0x62, 0x47, 0x29,
  0xF6, 0xB1, 0x36, 0xF7, 0x8D, 0xE5, 0x15, 0x36, 0xF7, 0xEF,
  0x96, 0xB3, 0x1F, 0x42, 0x40, 0x30, 0xC7, 0xD0, 0x28, 0x02,
  0xE0, 0x93, 0x63, 0x3B, 0xF3, 0x1C, 0x39, 0xF0, 0x2A, 0x00,
  0x04, 0x28, 0x92, 0x9D, 0x93, 0xEC, 0x4F, 0x5B, 0x53, 0xC7,
  0x0B, 0xE4, 0x02, 0x14, 0x57, 0x53, 0xF4, 0x34, 0xF8, 0xBA,
  0xE7, 0xB7, 0xC0, 0x3A, 0x1C, 0xDC, 0x15, 0x7F, 0x25, 0xB8,
  0x11, 0x79, 0xFB, 0x4D, 0xBB, 0x6F, 0x00, 0x22, 0x45, 0x36,
  0x2F, 0x7F, 0x2E, 0xE4, 0x34, 0xC0, 0x1C, 0x5D, 0x3E, 0x2A,
  0xBF, 0x5A, 0xCF, 0xFE, 0x9F, 0xCE, 0xF7, 0x1B, 0xBC, 0x16,
  0x51, 0xFB, 0x68, 0x25, 0x21, 0xFF, 0x16, 0x49, 0xC1, 0x45,
  0x32, 0x2D, 0x0F, 0xA9, 0x3B, 0x11, 0xE6, 0x4B, 0x05, 0xB8,
  0x51, 0x3A, 0x03, 0xEA, 0xE8, 0xB8, 0x93, 0x40, 0xD2, 0x17,
  0x1D, 0x60, 0x5B, 0x53, 0x1B, 0x00, 0x4C, 0x52, 0xA1, 0x02,
  0xB3, 0x3B, 0xD6, 0x57, 0x44, 0x5C, 0x21, 0x2C, 0x3E, 0x1D,
  0x68, 0x40, 0x1D, 0x0B, 0x1E, 0x59, 0xBB, 0x32, 0x41, 0x63,
  0x0C, 0x0C, 0x1D, 0x27, 0xA6, 0x58, 0x4E, 0xA2, 0x2A, 0x39,
  0xD0, 0x2F, 0x98, 0x02, 0x0A, 0x68, 0x42, 0x65, 0xEE, 0x3E,
  0x32, 0x01, 0x50, 0xC3, 0x0E, 0x45, 0xED, 0x03, 0xE5, 0xD5,
  0x50, 0xE8, 0x48, 0xB5, 0x30, 0x12, 0xD9, 0x1B, 0x36, 0x63,
  0x3E, 0x13, 0x1A, 0x20, 0xC9, 0x14, 0x31, 0x8C, 0x4E, 0x50,
  0x37, 0x6F, 0xC2, 0xF4, 0xFF, 0xFF, 0x04, 0x00, 0x00, 0x00,
  0x40, 0x00, 0x00, 0x00, 0xF6, 0xED, 0xFF, 0xFF, 0x80, 0xFF,
  0xFF, 0xFF, 0x12, 0xFF, 0xFF, 0xFF, 0xF1, 0xF7, 0xFF, 0xFF,
  0x15, 0x20, 0x00, 0x00, 0x8F, 0xFF, 0xFF, 0xFF, 0xF1, 0xF7,
  0xFF, 0xFF, 0xD6, 0xFF, 0xFF, 0xFF, 0xBF, 0xFC, 0xFF, 0xFF,
  0xDD, 0xF2, 0xFF, 0xFF, 0xB2, 0xEF, 0xFF, 0xFF, 0x45, 0xF3,
  0xFF, 0xFF, 0x56, 0xFF, 0xFF, 0xFF, 0xE7, 0xF5, 0xFF, 0xFF,
  0x15, 0xFF, 0xFF, 0xFF, 0xDE, 0xFF, 0xFF, 0xFF, 0x0E, 0xF5,
  0xFF, 0xFF, 0x04, 0x00, 0x00, 0x00, 0x00, 0x08, 0x00, 0x00,
  0xE9, 0xFC, 0x15, 0xDF, 0x0C, 0xEC, 0x05, 0xE9, 0xE2, 0xE2,
  0xEF, 0x1E, 0x00, 0xED, 0xFE, 0x1A, 0xE9, 0x1B, 0xF2, 0xEA,
  0x27, 0xF4, 0xEB, 0xF5, 0x17, 0xE5, 0x03, 0xE1, 0x03, 0xF8,
  0x17, 0xFE, 0xF4, 0x02, 0xFD, 0xF4, 0x4F, 0xF0, 0x0E, 0x20,
  0x04, 0x16, 0xFF, 0xDD, 0x1B, 0x21, 0x40, 0x06, 0x13, 0xF1,
  0x02, 0x10, 0x24, 0x1F, 0x0B, 0x0B, 0xFC, 0x00, 0x00, 0xF3,
  0x12, 0x21, 0x25, 0x11, 0x15, 0x1B, 0x13, 0x0D, 0x52, 0x11,
  0xE8, 0x14, 0xDB, 0xE2, 0x09, 0x0B, 0x0B, 0xDE, 0x15, 0xEB,
  0x07, 0xE8, 0x01, 0x04, 0x1F, 0x0C, 0x1E, 0x16, 0x06, 0x18,
  0x22, 0xFB, 0x1B, 0xE5, 0x38, 0xF4, 0x29, 0x04, 0xF4, 0xE6,
  0x3A, 0xEF, 0xF8, 0x15, 0x0C, 0x0B, 0x03, 0xEC, 0x18, 0x1A,
  0x17, 0xF3, 0xFB, 0xE5, 0x32, 0xE0, 0x26, 0x00, 0xE6, 0x00,
  0xE2, 0xF7, 0x10, 0xED, 0x20, 0x07, 0x18, 0xEC, 0x21, 0x0B,
  0xFA, 0xF5, 0x12, 0xF8, 0x19, 0x12, 0xE5, 0xF0, 0xEB, 0xE4,
  0x09, 0x0E, 0x34, 0xE4, 0xFB, 0xF7, 0x0E, 0xEE, 0x10, 0xE5,
  0xDE, 0x06, 0xFD, 0x20, 0xDE, 0xF1, 0xEE, 0xEB, 0x1E, 0x12,
  0xFF, 0x10, 0xFC, 0xFE, 0x13, 0x17, 0x00, 0xF3, 0x14, 0xE2,
  0x12, 0x0B, 0xF0, 0xEE, 0xF3, 0x1A, 0x21, 0xEB, 0xF1, 0x0A,
  0x01, 0xE9, 0xEC, 0xDC, 0xEC, 0xE5, 0xFF, 0x12, 0x1B, 0x21,
  0x1D, 0x14, 0xF6, 0xF0, 0x05, 0xEB, 0xFC, 0xF3, 0xEC, 0xE7,
  0xE7, 0x00, 0xFB, 0xE0, 0x01, 0xFF, 0x11, 0xE6, 0xED, 0xD8,
  0xEF, 0xDC, 0x1F, 0xE6, 0x0A, 0x06, 0x0A, 0x16, 0xED, 0xDA,
  0x14, 0xF1, 0xF8, 0x01, 0xF5, 0xEA, 0x07, 0x11, 0x24, 0xCF,
  0xF6, 0x20, 0xDE, 0x15, 0x19, 0xFD, 0xDA, 0x1E, 0x27, 0xFC,
  0xF0, 0xF9, 0xF7, 0xEC, 0xFC, 0x01, 0x08, 0x19, 0xDF, 0xEE,
  0x14, 0xE8, 0x20, 0xE6, 0x1F, 0xEB, 0x00, 0x10, 0xFE, 0xE4,
  0x1D, 0xD5, 0xDD, 0x0A, 0xF6, 0xE6, 0xE9, 0x21, 0x09, 0x06,
  0xE8, 0x11, 0x06, 0xDE, 0xE7, 0xDC, 0x0C, 0xED, 0x16, 0xE8,
  0xE2, 0xE8, 0xEF, 0xDD, 0xCF, 0xF4, 0xEE, 0xDC, 0x15, 0x0D,
  0xE2, 0x15, 0xCE, 0xF3, 0xFD, 0xEB, 0x1A, 0xF6, 0xFF, 0x0A,
  0xFA, 0xEA, 0xE4, 0x07, 0xEF, 0xE3, 0x1C, 0xEB, 0xEB, 0xEC,
  0xF8, 0xCA, 0xF9, 0xE3, 0xF8, 0x05, 0x0A, 0xDE, 0x21, 0xEE,
  0xF1, 0xFA, 0xFE, 0xFA, 0xD3, 0xE1, 0xE5, 0xDE, 0xF8, 0x21,
  0x1C, 0xEF, 0xD4, 0xFB, 0x0F, 0x17, 0xE5, 0xE9, 0xDB, 0x0F,
  0x0A, 0xE9, 0x1F, 0xE3, 0x1E, 0x11, 0xFB, 0x17, 0xFE, 0x04,
  0x0E, 0xC7, 0xE1, 0x05, 0xD0, 0xF9, 0xFC, 0xEE, 0xE8, 0xE2,
  0xED, 0x06, 0xE9, 0x1E, 0xCE, 0xE3, 0xFF, 0x05, 0x1D, 0x19,
  0x22, 0x22, 0x18, 0xFA, 0xF6, 0xE4, 0x1A, 0xFA, 0x01, 0xEF,
  0xE6, 0xEC, 0xE8, 0x11, 0xEF, 0xE4, 0xDE, 0xEF, 0x42, 0xF9,
  0xFB, 0xF8, 0x08, 0xF1, 0x01, 0xE6, 0xE2, 0x0F, 0xE3, 0xFC,
  0xF0, 0xF7, 0x08, 0xEE, 0xF5, 0xE6, 0x0C, 0xFF, 0xFF, 0x19,
  0xFF, 0xF8, 0xEF, 0xF0, 0x02, 0xD9, 0xF2, 0xF4, 0x22, 0xED,
  0x1A, 0xF6, 0xE1, 0x02, 0xF2, 0xE3, 0xFE, 0x00, 0xD5, 0x0F,
  0x1B, 0xFA, 0x21, 0xCA, 0xE5, 0x11, 0xFB, 0xF6, 0x21, 0xD9,
  0x0E, 0xEF, 0xF0, 0x1F, 0xEF, 0xE8, 0x14, 0x1B, 0x0F, 0xE6,
  0xF0, 0x01, 0xEA, 0xEE, 0xE1, 0x06, 0x10, 0x18, 0x09, 0xEF,
  0xDE, 0x20, 0xFC, 0x1B, 0xE2, 0xDC, 0xFB, 0xF0, 0x1C, 0xC5,
  0x08, 0x04, 0x1E, 0xEF, 0xEC, 0x00, 0xC5, 0xF2, 0x01, 0xD3,
  0xE9, 0x01, 0x00, 0xED, 0xEA, 0xED, 0xF2, 0xEF, 0xFF, 0xEC,
  0x18, 0x01, 0xE3, 0x1C, 0xCD, 0xBE, 0xF4, 0xE8, 0x27, 0xE9,
  0xCB, 0xE8, 0xF1, 0x11, 0x00, 0xFC, 0xF3, 0xE7, 0x0F, 0x22,
  0xF2, 0xFA, 0x00, 0xEE, 0xF8, 0xF5, 0x16, 0xF8, 0x0A, 0xD8,
  0xEF, 0xF2, 0xF1, 0x17, 0xF3, 0xFC, 0xF3, 0xE1, 0x05, 0x09,
  0xDE, 0x26, 0xF8, 0xEF, 0x06, 0x06, 0x18, 0xF1, 0xEB, 0x1D,
  0xB2, 0xE8, 0xF6, 0xE8, 0xFA, 0xE8, 0xEE, 0x03, 0xEB, 0xCF,
  0xE5, 0x06, 0x17, 0xFE, 0xF4, 0x05, 0xCC, 0x11, 0xD5, 0xC1,
  0x04, 0xE3, 0xD1, 0xEB, 0x1B, 0xFF, 0x1F, 0xFC, 0xFC, 0xF2,
  0x0C, 0x1B, 0xDD, 0xF0, 0xDD, 0xDB, 0x26, 0xF8, 0xCA, 0xEF,
  0x0F, 0xFC, 0x21, 0x0C, 0x0C, 0x09, 0x01, 0xF9, 0xE8, 0xE8,
  0xFD, 0xC7, 0x16, 0xDB, 0xCF, 0xF9, 0x09, 0xBC, 0xED, 0xFA,
  0x04, 0x10, 0xE3, 0xE2, 0xCD, 0x06, 0xF8, 0xD5, 0xE5, 0xE3,
  0xED, 0xF0, 0x03, 0xE7, 0x0D, 0xD1, 0x1F, 0x14, 0x0E, 0xE6,
  0xED, 0xFF, 0xC0, 0xF9, 0xFB, 0xE7, 0xFB, 0x09, 0xC6, 0x10,
  0x0F, 0x22, 0xF9, 0xF2, 0x06, 0xFA, 0x05, 0xDF, 0xD9, 0xE4,
  0xF6, 0xE2, 0x08, 0xE7, 0x32, 0xF8, 0xFD, 0xED, 0xDA, 0xEA,
  0xF8, 0xFC, 0xE4, 0xEF, 0xFB, 0xFE, 0xFA, 0x14, 0xC2, 0x12,
  0xFD, 0xA1, 0xE4, 0xE7, 0x0F, 0x0E, 0xE4, 0x16, 0xD8, 0x23,
  0x00, 0xCF, 0xEF, 0xFF, 0x14, 0x1F, 0xC7, 0x9C, 0xE1, 0x00,
  0x15, 0xDD, 0xE6, 0x04, 0xD2, 0x02, 0xE8, 0xE8, 0x21, 0xF0,
  0xFB, 0x0A, 0xED, 0x9F, 0x13, 0xD4, 0xE7, 0x1C, 0x0C, 0xEA,
  0xC5, 0xE9, 0xD3, 0xCD, 0xF4, 0xE0, 0xB9, 0xEC, 0xFC, 0xDA,
  0xED, 0xDF, 0x11, 0xFA, 0xFD, 0xE0, 0xD9, 0x22, 0xCB, 0xBB,
  0xE7, 0xF6, 0xE5, 0x12, 0xE8, 0xAB, 0xE7, 0xFB, 0x14, 0x20,
  0x0C, 0x0E, 0xB6, 0xE3, 0xCC, 0xDB, 0xDF, 0xED, 0xEB, 0xEF,
  0xAA, 0xDD, 0x08, 0x1B, 0x10, 0xDD, 0xF4, 0x0C, 0xC0, 0xFE,
  0xE5, 0xED, 0xF6, 0x12, 0x16, 0xE7, 0xB2, 0x22, 0x15, 0x12,
  0xFA, 0x10, 0xF7, 0x04, 0x2B, 0x17, 0x1B, 0x1A, 0xEA, 0x17,
  0x2E, 0x13, 0x18, 0x28, 0xF8, 0xFE, 0x19, 0x12, 0x08, 0x15,
  0x12, 0xF9, 0x00, 0x08, 0x1F, 0xFF, 0xF5, 0x15, 0x35, 0xC0,
  0x0A, 0xDA, 0x08, 0xF9, 0x0F, 0x04, 0xC2, 0x21, 0xD3, 0x13,
  0xF3, 0xDE, 0xDB, 0x14, 0xEA, 0xD1, 0x06, 0x09, 0xF9, 0x1E,
  0xDA, 0x03, 0xBC, 0xF7, 0xD9, 0xF9, 0x1A, 0xE9, 0xBC, 0x30,
  0xAB, 0xCE, 0xF6, 0x04, 0x1D, 0xF1, 0x07, 0x0B, 0xA6, 0x13,
  0x02, 0x10, 0xE8, 0xF2, 0xD5, 0xFB, 0x8F, 0x9F, 0x12, 0xFC,
  0xE1, 0x06, 0xFB, 0x02, 0xB6, 0x04, 0xE5, 0x10, 0x10, 0xEC,
  0xE8, 0x1D, 0x9E, 0xBF, 0xE6, 0x00, 0xFA, 0x1D, 0x06, 0x1C,
  0xC1, 0xF3, 0xFA, 0xF0, 0x21, 0xE5, 0x41, 0x12, 0xB0, 0xCE,
  0xF6, 0x09, 0x0A, 0x03, 0xDB, 0xE3, 0xE4, 0x14, 0x2F, 0x26,
  0x06, 0x07, 0xFE, 0x16, 0x01, 0x0C, 0xF9, 0x22, 0xF6, 0x19,
  0xE5, 0xF9, 0xFC, 0x12, 0x16, 0x10, 0x26, 0x13, 0x3F, 0xDE,
  0x32, 0x35, 0x01, 0xF2, 0x1D, 0xEC, 0xF4, 0x09, 0x30, 0xF5,
  0x4E, 0x1E, 0x00, 0x16, 0x17, 0xE6, 0x1B, 0xFA, 0x12, 0x18,
  0x04, 0x0C, 0x1C, 0x1B, 0x21, 0xDD, 0x26, 0x28, 0xEB, 0x18,
  0xFA, 0x0B, 0x0E, 0x02, 0x04, 0xF2, 0xF4, 0x1A, 0x14, 0xFA,
  0xED, 0xE5, 0x20, 0x26, 0x22, 0x0A, 0x05, 0x08, 0xF9, 0x02,
  0x15, 0x27, 0x16, 0x12, 0xDF, 0xFF, 0xD1, 0x0F, 0x28, 0x0A,
  0x06, 0xDF, 0xFA, 0x23, 0xC2, 0xD6, 0x19, 0x22, 0x0B, 0xE4,
  0xD5, 0x19, 0xD9, 0x06, 0x19, 0x2E, 0x01, 0x14, 0x15, 0x12,
  0xAC, 0x03, 0x0A, 0x32, 0x18, 0xF6, 0x08, 0x1C, 0xFF, 0x16,
  0x43, 0x0B, 0x21, 0x07, 0xF9, 0x1C, 0xE0, 0x03, 0x22, 0xFB,
  0xFE, 0xFC, 0x19, 0xFD, 0x20, 0xF2, 0x1D, 0xEC, 0x25, 0xE4,
  0x0E, 0x14, 0x4A, 0x29, 0xFC, 0xFE, 0xFD, 0xDF, 0xE3, 0x03,
  0x2D, 0x06, 0x1D, 0xF9, 0xF8, 0x09, 0xF4, 0x1A, 0x02, 0x12,
  0xFD, 0xEF, 0x09, 0xE6, 0x22, 0x05, 0x07, 0xFA, 0x0E, 0x0A,
  0xEC, 0xEC, 0xFC, 0xE7, 0xEA, 0x0A, 0x12, 0xEF, 0xFD, 0x08,
  0xFF, 0x0D, 0xEE, 0x08, 0x02, 0xEA, 0x12, 0x1C, 0x0F, 0x02,
  0xA7, 0xDA, 0xFE, 0xE6, 0xFE, 0xF5, 0x23, 0xFB, 0x0B, 0xF4,
  0xFE, 0x05, 0xFB, 0xFC, 0xE5, 0xEC, 0xEE, 0x18, 0xF4, 0x01,
  0xFA, 0xE9, 0x06, 0x08, 0xF9, 0xF9, 0xE1, 0x09, 0xE5, 0xFB,
  0xCF, 0x13, 0xEA, 0xF5, 0xF2, 0xE7, 0xE9, 0x0C, 0xF5, 0x06,
  0xF8, 0xFB, 0xE8, 0x06, 0x08, 0x18, 0xF2, 0xF7, 0xF0, 0xE1,
  0xF8, 0xF0, 0x20, 0x0F, 0xEF, 0xEA, 0xD9, 0xF8, 0xD7, 0xE3,
  0x0B, 0x03, 0xD3, 0x0F, 0xEB, 0xE7, 0xE0, 0xE6, 0xF9, 0xF0,
  0xEF, 0xEB, 0x09, 0x23, 0x0A, 0xE2, 0xDC, 0x1D, 0x0B, 0xF6,
  0xF2, 0xF3, 0xF6, 0x1A, 0x0A, 0xE5, 0x0E, 0x17, 0x14, 0x02,
  0xFF, 0xFB, 0xDF, 0xFC, 0x0C, 0xE4, 0xBE, 0xFD, 0x19, 0x0A,
  0x07, 0x14, 0xF7, 0xE8, 0x0A, 0x1D, 0x02, 0x0E, 0xED, 0xFC,
  0xE7, 0xF8, 0xD9, 0x03, 0xFE, 0xDF, 0x0F, 0x1D, 0x12, 0x0F,
  0x2E, 0x1A, 0xC9, 0x16, 0x02, 0x0C, 0x13, 0xE8, 0xFA, 0xFD,
  0x04, 0x02, 0xEA, 0x21, 0x11, 0xFC, 0x27, 0x15, 0xDA, 0xF9,
  0xEE, 0xF0, 0x0A, 0xE9, 0xE5, 0xFD, 0x04, 0x29, 0x07, 0xE3,
  0xF3, 0x16, 0xFA, 0xEE, 0x05, 0xFC, 0xED, 0xFD, 0x1B, 0xFB,
  0xD1, 0x06, 0xEF, 0x23, 0xE8, 0xF3, 0x16, 0xF9, 0x06, 0x06,
  0xF1, 0x0E, 0x0F, 0xFC, 0xDA, 0x19, 0xD0, 0x0D, 0xF4, 0xF1,
  0xE2, 0xF3, 0x1E, 0x18, 0xF0, 0x1D, 0xD9, 0x24, 0x0B, 0x0E,
  0x02, 0x1F, 0xCA, 0x22, 0x0B, 0xDC, 0xE7, 0x1D, 0x1F, 0xE6,
  0x0F, 0x14, 0x0A, 0xE6, 0xF0, 0x15, 0xEA, 0xE7, 0xF3, 0xFE,
  0x14, 0xE4, 0x0B, 0xEF, 0xF1, 0xEA, 0xF0, 0x00, 0xF8, 0x11,
  0x10, 0x00, 0xFF, 0xF6, 0xC5, 0x31, 0x01, 0xDB, 0x10, 0x25,
  0xEF, 0xE9, 0x27, 0xE7, 0xDC, 0x20, 0xE8, 0xFB, 0x1D, 0xF8,
  0x19, 0x03, 0xE9, 0xFB, 0xF7, 0xF0, 0x04, 0x17, 0xF1, 0x02,
  0xE0, 0xE4, 0xE9, 0x2A, 0x15, 0x0C, 0x25, 0xEF, 0xF3, 0xF9,
  0xF4, 0x22, 0x0D, 0xE3, 0xF9, 0xEF, 0x0D, 0x2B, 0xE5, 0x16,
  0x05, 0xE5, 0x04, 0xF1, 0xDE, 0x12, 0xF0, 0xEC, 0xEB, 0xE6,
  0x23, 0xF9, 0xEF, 0x03, 0xE5, 0x00, 0x14, 0xF4, 0x0C, 0x34,
  0xF1, 0x01, 0x17, 0x0E, 0x21, 0x09, 0x3B, 0xFD, 0xE9, 0xF6,
  0x11, 0x08, 0xE7, 0xE4, 0x1E, 0x29, 0x00, 0x2A, 0x06, 0x05,
  0xFC, 0x19, 0x38, 0x15, 0x03, 0x27, 0x1D, 0xF1, 0x19, 0xE7,
  0x09, 0x07, 0xE6, 0xE2, 0x0F, 0xE6, 0x0B, 0x1C, 0x35, 0x0A,
  0x01, 0xEF, 0x09, 0xE6, 0xDA, 0x15, 0xDE, 0xE4, 0x05, 0xF4,
  0x1E, 0x02, 0x17, 0xFD, 0xFD, 0xE9, 0x16, 0xE9, 0xE6, 0x19,
  0x38, 0x04, 0xD7, 0x10, 0x16, 0x1A, 0x1C, 0xF8, 0x27, 0xEC,
  0x27, 0xE4, 0x2A, 0x2D, 0xEA, 0xF8, 0x1C, 0xF2, 0x0E, 0x36,
  0x22, 0x0F, 0x0E, 0x0F, 0x0A, 0x1D, 0x06, 0xEA, 0xEF, 0xFF,
  0x10, 0x2A, 0x0D, 0x19, 0x0C, 0xFA, 0xF4, 0xFE, 0xE0, 0x18,
  0x28, 0x0B, 0x1C, 0x22, 0x02, 0x02, 0xDE, 0x36, 0xDC, 0xE5,
  0x0B, 0xE4, 0xF7, 0x03, 0x15, 0xE1, 0x01, 0x0B, 0x06, 0xDE,
  0xF5, 0xE5, 0x1A, 0x2C, 0xF2, 0xEE, 0x02, 0xE9, 0xF2, 0x20,
  0xF2, 0xEA, 0xFE, 0xE5, 0x10, 0x02, 0x1F, 0xFC, 0x18, 0x0F,
  0x32, 0x08, 0xE4, 0x47, 0x06, 0x06, 0xF6, 0xEE, 0x03, 0xFF,
  0x2F, 0xDE, 0x1D, 0x12, 0xF2, 0xE7, 0x14, 0x20, 0x05, 0x30,
  0xE4, 0xF1, 0xEB, 0xEA, 0x12, 0x1C, 0x2B, 0xFC, 0x1D, 0x21,
  0x0E, 0x1E, 0xDE, 0x0D, 0xFE, 0x07, 0xE6, 0xD9, 0x21, 0x26,
  0xE8, 0x11, 0xF4, 0x1D, 0x03, 0xE3, 0xFA, 0xEA, 0x20, 0x12,
  0xB6, 0xF9, 0xEB, 0x05, 0xE8, 0xEC, 0xFF, 0xEC, 0x02, 0x0F,
  0x05, 0xE9, 0x1F, 0x2E, 0x39, 0xE4, 0x2D, 0x3B, 0xE0, 0x1B,
  0xE8, 0x12, 0xED, 0x0A, 0x3C, 0x00, 0x1D, 0xFF, 0xE5, 0x26,
  0xE9, 0xE4, 0xDD, 0x42, 0xE5, 0xF3, 0xE5, 0xF7, 0xEF, 0xF3,
  0x0F, 0x08, 0x00, 0x0F, 0xE8, 0x09, 0x0B, 0x0B, 0xF3, 0x35,
  0x21, 0xF2, 0x02, 0x1A, 0xEA, 0xDE, 0x00, 0xF7, 0xFD, 0x1C,
  0xDF, 0xFC, 0x36, 0xEF, 0xF4, 0x26, 0xEE, 0x17, 0xFB, 0x12,
  0x29, 0x18, 0x12, 0x05, 0xF8, 0x38, 0x10, 0xFD, 0x2B, 0x12,
  0x19, 0x32, 0xF4, 0x18, 0xF4, 0x0D, 0x19, 0xE7, 0x17, 0x00,
  0x02, 0x02, 0xF7, 0x06, 0x29, 0x0A, 0xF9, 0x1B, 0x15, 0x23,
  0xE8, 0x09, 0x0D, 0x14, 0x19, 0x1B, 0x4C, 0x39, 0x1A, 0x06,
  0x02, 0x1E, 0x3D, 0x02, 0xEE, 0x15, 0x0F, 0xE0, 0xF3, 0xE0,
  0x21, 0x10, 0x17, 0xEF, 0x03, 0x08, 0xE3, 0xD7, 0xC7, 0x2B,
  0x15, 0x27, 0x14, 0x15, 0x04, 0x06, 0x00, 0xE0, 0xF8, 0xF7,
  0x12, 0x08, 0x31, 0xE4, 0xF2, 0x23, 0x19, 0x10, 0xDF, 0x0A,
  0xF9, 0xEB, 0x2A, 0x22, 0x28, 0xF3, 0x17, 0x28, 0xEF, 0xD3,
  0x09, 0x32, 0x15, 0xF1, 0x02, 0x01, 0xEB, 0x0B, 0x4C, 0x07,
  0x13, 0x07, 0x0A, 0x28, 0x2C, 0xDB, 0x15, 0x64, 0xFF, 0x0F,
  0x20, 0x0D, 0xF0, 0x05, 0x38, 0x11, 0x31, 0x00, 0x1D, 0x30,
  0x2D, 0xDD, 0x0D, 0x26, 0xEB, 0x07, 0xE2, 0x04, 0xFE, 0x04,
  0x3B, 0xFE, 0x11, 0x2B, 0x07, 0x1F, 0x10, 0xE4, 0x37, 0x33,
  0x00, 0x1F, 0x1D, 0x07, 0x08, 0xF2, 0x12, 0x0E, 0x11, 0x19,
  0xF8, 0xF7, 0xF9, 0xFF, 0x40, 0x4C, 0x04, 0xF4, 0x22, 0xF8,
  0xF9, 0x0E, 0x01, 0x0B, 0xF7, 0x11, 0xDD, 0x2A, 0xD5, 0xEB,
  0x2E, 0xE7, 0xF5, 0xE0, 0xE5, 0x17, 0xE0, 0xF6, 0xF3, 0x05,
  0xEB, 0xE3, 0xF6, 0xDD, 0xE4, 0x1A, 0xE9, 0xFC, 0xF1, 0xEC,
  0xF0, 0x1D, 0xE3, 0x05, 0x14, 0xF5, 0x12, 0xEB, 0x0E, 0xE2,
  0x19, 0xD9, 0xF9, 0x0C, 0xF9, 0x16, 0x0C, 0xF8, 0x1F, 0x0D,
  0x3B, 0xEF, 0x22, 0x06, 0xF7, 0xEC, 0xE6, 0xF0, 0x1B, 0x4D,
  0x11, 0x03, 0x18, 0xE9, 0x12, 0x19, 0x5A, 0xFB, 0x1D, 0x04,
  0xE2, 0x0F, 0x1D, 0x01, 0x41, 0x4A, 0xF8, 0x2C, 0xEB, 0xF9,
  0x04, 0x1A, 0x3C, 0xFF, 0x17, 0xE7, 0xEE, 0x0B, 0xFC, 0xDE,
  0x7F, 0x5C, 0x1C, 0x18, 0x0D, 0x1E, 0x15, 0xED, 0x3E, 0xE3,
  0x1F, 0x0F, 0x1C, 0x0C, 0xE1, 0x02, 0x5F, 0x5D, 0x06, 0xF9,
  0xEB, 0xE2, 0xF6, 0xFB, 0x20, 0x20, 0xE8, 0x20, 0xFD, 0xF5,
  0xCB, 0xF5, 0x4B, 0x17, 0x1F, 0xED, 0x02, 0x03, 0xF3, 0xDF,
  0xFF, 0xF4, 0xC8, 0xDF, 0x0F, 0xE4, 0xFC, 0x07, 0xFE, 0xDC,
  0xF3, 0xE9, 0x23, 0x11, 0xFE, 0xF8, 0xFE, 0xF8, 0xDC, 0xE5,
  0x03, 0xF4, 0xE9, 0x0E, 0xC7, 0x04, 0x11, 0x0E, 0xF2, 0x14,
  0xEB, 0xFE, 0xEB, 0xF4, 0xED, 0xF4, 0x00, 0x03, 0xEC, 0xF4,
  0xBE, 0x08, 0xEF, 0xF2, 0x0B, 0x0F, 0x23, 0xEF, 0x1C, 0xFF,
  0x03, 0xD7, 0x16, 0x21, 0xD0, 0x08, 0x2B, 0x2A, 0xE2, 0xDD,
  0xFB, 0xFB, 0x0A, 0x21, 0x1F, 0xE7, 0xC1, 0xFB, 0xEB, 0xF1,
  0xDF, 0x08, 0x1A, 0x29, 0x08, 0xFA, 0xF1, 0xEB, 0x18, 0x01,
  0x28, 0x1B, 0xD3, 0xD5, 0x1D, 0x12, 0xEB, 0xE5, 0x3E, 0x03,
  0x1F, 0xDC, 0x25, 0x00, 0xF6, 0x1B, 0x04, 0x06, 0xD5, 0xD7,
  0x17, 0x10, 0xC5, 0xFD, 0x39, 0x29, 0x0C, 0xFB, 0x1B, 0xEB,
  0xEB, 0x11, 0x26, 0x20, 0xE9, 0xE9, 0x05, 0xE4, 0xD2, 0x23,
  0xF0, 0xD2, 0xF9, 0xF3, 0xEE, 0x16, 0x09, 0x1E, 0xD4, 0x1E,
  0xD1, 0x0F, 0x1C, 0xE1, 0xF1, 0xF6, 0xBF, 0xD9, 0xE7, 0xFB,
  0xE6, 0xE7, 0xFB, 0x17, 0xBF, 0x1E, 0xDA, 0x0A, 0x1A, 0xFD,
  0xFF, 0xFF, 0x04, 0x00, 0x00, 0x00, 0x08, 0x00, 0x00, 0x00,
  0x2A, 0x04, 0x00, 0x00, 0xD6, 0xFB, 0xFF, 0xFF, 0x2E, 0xFD,
  0xFF, 0xFF, 0x04, 0x00, 0x00, 0x00, 0x08, 0x00, 0x00, 0x00,
  0xFF, 0xFF, 0xFF, 0xFF, 0x00, 0x04, 0x00, 0x00, 0x10, 0xEE,
  0xFF, 0xFF, 0x46, 0xFD, 0xFF, 0xFF, 0x04, 0x00, 0x00, 0x00,
  0x04, 0x00, 0x00, 0x00, 0x60, 0x00, 0x00, 0x00, 0x56, 0xFD,
  0xFF, 0xFF, 0x04, 0x00, 0x00, 0x00, 0x04, 0x00, 0x00, 0x00,
  0x01, 0x00, 0x00, 0x00, 0x66, 0xFD, 0xFF, 0xFF, 0x04, 0x00,
  0x00, 0x00, 0x04, 0x00, 0x00, 0x00, 0x00, 0x00, 0x00, 0x00,
  0x44, 0xEE, 0xFF, 0xFF, 0x48, 0xEE, 0xFF, 0xFF, 0x0F, 0x00,
  0x00, 0x00, 0x4D, 0x4C, 0x49, 0x52, 0x20, 0x43, 0x6F, 0x6E,
  0x76, 0x65, 0x72, 0x74, 0x65, 0x64, 0x2E, 0x00, 0x01, 0x00,
  0x00, 0x00, 0x14, 0x00, 0x00, 0x00, 0x00, 0x00, 0x0E, 0x00,
  0x18, 0x00, 0x14, 0x00, 0x10, 0x00, 0x0C, 0x00, 0x08, 0x00,
  0x04, 0x00, 0x0E, 0x00, 0x00, 0x00, 0x14, 0x00, 0x00, 0x00,
  0x1C, 0x00, 0x00, 0x00, 0x14, 0x03, 0x00, 0x00, 0x18, 0x03,
  0x00, 0x00, 0x1C, 0x03, 0x00, 0x00, 0x04, 0x00, 0x00, 0x00,
  0x6D, 0x61, 0x69, 0x6E, 0x00, 0x00, 0x00, 0x00, 0x0B, 0x00,
  0x00, 0x00, 0xC4, 0x02, 0x00, 0x00, 0x64, 0x02, 0x00, 0x00,
  0x0C, 0x02, 0x00, 0x00, 0xE4, 0x01, 0x00, 0x00, 0x88, 0x01,
  0x00, 0x00, 0x34, 0x01, 0x00, 0x00, 0xDC, 0x00, 0x00, 0x00,
  0x98, 0x00, 0x00, 0x00, 0x70, 0x00, 0x00, 0x00, 0x38, 0x00,
  0x00, 0x00, 0x04, 0x00, 0x00, 0x00, 0xD2, 0xFD, 0xFF, 0xFF,
  0x14, 0x00, 0x00, 0x00, 0x00, 0x00, 0x00, 0x09, 0x14, 0x00,
  0x00, 0x00, 0x18, 0x00, 0x00, 0x00, 0x08, 0x00, 0x00, 0x00,
  0x16, 0xFE, 0xFF, 0xFF, 0x00, 0x00, 0x80, 0x3F, 0x01, 0x00,
  0x00, 0x00, 0x16, 0x00, 0x00, 0x00, 0x01, 0x00, 0x00, 0x00,
  0x15, 0x00, 0x00, 0x00, 0x02, 0xFE, 0xFF, 0xFF, 0x14, 0x00,
  0x00, 0x00, 0x00, 0x00, 0x00, 0x08, 0x10, 0x00, 0x00, 0x00,
  0x14, 0x00, 0x00, 0x00, 0x07, 0x00, 0x00, 0x00, 0x14, 0xEF,
  0xFF, 0xFF, 0x01, 0x00, 0x00, 0x00, 0x15, 0x00, 0x00, 0x00,
  0x03, 0x00, 0x00, 0x00, 0x14, 0x00, 0x00, 0x00, 0x07, 0x00,
  0x00, 0x00, 0x06, 0x00, 0x00, 0x00, 0xAA, 0xFE, 0xFF, 0xFF,
  0x0C, 0x00, 0x00, 0x00, 0x10, 0x00, 0x00, 0x00, 0x03, 0x00,
  0x00, 0x00, 0x01, 0x00, 0x00, 0x00, 0x14, 0x00, 0x00, 0x00,
  0x02, 0x00, 0x00, 0x00, 0x13, 0x00, 0x00, 0x00, 0x05, 0x00,
  0x00, 0x00, 0x5A, 0xFE, 0xFF, 0xFF, 0x14, 0x00, 0x00, 0x00,
  0x00, 0x00, 0x00, 0x05, 0x24, 0x00, 0x00, 0x00, 0x28, 0x00,
  0x00, 0x00, 0x05, 0x00, 0x00, 0x00, 0x6A, 0xFF, 0xFF, 0xFF,
  0x02, 0x00, 0x00, 0x00, 0x02, 0x00, 0x00, 0x00, 0x02, 0x00,
  0x00, 0x00, 0x02, 0x00, 0x00, 0x00, 0x00, 0x00, 0x00, 0x01,
  0x01, 0x00, 0x00, 0x00, 0x13, 0x00, 0x00, 0x00, 0x01, 0x00,
  0x00, 0x00, 0x12, 0x00, 0x00, 0x00, 0x9A, 0xFE, 0xFF, 0xFF,
  0x24, 0x00, 0x00, 0x00, 0x00, 0x00, 0x00, 0x02, 0x30, 0x00,
  0x00, 0x00, 0x34, 0x00, 0x00, 0x00, 0x06, 0x00, 0x00, 0x00,
  0x00, 0x00, 0x0E, 0x00, 0x14, 0x00, 0x00, 0x00, 0x10, 0x00,
  0x0C, 0x00, 0x08, 0x00, 0x07, 0x00, 0x0E, 0x00, 0x00, 0x00,
  0x00, 0x00, 0x00, 0x01, 0x01, 0x00, 0x00, 0x00, 0x03, 0x00,
  0x00, 0x00, 0x03, 0x00, 0x00, 0x00, 0x01, 0x00, 0x00, 0x00,
  0x12, 0x00, 0x00, 0x00, 0x03, 0x00, 0x00, 0x00, 0x11, 0x00,
  0x00, 0x00, 0x09, 0x00, 0x00, 0x00, 0x08, 0x00, 0x00, 0x00,
  0xEE, 0xFE, 0xFF, 0xFF, 0x24, 0x00, 0x00, 0x00, 0x00, 0x00,
  0x00, 0x05, 0x34, 0x00, 0x00, 0x00, 0x38, 0x00, 0x00, 0x00,
  0x05, 0x00, 0x00, 0x00, 0x00, 0x00, 0x0E, 0x00, 0x18, 0x00,
  0x17, 0x00, 0x10, 0x00, 0x0C, 0x00, 0x08, 0x00, 0x04, 0x00,
  0x0E, 0x00, 0x00, 0x00, 0x02, 0x00, 0x00, 0x00, 0x02, 0x00,
  0x00, 0x00, 0x02, 0x00, 0x00, 0x00, 0x02, 0x00, 0x00, 0x00,
  0x00, 0x00, 0x00, 0x01, 0x01, 0x00, 0x00, 0x00, 0x11, 0x00,
  0x00, 0x00, 0x01, 0x00, 0x00, 0x00, 0x10, 0x00, 0x00, 0x00,
  0x3E, 0xFF, 0xFF, 0xFF, 0x20, 0x00, 0x00, 0x00, 0x00, 0x00,
  0x00, 0x01, 0x28, 0x00, 0x00, 0x00, 0x2C, 0x00, 0x00, 0x00,
  0x04, 0x00, 0x00, 0x00, 0x0C, 0x00, 0x10, 0x00, 0x00, 0x00,
  0x0C, 0x00, 0x08, 0x00, 0x07, 0x00, 0x0C, 0x00, 0x00, 0x00,
  0x00, 0x00, 0x00, 0x01, 0x01, 0x00, 0x00, 0x00, 0x01, 0x00,
  0x00, 0x00, 0x01, 0x00, 0x00, 0x00, 0x10, 0x00, 0x00, 0x00,
  0x03, 0x00, 0x00, 0x00, 0x0F, 0x00, 0x00, 0x00, 0x0B, 0x00,
  0x00, 0x00, 0x0A, 0x00, 0x00, 0x00, 0x00, 0x00, 0x0A, 0x00,
  0x10, 0x00, 0x0C, 0x00, 0x08, 0x00, 0x04, 0x00, 0x0A, 0x00,
  0x00, 0x00, 0x0C, 0x00, 0x00, 0x00, 0x10, 0x00, 0x00, 0x00,
  0x03, 0x00, 0x00, 0x00, 0x01, 0x00, 0x00, 0x00, 0x0F, 0x00,
  0x00, 0x00, 0x02, 0x00, 0x00, 0x00, 0x00, 0x00, 0x00, 0x00,
  0x0E, 0x00, 0x00, 0x00, 0xBA, 0xFF, 0xFF, 0xFF, 0x1C, 0x00,
  0x00, 0x00, 0x00, 0x00, 0x00, 0x3B, 0x1C, 0x00, 0x00, 0x00,
  0x20, 0x00, 0x00, 0x00, 0x02, 0x00, 0x00, 0x00, 0x00, 0x00,
  0x06, 0x00, 0x08, 0x00, 0x04, 0x00, 0x06, 0x00, 0x00, 0x00,
  0x04, 0x00, 0x00, 0x00, 0x01, 0x00, 0x00, 0x00, 0x0E, 0x00,
  0x00, 0x00, 0x04, 0x00, 0x00, 0x00, 0x0D, 0x00, 0x00, 0x00,
  0x03, 0x00, 0x00, 0x00, 0x03, 0x00, 0x00, 0x00, 0x04, 0x00,
  0x00, 0x00, 0x00, 0x00, 0x0E, 0x00, 0x1A, 0x00, 0x14, 0x00,
  0x10, 0x00, 0x0C, 0x00, 0x0B, 0x00, 0x04, 0x00, 0x0E, 0x00,
  0x00, 0x00, 0x24, 0x00, 0x00, 0x00, 0x00, 0x00, 0x00, 0x20,
  0x24, 0x00, 0x00, 0x00, 0x28, 0x00, 0x00, 0x00, 0x01, 0x00,
  0x00, 0x00, 0x00, 0x00, 0x0E, 0x00, 0x08, 0x00, 0x00, 0x00,
  0x00, 0x00, 0x00, 0x00, 0x00, 0x00, 0x04, 0x00, 0x0E, 0x00,
  0x00, 0x00, 0x01, 0x00, 0x00, 0x00, 0x01, 0x00, 0x00, 0x00,
  0x0D, 0x00, 0x00, 0x00, 0x04, 0x00, 0x00, 0x00, 0x0C, 0x00,
  0x00, 0x00, 0x01, 0x00, 0x00, 0x00, 0x02, 0x00, 0x00, 0x00,
  0x02, 0x00, 0x00, 0x00, 0x00, 0x00, 0x0E, 0x00, 0x16, 0x00,
  0x00, 0x00, 0x10, 0x00, 0x0C, 0x00, 0x0B, 0x00, 0x04, 0x00,
  0x0E, 0x00, 0x00, 0x00, 0x18, 0x00, 0x00, 0x00, 0x00, 0x00,
  0x00, 0x37, 0x18, 0x00, 0x00, 0x00, 0x1C, 0x00, 0x00, 0x00,
  0x00, 0x00, 0x06, 0x00, 0x08, 0x00, 0x07, 0x00, 0x06, 0x00,
  0x00, 0x00, 0x00, 0x00, 0x00, 0x02, 0x01, 0x00, 0x00, 0x00,
  0x0C, 0x00, 0x00, 0x00, 0x01, 0x00, 0x00, 0x00, 0x00, 0x00,
  0x00, 0x00, 0x01, 0x00, 0x00, 0x00, 0x16, 0x00, 0x00, 0x00,
  0x01, 0x00, 0x00, 0x00, 0x00, 0x00, 0x00, 0x00, 0x17, 0x00,
  0x00, 0x00, 0xAC, 0x0E, 0x00, 0x00, 0x34, 0x0E, 0x00, 0x00,
  0xC0, 0x0D, 0x00, 0x00, 0x6C, 0x0D, 0x00, 0x00, 0x18, 0x0D,
  0x00, 0x00, 0xCC, 0x0C, 0x00, 0x00, 0x54, 0x0C, 0x00, 0x00,
  0xE8, 0x0B, 0x00, 0x00, 0xAC, 0x0A, 0x00, 0x00, 0x60, 0x09,
  0x00, 0x00, 0x34, 0x08, 0x00, 0x00, 0x80, 0x06, 0x00, 0x00,
  0x34, 0x06, 0x00, 0x00, 0xE4, 0x05, 0x00, 0x00, 0x90, 0x05,
  0x00, 0x00, 0x00, 0x05, 0x00, 0x00, 0xEC, 0x03, 0x00, 0x00,
  0x58, 0x03, 0x00, 0x00, 0x3C, 0x02, 0x00, 0x00, 0xA0, 0x01,
  0x00, 0x00, 0x1C, 0x01, 0x00, 0x00, 0x80, 0x00, 0x00, 0x00,
  0x04, 0x00, 0x00, 0x00, 0xC6, 0xF1, 0xFF, 0xFF, 0x00, 0x00,
  0x00, 0x01, 0x18, 0x00, 0x00, 0x00, 0x20, 0x00, 0x00, 0x00,
  0x3C, 0x00, 0x00, 0x00, 0x17, 0x00, 0x00, 0x00, 0x00, 0x00,
  0x00, 0x09, 0x50, 0x00, 0x00, 0x00, 0x02, 0x00, 0x00, 0x00,
  0xFF, 0xFF, 0xFF, 0xFF, 0x02, 0x00, 0x00, 0x00, 0xAC, 0xF1,
  0xFF, 0xFF, 0x08, 0x00, 0x00, 0x00, 0x10, 0x00, 0x00, 0x00,
  0x01, 0x00, 0x00, 0x00, 0x80, 0xFF, 0xFF, 0xFF, 0xFF, 0xFF,
  0xFF, 0xFF, 0x01, 0x00, 0x00, 0x00, 0x00, 0x00, 0x80, 0x3B,
  0x19, 0x00, 0x00, 0x00, 0x53, 0x74, 0x61, 0x74, 0x65, 0x66,
  0x75, 0x6C, 0x50, 0x61, 0x72, 0x74, 0x69, 0x74, 0x69, 0x6F,
  0x6E, 0x65, 0x64, 0x43, 0x61, 0x6C, 0x6C, 0x3A, 0x30, 0x00,
  0x00, 0x00, 0x02, 0x00, 0x00, 0x00, 0x01, 0x00, 0x00, 0x00,
  0x02, 0x00, 0x00, 0x00, 0x3E, 0xF2, 0xFF, 0xFF, 0x00, 0x00,
  0x00, 0x01, 0x18, 0x00, 0x00, 0x00, 0x20, 0x00, 0x00, 0x00,
  0x40, 0x00, 0x00, 0x00, 0x16, 0x00, 0x00, 0x00, 0x00, 0x00,
  0x00, 0x09, 0x70, 0x00, 0x00, 0x00, 0x02, 0x00, 0x00, 0x00,
  0xFF, 0xFF, 0xFF, 0xFF, 0x02, 0x00, 0x00, 0x00, 0x24, 0xF2,
  0xFF, 0xFF, 0x08, 0x00, 0x00, 0x00, 0x14, 0x00, 0x00, 0x00,
  0x01, 0x00, 0x00, 0x00, 0x07, 0x00, 0x00, 0x00, 0x00, 0x00,
  0x00, 0x00, 0x00, 0x00, 0x00, 0x00, 0x01, 0x00, 0x00, 0x00,
  0x4C, 0xF1, 0xC8, 0x3C, 0x34, 0x00, 0x00, 0x00, 0x73, 0x65,
  0x71, 0x75, 0x65, 0x6E, 0x74, 0x69, 0x61, 0x6C, 0x5F, 0x31,
  0x2F, 0x64, 0x65, 0x6E, 0x73, 0x65, 0x2F, 0x4D, 0x61, 0x74,
  0x4D, 0x75, 0x6C, 0x3B, 0x73, 0x65, 0x71, 0x75, 0x65, 0x6E,
  0x74, 0x69, 0x61, 0x6C, 0x5F, 0x31, 0x2F, 0x64, 0x65, 0x6E,
  0x73, 0x65, 0x2F, 0x42, 0x69, 0x61, 0x73, 0x41, 0x64, 0x64,
  0x00, 0x00, 0x00, 0x00, 0x02, 0x00, 0x00, 0x00, 0x01, 0x00,
  0x00, 0x00, 0x02, 0x00, 0x00, 0x00, 0xD6, 0xF2, 0xFF, 0xFF,
  0x00, 0x00, 0x00, 0x01, 0x18, 0x00, 0x00, 0x00, 0x20, 0x00,
  0x00, 0x00, 0x40, 0x00, 0x00, 0x00, 0x15, 0x00, 0x00, 0x00,
  0x00, 0x00, 0x00, 0x09, 0x58, 0x00, 0x00, 0x00, 0x02, 0x00,
  0x00, 0x00, 0xFF, 0xFF, 0xFF, 0xFF, 0x00, 0x04, 0x00, 0x00,
  0xBC, 0xF2, 0xFF, 0xFF, 0x08, 0x00, 0x00, 0x00, 0x14, 0x00,
  0x00, 0x00, 0x01, 0x00, 0x00, 0x00, 0x80, 0xFF, 0xFF, 0xFF,
  0xFF, 0xFF, 0xFF, 0xFF, 0x00, 0x00, 0x00, 0x00, 0x01, 0x00,
  0x00, 0x00, 0x13, 0xAF, 0x81, 0x3B, 0x1C, 0x00, 0x00, 0x00,
  0x73, 0x65, 0x71, 0x75, 0x65, 0x6E, 0x74, 0x69, 0x61, 0x6C,
  0x5F, 0x31, 0x2F, 0x66, 0x6C, 0x61, 0x74, 0x74, 0x65, 0x6E,
  0x2F, 0x52, 0x65, 0x73, 0x68, 0x61, 0x70, 0x65, 0x00, 0x00,
  0x00, 0x00, 0x02, 0x00, 0x00, 0x00, 0x01, 0x00, 0x00, 0x00,
  0x00, 0x04, 0x00, 0x00, 0x56, 0xF3, 0xFF, 0xFF, 0x00, 0x00,
  0x00, 0x01, 0x18, 0x00, 0x00, 0x00, 0x28, 0x00, 0x00, 0x00,
  0x48, 0x00, 0x00, 0x00, 0x14, 0x00, 0x00, 0x00, 0x00, 0x00,
  0x00, 0x09, 0x68, 0x00, 0x00, 0x00, 0x04, 0x00, 0x00, 0x00,
  0xFF, 0xFF, 0xFF, 0xFF, 0x08, 0x00, 0x00, 0x00, 0x08, 0x00,
  0x00, 0x00, 0x10, 0x00, 0x00, 0x00, 0x44, 0xF3, 0xFF, 0xFF,
  0x08, 0x00, 0x00, 0x00, 0x14, 0x00, 0x00, 0x00, 0x01, 0x00,
  0x00, 0x00, 0x80, 0xFF, 0xFF, 0xFF, 0xFF, 0xFF, 0xFF, 0xFF,
  0x00, 0x00, 0x00, 0x00, 0x01, 0x00, 0x00, 0x00, 0x13, 0xAF,
  0x81, 0x3B, 0x24, 0x00, 0x00, 0x00, 0x73, 0x65, 0x71, 0x75,
  0x65, 0x6E, 0x74, 0x69, 0x61, 0x6C, 0x5F, 0x31, 0x2F, 0x6D,
  0x61, 0x78, 0x5F, 0x70, 0x6F, 0x6F, 0x6C, 0x69, 0x6E, 0x67,
  0x32, 0x64, 0x5F, 0x31, 0x2F, 0x4D, 0x61, 0x78, 0x50, 0x6F,
  0x6F, 0x6C, 0x00, 0x00, 0x00, 0x00, 0x04, 0x00, 0x00, 0x00,
  0x01, 0x00, 0x00, 0x00, 0x08, 0x00, 0x00, 0x00, 0x08, 0x00,
  0x00, 0x00, 0x10, 0x00, 0x00, 0x00, 0xEE, 0xF3, 0xFF, 0xFF,
  0x00, 0x00, 0x00, 0x01, 0x18, 0x00, 0x00, 0x00, 0x28, 0x00,
  0x00, 0x00, 0x48, 0x00, 0x00, 0x00, 0x13, 0x00, 0x00, 0x00,
  0x00, 0x00, 0x00, 0x09, 0xE8, 0x00, 0x00, 0x00, 0x04, 0x00,
  0x00, 0x00, 0xFF, 0xFF, 0xFF, 0xFF, 0x10, 0x00, 0x00, 0x00,
  0x10, 0x00, 0x00, 0x00, 0x10, 0x00, 0x00, 0x00, 0xDC, 0xF3,
  0xFF, 0xFF, 0x08, 0x00, 0x00, 0x00, 0x14, 0x00, 0x00, 0x00,
  0x01, 0x00, 0x00, 0x00, 0x80, 0xFF, 0xFF, 0xFF, 0xFF, 0xFF,
  0xFF, 0xFF, 0x00, 0x00, 0x00, 0x00, 0x01, 0x00, 0x00, 0x00,
  0x13, 0xAF, 0x81, 0x3B, 0xA5, 0x00, 0x00, 0x00, 0x73, 0x65,
  0x71, 0x75, 0x65, 0x6E, 0x74, 0x69, 0x61, 0x6C, 0x5F, 0x31,
  0x2F, 0x64, 0x65, 0x70, 0x74, 0x68, 0x77, 0x69, 0x73, 0x65,
  0x5F, 0x63, 0x6F, 0x6E, 0x76, 0x32, 0x64, 0x2F, 0x52, 0x65,
  0x6C, 0x75, 0x3B, 0x73, 0x65, 0x71, 0x75, 0x65, 0x6E, 0x74,
  0x69, 0x61, 0x6C, 0x5F, 0x31, 0x2F, 0x64, 0x65, 0x70, 0x74,
  0x68, 0x77, 0x69, 0x73, 0x65, 0x5F, 0x63, 0x6F, 0x6E, 0x76,
  0x32, 0x64, 0x2F, 0x42, 0x69, 0x61, 0x73, 0x41, 0x64, 0x64,
  0x3B, 0x73, 0x65, 0x71, 0x75, 0x65, 0x6E, 0x74, 0x69, 0x61,
  0x6C, 0x5F, 0x31, 0x2F, 0x64, 0x65, 0x70, 0x74, 0x68, 0x77,
  0x69, 0x73, 0x65, 0x5F, 0x63, 0x6F, 0x6E, 0x76, 0x32, 0x64,
  0x2F, 0x64, 0x65, 0x70, 0x74, 0x68, 0x77, 0x69, 0x73, 0x65,
  0x3B, 0x73, 0x65, 0x71, 0x75, 0x65, 0x6E, 0x74, 0x69, 0x61,
  0x6C, 0x5F, 0x31, 0x2F, 0x64, 0x65, 0x70, 0x74, 0x68, 0x77,
  0x69, 0x73, 0x65, 0x5F, 0x63, 0x6F, 0x6E, 0x76, 0x32, 0x64,
  0x2F, 0x42, 0x69, 0x61, 0x73, 0x41, 0x64, 0x64, 0x2F, 0x52,
  0x65, 0x61, 0x64, 0x56, 0x61, 0x72, 0x69, 0x61, 0x62, 0x6C,
  0x65, 0x4F, 0x70, 0x00, 0x00, 0x00, 0x04, 0x00, 0x00, 0x00,
  0x01, 0x00, 0x00, 0x00, 0x10, 0x00, 0x00, 0x00, 0x10, 0x00,
  0x00, 0x00, 0x10, 0x00, 0x00, 0x00, 0x06, 0xF5, 0xFF, 0xFF,
  0x00, 0x00, 0x00, 0x01, 0x18, 0x00, 0x00, 0x00, 0x28, 0x00,
  0x00, 0x00, 0x44, 0x00, 0x00, 0x00, 0x12, 0x00, 0x00, 0x00,
  0x00, 0x00, 0x00, 0x09, 0x60, 0x00, 0x00, 0x00, 0x04, 0x00,
  0x00, 0x00, 0xFF, 0xFF, 0xFF, 0xFF, 0x30, 0x00, 0x00, 0x00,
  0x30, 0x00, 0x00, 0x00, 0x10, 0x00, 0x00, 0x00, 0xF4, 0xF4,
  0xFF, 0xFF, 0x08, 0x00, 0x00, 0x00, 0x10, 0x00, 0x00, 0x00,
  0x01, 0x00, 0x00, 0x00, 0x80, 0xFF, 0xFF, 0xFF, 0xFF, 0xFF,
  0xFF, 0xFF, 0x01, 0x00, 0x00, 0x00, 0xBE, 0xA7, 0xC6, 0x3B,
  0x22, 0x00, 0x00, 0x00, 0x73, 0x65, 0x71, 0x75, 0x65, 0x6E,
  0x74, 0x69, 0x61, 0x6C, 0x5F, 0x31, 0x2F, 0x6D, 0x61, 0x78,
  0x5F, 0x70, 0x6F, 0x6F, 0x6C, 0x69, 0x6E, 0x67, 0x32, 0x64,
  0x2F, 0x4D, 0x61, 0x78, 0x50, 0x6F, 0x6F, 0x6C, 0x00, 0x00,
  0x04, 0x00, 0x00, 0x00, 0x01, 0x00, 0x00, 0x00, 0x30, 0x00,
  0x00, 0x00, 0x30, 0x00, 0x00, 0x00, 0x10, 0x00, 0x00, 0x00,
  0x96, 0xF5, 0xFF, 0xFF, 0x00, 0x00, 0x00, 0x01, 0x18, 0x00,
  0x00, 0x00, 0x28, 0x00, 0x00, 0x00, 0x44, 0x00, 0x00, 0x00,
  0x11, 0x00, 0x00, 0x00, 0x00, 0x00, 0x00, 0x09, 0xE0, 0x00,
  0x00, 0x00, 0x04, 0x00, 0x00, 0x00, 0xFF, 0xFF, 0xFF, 0xFF,
  0x60, 0x00, 0x00, 0x00, 0x60, 0x00, 0x00, 0x00, 0x10, 0x00,
  0x00, 0x00, 0x84, 0xF5, 0xFF, 0xFF, 0x08, 0x00, 0x00, 0x00,
  0x10, 0x00, 0x00, 0x00, 0x01, 0x00, 0x00, 0x00, 0x80, 0xFF,
  0xFF, 0xFF, 0xFF, 0xFF, 0xFF, 0xFF, 0x01, 0x00, 0x00, 0x00,
  0xBE, 0xA7, 0xC6, 0x3B, 0xA3, 0x00, 0x00, 0x00, 0x73, 0x65,
  0x71, 0x75, 0x65, 0x6E, 0x74, 0x69, 0x61, 0x6C, 0x5F, 0x31,
  0x2F, 0x63, 0x6F, 0x6E, 0x76, 0x32, 0x64, 0x2F, 0x52, 0x65,
  0x6C, 0x75, 0x3B, 0x73, 0x65, 0x71, 0x75, 0x65, 0x6E, 0x74,
  0x69, 0x61, 0x6C, 0x5F, 0x31, 0x2F, 0x63, 0x6F, 0x6E, 0x76,
  0x32, 0x64, 0x2F, 0x42, 0x69, 0x61, 0x73, 0x41, 0x64, 0x64,
  0x3B, 0x73, 0x65, 0x71, 0x75, 0x65, 0x6E, 0x74, 0x69, 0x61,
  0x6C, 0x5F, 0x31, 0x2F, 0x64, 0x65, 0x70, 0x74, 0x68, 0x77,
  0x69, 0x73, 0x65, 0x5F, 0x63, 0x6F, 0x6E, 0x76, 0x32, 0x64,
  0x2F, 0x64, 0x65, 0x70, 0x74, 0x68, 0x77, 0x69, 0x73, 0x65,
  0x3B, 0x73, 0x65, 0x71, 0x75, 0x65, 0x6E, 0x74, 0x69, 0x61,
  0x6C, 0x5F, 0x31, 0x2F, 0x63, 0x6F, 0x6E, 0x76, 0x32, 0x64,
  0x2F, 0x43, 0x6F, 0x6E, 0x76, 0x32, 0x44, 0x3B, 0x73, 0x65,
  0x71, 0x75, 0x65, 0x6E, 0x74, 0x69, 0x61, 0x6C, 0x5F, 0x31,
  0x2F, 0x63, 0x6F, 0x6E, 0x76, 0x32, 0x64, 0x2F, 0x42, 0x69,
  0x61, 0x73, 0x41, 0x64, 0x64, 0x2F, 0x52, 0x65, 0x61, 0x64,
  0x56, 0x61, 0x72, 0x69, 0x61, 0x62, 0x6C, 0x65, 0x4F, 0x70,
  0x31, 0x00, 0x04, 0x00, 0x00, 0x00, 0x01, 0x00, 0x00, 0x00,
  0x60, 0x00, 0x00, 0x00, 0x60, 0x00, 0x00, 0x00, 0x10, 0x00,
  0x00, 0x00, 0xA6, 0xF6, 0xFF, 0xFF, 0x00, 0x00, 0x00, 0x01,
  0x18, 0x00, 0x00, 0x00, 0x28, 0x00, 0x00, 0x00, 0x44, 0x00,
  0x00, 0x00, 0x10, 0x00, 0x00, 0x00, 0x00, 0x00, 0x00, 0x09,
  0x5C, 0x00, 0x00, 0x00, 0x04, 0x00, 0x00, 0x00, 0xFF, 0xFF,
  0xFF, 0xFF, 0x60, 0x00, 0x00, 0x00, 0x60, 0x00, 0x00, 0x00,
  0x01, 0x00, 0x00, 0x00, 0x94, 0xF6, 0xFF, 0xFF, 0x08, 0x00,
  0x00, 0x00, 0x10, 0x00, 0x00, 0x00, 0x01, 0x00, 0x00, 0x00,
  0x80, 0xFF, 0xFF, 0xFF, 0xFF, 0xFF, 0xFF, 0xFF, 0x01, 0x00,
  0x00, 0x00, 0x00, 0x00, 0x80, 0x3F, 0x1C, 0x00, 0x00, 0x00,
  0x73, 0x65, 0x71, 0x75, 0x65, 0x6E, 0x74, 0x69, 0x61, 0x6C,
  0x5F, 0x31, 0x2F, 0x72, 0x65, 0x73, 0x68, 0x61, 0x70, 0x65,
  0x2F, 0x52, 0x65, 0x73, 0x68, 0x61, 0x70, 0x65, 0x00, 0x00,
  0x00, 0x00, 0x04, 0x00, 0x00, 0x00, 0x01, 0x00, 0x00, 0x00,
  0x60, 0x00, 0x00, 0x00, 0x60, 0x00, 0x00, 0x00, 0x01, 0x00,
  0x00, 0x00, 0xA6, 0xF7, 0xFF, 0xFF, 0x00, 0x00, 0x00, 0x01,
  0x14, 0x00, 0x00, 0x00, 0x14, 0x00, 0x00, 0x00, 0x0F, 0x00,
  0x00, 0x00, 0x00, 0x00, 0x00, 0x02, 0x30, 0x00, 0x00, 0x00,
  0x90, 0xF7, 0xFF, 0xFF, 0x22, 0x00, 0x00, 0x00, 0x73, 0x65,
  0x71, 0x75, 0x65, 0x6E, 0x74, 0x69, 0x61, 0x6C, 0x5F, 0x31,
  0x2F, 0x72, 0x65, 0x73, 0x68, 0x61, 0x70, 0x65, 0x2F, 0x52,
  0x65, 0x73, 0x68, 0x61, 0x70, 0x65, 0x2F, 0x73, 0x68, 0x61,
  0x70, 0x65, 0x00, 0x00, 0x01, 0x00, 0x00, 0x00, 0x04, 0x00,
  0x00, 0x00, 0xF6, 0xF7, 0xFF, 0xFF, 0x00, 0x00, 0x00, 0x01,
  0x14, 0x00, 0x00, 0x00, 0x14, 0x00, 0x00, 0x00, 0x0E, 0x00,
  0x00, 0x00, 0x00, 0x00, 0x00, 0x02, 0x30, 0x00, 0x00, 0x00,
  0xE0, 0xF7, 0xFF, 0xFF, 0x22, 0x00, 0x00, 0x00, 0x73, 0x65,
  0x71, 0x75, 0x65, 0x6E, 0x74, 0x69, 0x61, 0x6C, 0x5F, 0x31,
  0x2F, 0x72, 0x65, 0x73, 0x68, 0x61, 0x70, 0x65, 0x2F, 0x73,
  0x74, 0x72, 0x69, 0x64, 0x65, 0x64, 0x5F, 0x73, 0x6C, 0x69,
  0x63, 0x65, 0x00, 0x00, 0x00, 0x00, 0x00, 0x00, 0x42, 0xF8,
  0xFF, 0xFF, 0x00, 0x00, 0x00, 0x01, 0x14, 0x00, 0x00, 0x00,
  0x14, 0x00, 0x00, 0x00, 0x0D, 0x00, 0x00, 0x00, 0x00, 0x00,
  0x00, 0x02, 0x28, 0x00, 0x00, 0x00, 0x2C, 0xF8, 0xFF, 0xFF,
  0x1A, 0x00, 0x00, 0x00, 0x73, 0x65, 0x71, 0x75, 0x65, 0x6E,
  0x74, 0x69, 0x61, 0x6C, 0x5F, 0x31, 0x2F, 0x72, 0x65, 0x73,
  0x68, 0x61, 0x70, 0x65, 0x2F, 0x53, 0x68, 0x61, 0x70, 0x65,
  0x00, 0x00, 0x01, 0x00, 0x00, 0x00, 0x03, 0x00, 0x00, 0x00,
  0x8A, 0xF8, 0xFF, 0xFF, 0x00, 0x00, 0x00, 0x01, 0x14, 0x00,
  0x00, 0x00, 0xE8, 0x00, 0x00, 0x00, 0x0C, 0x00, 0x00, 0x00,
  0x00, 0x00, 0x00, 0x09, 0x84, 0x01, 0x00, 0x00, 0xEC, 0xF7,
  0xFF, 0xFF, 0x08, 0x00, 0x00, 0x00, 0x8C, 0x00, 0x00, 0x00,
  0x10, 0x00, 0x00, 0x00, 0x00, 0x00, 0x00, 0x00, 0x00, 0x00,
  0x00, 0x00, 0x00, 0x00, 0x00, 0x00, 0x00, 0x00, 0x00, 0x00,
  0x00, 0x00, 0x00, 0x00, 0x00, 0x00, 0x00, 0x00, 0x00, 0x00,
  0x00, 0x00, 0x00, 0x00, 0x00, 0x00, 0x00, 0x00, 0x00, 0x00,
  0x00, 0x00, 0x00, 0x00, 0x00, 0x00, 0x00, 0x00, 0x00, 0x00,
  0x00, 0x00, 0x00, 0x00, 0x00, 0x00, 0x00, 0x00, 0x00, 0x00,
  0x00, 0x00, 0x00, 0x00, 0x00, 0x00, 0x00, 0x00, 0x00, 0x00,
  0x00, 0x00, 0x00, 0x00, 0x00, 0x00, 0x00, 0x00, 0x00, 0x00,
  0x00, 0x00, 0x00, 0x00, 0x00, 0x00, 0x00, 0x00, 0x00, 0x00,
  0x00, 0x00, 0x00, 0x00, 0x00, 0x00, 0x00, 0x00, 0x00, 0x00,
  0x00, 0x00, 0x00, 0x00, 0x00, 0x00, 0x00, 0x00, 0x00, 0x00,
  0x00, 0x00, 0x00, 0x00, 0x00, 0x00, 0x00, 0x00, 0x00, 0x00,
  0x00, 0x00, 0x00, 0x00, 0x00, 0x00, 0x00, 0x00, 0x00, 0x00,
  0x00, 0x00, 0x00, 0x00, 0x00, 0x00, 0x10, 0x00, 0x00, 0x00,
  0x3E, 0xB7, 0xA3, 0x36, 0x45, 0x0F, 0xDF, 0x36, 0x1E, 0x2B,
  0xE5, 0x36, 0xBD, 0xA7, 0xA4, 0x36, 0x68, 0xC9, 0x41, 0x37,
  0xF0, 0x03, 0xBA, 0x36, 0xFD, 0x79, 0xB8, 0x36, 0x0D, 0xF3,
  0xB4, 0x36, 0x4C, 0xB0, 0xC9, 0x36, 0x19, 0x67, 0xB9, 0x36,
  0xEE, 0xAC, 0xB2, 0x36, 0xA4, 0x65, 0xAD, 0x36, 0x98, 0x92,
  0xBE, 0x36, 0x0C, 0xDF, 0xBE, 0x36, 0xA1, 0xAC, 0xE5, 0x36,
  0xD7, 0x97, 0xA4, 0x36, 0xA2, 0x00, 0x00, 0x00, 0x73, 0x65,
  0x71, 0x75, 0x65, 0x6E, 0x74, 0x69, 0x61, 0x6C, 0x5F, 0x31,
  0x2F, 0x63, 0x6F, 0x6E, 0x76, 0x32, 0x64, 0x2F, 0x52, 0x65,
  0x6C, 0x75, 0x3B, 0x73, 0x65, 0x71, 0x75, 0x65, 0x6E, 0x74,
  0x69, 0x61, 0x6C, 0x5F, 0x31, 0x2F, 0x63, 0x6F, 0x6E, 0x76,
  0x32, 0x64, 0x2F, 0x42, 0x69, 0x61, 0x73, 0x41, 0x64, 0x64,
  0x3B, 0x73, 0x65, 0x71, 0x75, 0x65, 0x6E, 0x74, 0x69, 0x61,
  0x6C, 0x5F, 0x31, 0x2F, 0x64, 0x65, 0x70, 0x74, 0x68, 0x77,
  0x69, 0x73, 0x65, 0x5F, 0x63, 0x6F, 0x6E, 0x76, 0x32, 0x64,
  0x2F, 0x64, 0x65, 0x70, 0x74, 0x68, 0x77, 0x69, 0x73, 0x65,
  0x3B, 0x73, 0x65, 0x71, 0x75, 0x65, 0x6E, 0x74, 0x69, 0x61,
  0x6C, 0x5F, 0x31, 0x2F, 0x63, 0x6F, 0x6E, 0x76, 0x32, 0x64,
  0x2F, 0x43, 0x6F, 0x6E, 0x76, 0x32, 0x44, 0x3B, 0x73, 0x65,
  0x71, 0x75, 0x65, 0x6E, 0x74, 0x69, 0x61, 0x6C, 0x5F, 0x31,
  0x2F, 0x63, 0x6F, 0x6E, 0x76, 0x32, 0x64, 0x2F, 0x42, 0x69,
  0x61, 0x73, 0x41, 0x64, 0x64, 0x2F, 0x52, 0x65, 0x61, 0x64,
  0x56, 0x61, 0x72, 0x69, 0x61, 0x62, 0x6C, 0x65, 0x4F, 0x70,
  0x00, 0x00, 0x04, 0x00, 0x00, 0x00, 0x10, 0x00, 0x00, 0x00,
  0x03, 0x00, 0x00, 0x00, 0x03, 0x00, 0x00, 0x00, 0x01, 0x00,
  0x00, 0x00, 0x3A, 0xFA, 0xFF, 0xFF, 0x00, 0x00, 0x00, 0x01,
  0x14, 0x00, 0x00, 0x00, 0xE4, 0x00, 0x00, 0x00, 0x0B, 0x00,
  0x00, 0x00, 0x00, 0x00, 0x00, 0x02, 0x08, 0x01, 0x00, 0x00,
  0x9C, 0xF9, 0xFF, 0xFF, 0x08, 0x00, 0x00, 0x00, 0x88, 0x00,
  0x00, 0x00, 0x10, 0x00, 0x00, 0x00, 0x00, 0x00, 0x00, 0x00,
  0x00, 0x00, 0x00, 0x00, 0x00, 0x00, 0x00, 0x00, 0x00, 0x00,
  0x00, 0x00, 0x00, 0x00, 0x00, 0x00, 0x00, 0x00, 0x00, 0x00,
  0x00, 0x00, 0x00, 0x00, 0x00, 0x00, 0x00, 0x00, 0x00, 0x00,
  0x00, 0x00, 0x00, 0x00, 0x00, 0x00, 0x00, 0x00, 0x00, 0x00,
  0x00, 0x00, 0x00, 0x00, 0x00, 0x00, 0x00, 0x00, 0x00, 0x00,
  0x00, 0x00, 0x00, 0x00, 0x00, 0x00, 0x00, 0x00, 0x00, 0x00,
  0x00, 0x00, 0x00, 0x00, 0x00, 0x00, 0x00, 0x00, 0x00, 0x00,
  0x00, 0x00, 0x00, 0x00, 0x00, 0x00, 0x00, 0x00, 0x00, 0x00,
  0x00, 0x00, 0x00, 0x00, 0x00, 0x00, 0x00, 0x00, 0x00, 0x00,
  0x00, 0x00, 0x00, 0x00, 0x00, 0x00, 0x00, 0x00, 0x00, 0x00,
  0x00, 0x00, 0x00, 0x00, 0x00, 0x00, 0x00, 0x00, 0x00, 0x00,
  0x00, 0x00, 0x00, 0x00, 0x00, 0x00, 0x00, 0x00, 0x00, 0x00,
  0x00, 0x00, 0x00, 0x00, 0x10, 0x00, 0x00, 0x00, 0x3E, 0xB7,
  0xA3, 0x36, 0x45, 0x0F, 0xDF, 0x36, 0x1E, 0x2B, 0xE5, 0x36,
  0xBD, 0xA7, 0xA4, 0x36, 0x68, 0xC9, 0x41, 0x37, 0xF0, 0x03,
  0xBA, 0x36, 0xFD, 0x79, 0xB8, 0x36, 0x0D, 0xF3, 0xB4, 0x36,
  0x4C, 0xB0, 0xC9, 0x36, 0x19, 0x67, 0xB9, 0x36, 0xEE, 0xAC,
  0xB2, 0x36, 0xA4, 0x65, 0xAD, 0x36, 0x98, 0x92, 0xBE, 0x36,
  0x0C, 0xDF, 0xBE, 0x36, 0xA1, 0xAC, 0xE5, 0x36, 0xD7, 0x97,
  0xA4, 0x36, 0x2A, 0x00, 0x00, 0x00, 0x73, 0x65, 0x71, 0x75,
  0x65, 0x6E, 0x74, 0x69, 0x61, 0x6C, 0x5F, 0x31, 0x2F, 0x63,
  0x6F, 0x6E, 0x76, 0x32, 0x64, 0x2F, 0x42, 0x69, 0x61, 0x73,
  0x41, 0x64, 0x64, 0x2F, 0x52, 0x65, 0x61, 0x64, 0x56, 0x61,
  0x72, 0x69, 0x61, 0x62, 0x6C, 0x65, 0x4F, 0x70, 0x00, 0x00,
  0x01, 0x00, 0x00, 0x00, 0x10, 0x00, 0x00, 0x00, 0x62, 0xFB,
  0xFF, 0xFF, 0x00, 0x00, 0x00, 0x01, 0x28, 0x00, 0x00, 0x00,
  0xFC, 0x00, 0x00, 0x00, 0x0A, 0x00, 0x00, 0x00, 0x00, 0x00,
  0x00, 0x09, 0x1C, 0x01, 0x00, 0x00, 0x00, 0x00, 0x12, 0x00,
  0x10, 0x00, 0x00, 0x00, 0x00, 0x00, 0x0C, 0x00, 0x08, 0x00,
  0x00, 0x00, 0x00, 0x00, 0x04, 0x00, 0x12, 0x00, 0x00, 0x00,
  0x03, 0x00, 0x00, 0x00, 0x08, 0x00, 0x00, 0x00, 0x88, 0x00,
  0x00, 0x00, 0x10, 0x00, 0x00, 0x00, 0x00, 0x00, 0x00, 0x00,
  0x00, 0x00, 0x00, 0x00, 0x00, 0x00, 0x00, 0x00, 0x00, 0x00,
  0x00, 0x00, 0x00, 0x00, 0x00, 0x00, 0x00, 0x00, 0x00, 0x00,
  0x00, 0x00, 0x00, 0x00, 0x00, 0x00, 0x00, 0x00, 0x00, 0x00,
  0x00, 0x00, 0x00, 0x00, 0x00, 0x00, 0x00, 0x00, 0x00, 0x00,
  0x00, 0x00, 0x00, 0x00, 0x00, 0x00, 0x00, 0x00, 0x00, 0x00,
  0x00, 0x00, 0x00, 0x00, 0x00, 0x00, 0x00, 0x00, 0x00, 0x00,
  0x00, 0x00, 0x00, 0x00, 0x00, 0x00, 0x00, 0x00, 0x00, 0x00,
  0x00, 0x00, 0x00, 0x00, 0x00, 0x00, 0x00, 0x00, 0x00, 0x00,
  0x00, 0x00, 0x00, 0x00, 0x00, 0x00, 0x00, 0x00, 0x00, 0x00,
  0x00, 0x00, 0x00, 0x00, 0x00, 0x00, 0x00, 0x00, 0x00, 0x00,
  0x00, 0x00, 0x00, 0x00, 0x00, 0x00, 0x00, 0x00, 0x00, 0x00,
  0x00, 0x00, 0x00, 0x00, 0x00, 0x00, 0x00, 0x00, 0x00, 0x00,
  0x00, 0x00, 0x00, 0x00, 0x10, 0x00, 0x00, 0x00, 0x81, 0x43,
  0x21, 0x3A, 0x6D, 0xBF, 0x51, 0x3A, 0x32, 0x60, 0xA3, 0x3A,
  0x2A, 0x0B, 0x20, 0x3A, 0x05, 0x7E, 0xC1, 0x3A, 0xE6, 0xD4,
  0x07, 0x3B, 0x09, 0xB1, 0x3C, 0x3A, 0xFA, 0x2A, 0x3C, 0x3A,
  0x17, 0xFB, 0x4A, 0x3A, 0xA7, 0x26, 0x2B, 0x3A, 0xC9, 0x63,
  0x29, 0x3A, 0x1F, 0x7F, 0x1B, 0x3A, 0x88, 0xD3, 0xC4, 0x3A,
  0x83, 0x05, 0x12, 0x3A, 0xDE, 0x3E, 0xAC, 0x3A, 0x9E, 0x3E,
  0x9A, 0x3A, 0x27, 0x00, 0x00, 0x00, 0x73, 0x65, 0x71, 0x75,
  0x65, 0x6E, 0x74, 0x69, 0x61, 0x6C, 0x5F, 0x31, 0x2F, 0x64,
  0x65, 0x70, 0x74, 0x68, 0x77, 0x69, 0x73, 0x65, 0x5F, 0x63,
  0x6F, 0x6E, 0x76, 0x32, 0x64, 0x2F, 0x64, 0x65, 0x70, 0x74,
  0x68, 0x77, 0x69, 0x73, 0x65, 0x00, 0x04, 0x00, 0x00, 0x00,
  0x01, 0x00, 0x00, 0x00, 0x08, 0x00, 0x00, 0x00, 0x08, 0x00,
  0x00, 0x00, 0x10, 0x00, 0x00, 0x00, 0xAA, 0xFC, 0xFF, 0xFF,
  0x00, 0x00, 0x00, 0x01, 0x14, 0x00, 0x00, 0x00, 0xE8, 0x00,
  0x00, 0x00, 0x09, 0x00, 0x00, 0x00, 0x00, 0x00, 0x00, 0x02,
  0x18, 0x01, 0x00, 0x00, 0x0C, 0xFC, 0xFF, 0xFF, 0x08, 0x00,
  0x00, 0x00, 0x8C, 0x00, 0x00, 0x00, 0x10, 0x00, 0x00, 0x00,
  0x00, 0x00, 0x00, 0x00, 0x00, 0x00, 0x00, 0x00, 0x00, 0x00,
  0x00, 0x00, 0x00, 0x00, 0x00, 0x00, 0x00, 0x00, 0x00, 0x00,
  0x00, 0x00, 0x00, 0x00, 0x00, 0x00, 0x00, 0x00, 0x00, 0x00,
  0x00, 0x00, 0x00, 0x00, 0x00, 0x00, 0x00, 0x00, 0x00, 0x00,
  0x00, 0x00, 0x00, 0x00, 0x00, 0x00, 0x00, 0x00, 0x00, 0x00,
  0x00, 0x00, 0x00, 0x00, 0x00, 0x00, 0x00, 0x00, 0x00, 0x00,
  0x00, 0x00, 0x00, 0x00, 0x00, 0x00, 0x00, 0x00, 0x00, 0x00,
  0x00, 0x00, 0x00, 0x00, 0x00, 0x00, 0x00, 0x00, 0x00, 0x00,
  0x00, 0x00, 0x00, 0x00, 0x00, 0x00, 0x00, 0x00, 0x00, 0x00,
  0x00, 0x00, 0x00, 0x00, 0x00, 0x00, 0x00, 0x00, 0x00, 0x00,
  0x00, 0x00, 0x00, 0x00, 0x00, 0x00, 0x00, 0x00, 0x00, 0x00,
  0x00, 0x00, 0x00, 0x00, 0x00, 0x00, 0x00, 0x00, 0x00, 0x00,
  0x00, 0x00, 0x00, 0x00, 0x00, 0x00, 0x00, 0x00, 0x00, 0x00,
  0x00, 0x00, 0x10, 0x00, 0x00, 0x00, 0xC1, 0x47, 0x7A, 0x36,
  0x7E, 0xC3, 0xA2, 0x36, 0xE7, 0x8E, 0xFD, 0x36, 0x01, 0x63,
  0x78, 0x36, 0x41, 0x26, 0x16, 0x37, 0x55, 0xCF, 0x52, 0x37,
  0x90, 0x6C, 0x92, 0x36, 0x89, 0x04, 0x92, 0x36, 0x34, 0x83,
  0x9D, 0x36, 0x0A, 0xD0, 0x84, 0x36, 0x2B, 0x72, 0x83, 0x36,
  0x6B, 0x54, 0x71, 0x36, 0x93, 0xBC, 0x18, 0x37, 0xE3, 0x9F,
  0x62, 0x36, 0x7D, 0xA9, 0x05, 0x37, 0xFF, 0x62, 0xEF, 0x36,
  0x34, 0x00, 0x00, 0x00, 0x73, 0x65, 0x71, 0x75, 0x65, 0x6E,
  0x74, 0x69, 0x61, 0x6C, 0x5F, 0x31, 0x2F, 0x64, 0x65, 0x70,
  0x74, 0x68, 0x77, 0x69, 0x73, 0x65, 0x5F, 0x63, 0x6F, 0x6E,
  0x76, 0x32, 0x64, 0x2F, 0x42, 0x69, 0x61, 0x73, 0x41, 0x64,
  0x64, 0x2F, 0x52, 0x65, 0x61, 0x64, 0x56, 0x61, 0x72, 0x69,
  0x61, 0x62, 0x6C, 0x65, 0x4F, 0x70, 0x00, 0x00, 0x00, 0x00,
  0x01, 0x00, 0x00, 0x00, 0x10, 0x00, 0x00, 0x00, 0xE2, 0xFD,
  0xFF, 0xFF, 0x00, 0x00, 0x00, 0x01, 0x14, 0x00, 0x00, 0x00,
  0x30, 0x00, 0x00, 0x00, 0x08, 0x00, 0x00, 0x00, 0x00, 0x00,
  0x00, 0x09, 0x44, 0x00, 0x00, 0x00, 0x44, 0xFD, 0xFF, 0xFF,
  0x08, 0x00, 0x00, 0x00, 0x10, 0x00, 0x00, 0x00, 0x01, 0x00,
  0x00, 0x00, 0x00, 0x00, 0x00, 0x00, 0x00, 0x00, 0x00, 0x00,
  0x01, 0x00, 0x00, 0x00, 0xA7, 0x94, 0x0E, 0x3B, 0x19, 0x00,
  0x00, 0x00, 0x73, 0x65, 0x71, 0x75, 0x65, 0x6E, 0x74, 0x69,
  0x61, 0x6C, 0x5F, 0x31, 0x2F, 0x64, 0x65, 0x6E, 0x73, 0x65,
  0x2F, 0x4D, 0x61, 0x74, 0x4D, 0x75, 0x6C, 0x00, 0x00, 0x00,
  0x02, 0x00, 0x00, 0x00, 0x02, 0x00, 0x00, 0x00, 0x00, 0x04,
  0x00, 0x00, 0x4A, 0xFE, 0xFF, 0xFF, 0x00, 0x00, 0x00, 0x01,
  0x14, 0x00, 0x00, 0x00, 0x30, 0x00, 0x00, 0x00, 0x07, 0x00,
  0x00, 0x00, 0x00, 0x00, 0x00, 0x02, 0x54, 0x00, 0x00, 0x00,
  0xAC, 0xFD, 0xFF, 0xFF, 0x08, 0x00, 0x00, 0x00, 0x10, 0x00,
  0x00, 0x00, 0x01, 0x00, 0x00, 0x00, 0x00, 0x00, 0x00, 0x00,
  0x00, 0x00, 0x00, 0x00, 0x01, 0x00, 0x00, 0x00, 0xD5, 0x74,
  0x10, 0x37, 0x29, 0x00, 0x00, 0x00, 0x73, 0x65, 0x71, 0x75,
  0x65, 0x6E, 0x74, 0x69, 0x61, 0x6C, 0x5F, 0x31, 0x2F, 0x64,
  0x65, 0x6E, 0x73, 0x65, 0x2F, 0x42, 0x69, 0x61, 0x73, 0x41,
  0x64, 0x64, 0x2F, 0x52, 0x65, 0x61, 0x64, 0x56, 0x61, 0x72,
  0x69, 0x61, 0x62, 0x6C, 0x65, 0x4F, 0x70, 0x00, 0x00, 0x00,
  0x01, 0x00, 0x00, 0x00, 0x02, 0x00, 0x00, 0x00, 0xBE, 0xFE,
  0xFF, 0xFF, 0x00, 0x00, 0x00, 0x01, 0x14, 0x00, 0x00, 0x00,
  0x14, 0x00, 0x00, 0x00, 0x06, 0x00, 0x00, 0x00, 0x00, 0x00,
  0x00, 0x02, 0x28, 0x00, 0x00, 0x00, 0xA8, 0xFE, 0xFF, 0xFF,
  0x1A, 0x00, 0x00, 0x00, 0x73, 0x65, 0x71, 0x75, 0x65, 0x6E,
  0x74, 0x69, 0x61, 0x6C, 0x5F, 0x31, 0x2F, 0x66, 0x6C, 0x61,
  0x74, 0x74, 0x65, 0x6E, 0x2F, 0x43, 0x6F, 0x6E, 0x73, 0x74,
  0x00, 0x00, 0x01, 0x00, 0x00, 0x00, 0x02, 0x00, 0x00, 0x00,
  0x06, 0xFF, 0xFF, 0xFF, 0x00, 0x00, 0x00, 0x01, 0x14, 0x00,
  0x00, 0x00, 0x14, 0x00, 0x00, 0x00, 0x03, 0x00, 0x00, 0x00,
  0x00, 0x00, 0x00, 0x02, 0x34, 0x00, 0x00, 0x00, 0xF0, 0xFE,
  0xFF, 0xFF, 0x24, 0x00, 0x00, 0x00, 0x73, 0x65, 0x71, 0x75,
  0x65, 0x6E, 0x74, 0x69, 0x61, 0x6C, 0x5F, 0x31, 0x2F, 0x72,
  0x65, 0x73, 0x68, 0x61, 0x70, 0x65, 0x2F, 0x52, 0x65, 0x73,
  0x68, 0x61, 0x70, 0x65, 0x2F, 0x73, 0x68, 0x61, 0x70, 0x65,
  0x2F, 0x33, 0x00, 0x00, 0x00, 0x00, 0x00, 0x00, 0x00, 0x00,
  0x56, 0xFF, 0xFF, 0xFF, 0x00, 0x00, 0x00, 0x01, 0x14, 0x00,
  0x00, 0x00, 0x14, 0x00, 0x00, 0x00, 0x04, 0x00, 0x00, 0x00,
  0x00, 0x00, 0x00, 0x02, 0x34, 0x00, 0x00, 0x00, 0x40, 0xFF,
  0xFF, 0xFF, 0x24, 0x00, 0x00, 0x00, 0x73, 0x65, 0x71, 0x75,
  0x65, 0x6E, 0x74, 0x69, 0x61, 0x6C, 0x5F, 0x31, 0x2F, 0x72,
  0x65, 0x73, 0x68, 0x61, 0x70, 0x65, 0x2F, 0x52, 0x65, 0x73,
  0x68, 0x61, 0x70, 0x65, 0x2F, 0x73, 0x68, 0x61, 0x70, 0x65,
  0x2F, 0x31, 0x00, 0x00, 0x00, 0x00, 0x00, 0x00, 0x00, 0x00,
  0xA6, 0xFF, 0xFF, 0xFF, 0x00, 0x00, 0x00, 0x01, 0x14, 0x00,
  0x00, 0x00, 0x14, 0x00, 0x00, 0x00, 0x03, 0x00, 0x00, 0x00,
  0x00, 0x00, 0x00, 0x02, 0x38, 0x00, 0x00, 0x00, 0x90, 0xFF,
  0xFF, 0xFF, 0x2A, 0x00, 0x00, 0x00, 0x73, 0x65, 0x71, 0x75,
  0x65, 0x6E, 0x74, 0x69, 0x61, 0x6C, 0x5F, 0x31, 0x2F, 0x72,
  0x65, 0x73, 0x68, 0x61, 0x70, 0x65, 0x2F, 0x73, 0x74, 0x72,
  0x69, 0x64, 0x65, 0x64, 0x5F, 0x73, 0x6C, 0x69, 0x63, 0x65,
  0x2F, 0x73, 0x74, 0x61, 0x63, 0x6B, 0x5F, 0x31, 0x00, 0x00,
  0x01, 0x00, 0x00, 0x00, 0x01, 0x00, 0x00, 0x00, 0x00, 0x00,
  0x16, 0x00, 0x1C, 0x00, 0x18, 0x00, 0x17, 0x00, 0x10, 0x00,
  0x0C, 0x00, 0x08, 0x00, 0x00, 0x00, 0x00, 0x00, 0x00, 0x00,
  0x07, 0x00, 0x16, 0x00, 0x00, 0x00, 0x00, 0x00, 0x00, 0x01,
  0x18, 0x00, 0x00, 0x00, 0x18, 0x00, 0x00, 0x00, 0x02, 0x00,
  0x00, 0x00, 0x00, 0x00, 0x00, 0x02, 0x3C, 0x00, 0x00, 0x00,
  0x04, 0x00, 0x04, 0x00, 0x04, 0x00, 0x00, 0x00, 0x28, 0x00,
  0x00, 0x00, 0x73, 0x65, 0x71, 0x75, 0x65, 0x6E, 0x74, 0x69,
  0x61, 0x6C, 0x5F, 0x31, 0x2F, 0x72, 0x65, 0x73, 0x68, 0x61,
  0x70, 0x65, 0x2F, 0x73, 0x74, 0x72, 0x69, 0x64, 0x65, 0x64,
  0x5F, 0x73, 0x6C, 0x69, 0x63, 0x65, 0x2F, 0x73, 0x74, 0x61,
  0x63, 0x6B, 0x00, 0x00, 0x00, 0x00, 0x01, 0x00, 0x00, 0x00,
  0x01, 0x00, 0x00, 0x00, 0x00, 0x00, 0x16, 0x00, 0x20, 0x00,
  0x1C, 0x00, 0x1B, 0x00, 0x14, 0x00, 0x10, 0x00, 0x0C, 0x00,
  0x00, 0x00, 0x00, 0x00, 0x08, 0x00, 0x07, 0x00, 0x16, 0x00,
  0x00, 0x00, 0x00, 0x00, 0x00, 0x01, 0x18, 0x00, 0x00, 0x00,
  0x30, 0x00, 0x00, 0x00, 0x50, 0x00, 0x00, 0x00, 0x01, 0x00,
  0x00, 0x00, 0x00, 0x00, 0x00, 0x09, 0x68, 0x00, 0x00, 0x00,
  0x03, 0x00, 0x00, 0x00, 0xFF, 0xFF, 0xFF, 0xFF, 0x60, 0x00,
  0x00, 0x00, 0x60, 0x00, 0x00, 0x00, 0x0C, 0x00, 0x0C, 0x00,
  0x00, 0x00, 0x00, 0x00, 0x08, 0x00, 0x04, 0x00, 0x0C, 0x00,
  0x00, 0x00, 0x08, 0x00, 0x00, 0x00, 0x14, 0x00, 0x00, 0x00,
  0x01, 0x00, 0x00, 0x00, 0x80, 0xFF, 0xFF, 0xFF, 0xFF, 0xFF,
  0xFF, 0xFF, 0x00, 0x00, 0x00, 0x00, 0x01, 0x00, 0x00, 0x00,
  0x00, 0x00, 0x80, 0x3F, 0x1F, 0x00, 0x00, 0x00, 0x73, 0x65,
  0x72, 0x76, 0x69, 0x6E, 0x67, 0x5F, 0x64, 0x65, 0x66, 0x61,
  0x75, 0x6C, 0x74, 0x5F, 0x72, 0x65, 0x73, 0x68, 0x61, 0x70,
  0x65, 0x5F, 0x69, 0x6E, 0x70, 0x75, 0x74, 0x3A, 0x30, 0x00,
  0x03, 0x00, 0x00, 0x00, 0x01, 0x00, 0x00, 0x00, 0x60, 0x00,
  0x00, 0x00, 0x60, 0x00, 0x00, 0x00, 0x09, 0x00, 0x00, 0x00,
  0xB0, 0x00, 0x00, 0x00, 0x94, 0x00, 0x00, 0x00, 0x84, 0x00,
  0x00, 0x00, 0x74, 0x00, 0x00, 0x00, 0x60, 0x00, 0x00, 0x00,
  0x40, 0x00, 0x00, 0x00, 0x2C, 0x00, 0x00, 0x00, 0x18, 0x00,
  0x00, 0x00, 0x04, 0x00, 0x00, 0x00, 0xC0, 0xFF, 0xFF, 0xFF,
  0x19, 0x00, 0x00, 0x00, 0x02, 0x00, 0x00, 0x00, 0x00, 0x00,
  0x00, 0x19, 0xD0, 0xFF, 0xFF, 0xFF, 0x09, 0x00, 0x00, 0x00,
  0x04, 0x00, 0x00, 0x00, 0x00, 0x00, 0x00, 0x09, 0xE0, 0xFF,
  0xFF, 0xFF, 0x04, 0x00, 0x00, 0x00, 0x03, 0x00, 0x00, 0x00,
  0x00, 0x00, 0x00, 0x04, 0xF0, 0xFF, 0xFF, 0xFF, 0x11, 0x00,
  0x00, 0x00, 0x02, 0x00, 0x00, 0x00, 0x00, 0x00, 0x00, 0x11,
  0x0C, 0x00, 0x10, 0x00, 0x0F, 0x00, 0x00, 0x00, 0x08, 0x00,
  0x04, 0x00, 0x0C, 0x00, 0x00, 0x00, 0x03, 0x00, 0x00, 0x00,
  0x03, 0x00, 0x00, 0x00, 0x00, 0x00, 0x00, 0x03, 0xDC, 0xFF,
  0xFF, 0xFF, 0x16, 0x00, 0x00, 0x00, 0x00, 0x00, 0x00, 0x16,
  0xE8, 0xFF, 0xFF, 0xFF, 0x53, 0x00, 0x00, 0x00, 0x00, 0x00,
  0x00, 0x53, 0xF4, 0xFF, 0xFF, 0xFF, 0x2D, 0x00, 0x00, 0x00,
  0x00, 0x00, 0x00, 0x2D, 0x0C, 0x00, 0x0C, 0x00, 0x0B, 0x00,
  0x00, 0x00, 0x00, 0x00, 0x04, 0x00, 0x0C, 0x00, 0x00, 0x00,
  0x4D, 0x00, 0x00, 0x00, 0x00, 0x00, 0x00, 0x4D
};
const int model_tflite_len = 9008;